'<pad>_'
'<EOS>_'
' ._'
' , _'
'the_'
' '_'
'you_'
'i_'
'to_'
'a_'
'of_'
'and_'
'in_'
's_'
' . _'
'that_'
'it_'
' ?_'
'is_'
't_'
'for_'
'we_'
'but_'
'on_'
'this_'
'what_'
'he_'
'have_'
'me_'
'be_'
'-_'
'with_'
'was_'
'my_'
'are_'
' ,_'
'your_'
'can_'
'if_'
'they_'
'do_'
'know_'
're_'
'not_'
'all_'
' ? _'
'there_'
'so_'
'no_'
'just_'
'at_'
'like_'
'as_'
'from_'
' !_'
'one_'
'out_'
'get_'
'm_'
'don_'
'up_'
'about_'
'well_'
' ..._'
'her_'
'or_'
'his_'
'when_'
'an_'
'right_'
' - _'
'him_'
'here_'
'how_'
'will_'
'by_'
'think_'
'go_'
'she_'
'want_'
'were_'
'because_'
've_'
'll_'
'has_'
'more_'
'got_'
'some_'
'yeah_'
'did_'
'been_'
'time_'
'them_'
'their_'
' " _'
'had_'
'see_'
'our_'
' ! _'
'would_'
'who_'
'now_'
'okay_'
'could_'
'back_'
'let_'
'take_'
'people_'
'look_'
'us_'
'need_'
'good_'
'going_'
'where_'
'make_'
'said_'
'come_'
'gonna_'
'd_'
'which_'
'only_'
'over_'
'should_'
'into_'
' ... _'
'hey_'
'than_'
'say_'
'really_'
'new_'
'way_'
'other_'
'then_'
'something_'
' : _'
'tell_'
'didn_'
'two_'
'man_'
'down_'
'even_'
'mean_'
'never_'
'little_'
'after_'
'am_'
'these_'
'off_'
'yes_'
'its_'
'oh_'
'_'
'too_'
'any_'
'first_'
'much_'
'mr_'
'. _'
'._'
'before_'
'very_'
'still_'
'why_'
'day_'
'work_'
'also_'
'life_'
'give_'
'years_'
'may_'
'many_'
'thought_'
'love_'
'find_'
'those_'
'world_'
'help_'
'most_'
' ' _'
'put_'
'thing_'
'year_'
'last_'
'doing_'
' -_'
'every_'
'great_'
'through_'
'long_'
'made_'
'home_'
'such_'
' ( _'
'three_'
'sure_'
'things_'
'must_'
'being_'
'again_'
'better_'
'around_'
'stop_'
'away_'
'told_'
'always_'
'does_'
'might_'
'anything_'
'best_'
'china_'
'big_'
'please_'
'old_'
'while_'
'money_'
'talk_'
'call_'
'night_'
'everything_'
'maybe_'
' ; _'
'ever_'
'own_'
'room_'
'today_'
' . - _'
'lot_'
'guys_'
'keep_'
'place_'
'someone_'
'believe_'
'guy_'
'feel_'
'use_'
'house_'
'left_'
'high_'
'next_'
'both_'
'sorry_'
'found_'
'another_'
'god_'
'few_'
'same_'
'came_'
'business_'
'won_'
'used_'
'kind_'
'wanted_'
'nothing_'
'doesn_'
'family_'
'enough_'
'name_'
'stay_'
'leave_'
'done_'
'each_'
'between_'
'once_'
'saw_'
'listen_'
'looking_'
'bad_'
'school_'
'already_'
'car_'
'says_'
'father_'
'job_'
'government_'
'together_'
'getting_'
'chinese_'
'mom_'
'company_'
'real_'
'show_'
'fine_'
'actually_'
'trying_'
'system_'
'mother_'
'part_'
'l_'
' ) _'
'girl_'
'whole_'
'went_'
'start_'
'called_'
'uh_'
'city_'
'hear_'
'seen_'
'end_'
'son_'
'yet_'
'head_'
'else_'
'open_'
' , " _'
'case_'
'hard_'
'country_'
'isn_'
'remember_'
'free_'
'days_'
'without_'
'hope_'
'baby_'
'mind_'
'wrong_'
'under_'
'coming_'
' ? - _'
'men_'
'nice_'
'took_'
'ago_'
'care_'
'different_'
'move_'
'sometimes_'
'state_'
'water_'
'understand_'
'run_'
'face_'
'since_'
'try_'
'ask_'
'yourself_'
'person_'
'against_'
'happened_'
'second_'
'week_'
'change_'
'live_'
'talking_'
'set_'
'bring_'
'dead_'
'party_'
'thank_'
'having_'
'times_'
'kill_'
' $ _'
'woman_'
'heart_'
'making_'
'e_'
'knew_'
'important_'
'market_'
'sir_'
'hand_'
'boy_'
'friend_'
'1_'
'four_'
'morning_'
'pretty_'
'hold_'
'far_'
'five_'
'friends_'
'working_'
'ready_'
'during_'
'problem_'
'play_'
'though_'
'power_'
'children_'
'heard_'
'wife_'
' . "_'
'course_'
'wait_'
'less_'
'wasn_'
'dad_'
'full_'
'idea_'
'body_'
'lost_'
'probably_'
'almost_'
'become_'
'later_'
'women_'
'pay_'
'makes_'
'--_'
'small_'
'point_'
'turn_'
'shall_'
'food_'
'matter_'
'study_'
'number_'
'everyone_'
'myself_'
'american_'
'wouldn_'
'couldn_'
'president_'
'wanna_'
'half_'
'gotta_'
'taking_'
'young_'
'bit_'
'2_'
'whatever_'
'public_'
'u_'
'hell_'
'meet_'
'hotel_'
'phone_'
'soon_'
'however_'
'thinking_'
'until_'
'team_'
'deal_'
'haven_'
'asked_'
'able_'
'past_'
'side_'
'months_'
'law_'
'saying_'
'control_'
'alone_'
'killed_'
'hours_'
'comes_'
'happy_'
'information_'
'kids_'
'means_'
'brother_'
'book_'
'war_'
'according_'
'ah_'
'tonight_'
'hit_'
'line_'
'human_'
'office_'
' % _'
'close_'
'america_'
'fucking_'
'bed_'
'bank_'
'order_'
'read_'
'police_'
'blood_'
'somebody_'
'western_'
'huh_'
'hot_'
'looks_'
'often_'
'anyone_'
'research_'
'game_'
'minutes_'
'top_'
'10_'
'death_'
'hands_'
'service_'
'behind_'
'gone_'
'air_'
'based_'
'stuff_'
'started_'
'hi_'
'cause_'
'eat_'
'kid_'
'others_'
'group_'
'area_'
'least_'
'late_'
'miss_'
'news_'
'light_'
'easy_'
'couple_'
'eyes_'
'south_'
'fact_'
'story_'
'thanks_'
'town_'
'true_'
'economic_'
'reason_'
'per_'
'inside_'
'companies_'
'cut_'
'door_'
'front_'
'buy_'
'including_'
'local_'
'whether_'
'street_'
'y_'
'5_'
'living_'
'exactly_'
'die_'
'cannot_'
'check_'
'hello_'
'plan_'
'either_'
'national_'
'tried_'
'development_'
'security_'
'00_'
'outside_'
'gave_'
'tomorrow_'
'known_'
'child_'
'dinner_'
'word_'
'stand_'
'countries_'
'n_'
'chance_'
'along_'
'break_'
'fire_'
'beautiful_'
'early_'
'happen_'
'forget_'
'wants_'
'white_'
'building_'
'king_'
'international_'
'six_'
'rest_'
'future_'
'shot_'
'watch_'
'social_'
'financial_'
'million_'
'3_'
'parents_'
'brought_'
'coffee_'
'university_'
'given_'
'fun_'
'north_'
'rather_'
'clear_'
'sleep_'
'gets_'
'needs_'
'fight_'
'shit_'
'o_'
'everybody_'
'especially_'
'taken_'
'large_'
'question_'
'doctor_'
'special_'
'walk_'
'using_'
'possible_'
' / _'
'husband_'
'across_'
'excuse_'
'paper_'
' " ._'
'fuck_'
'supposed_'
'several_'
'non_'
'drink_'
'met_'
'economy_'
'among_'
'earth_'
'guess_'
'black_'
'quite_'
'low_'
'political_'
'technology_'
'goes_'
'risk_'
'foreign_'
'private_'
'internet_'
'truth_'
'report_'
'20_'
'safe_'
'growth_'
'tv_'
'instead_'
'month_'
'class_'
'words_'
'seem_'
'girls_'
'hour_'
'hurt_'
'meeting_'
'daughter_'
'strong_'
'running_'
'red_'
'save_'
'lose_'
'general_'
'died_'
'history_'
'problems_'
'send_'
'seems_'
'perfect_'
'ain_'
'short_'
'self_'
'land_'
'sex_'
'health_'
'near_'
'answer_'
'gun_'
'space_'
'crazy_'
'weeks_'
'ten_'
'longer_'
'states_'
'sounds_'
'sit_'
'learn_'
'enjoy_'
'within_'
'knows_'
'married_'
'access_'
'drive_'
'speak_'
'road_'
'30_'
'breakfast_'
'price_'
'energy_'
'although_'
'data_'
'support_'
'middle_'
'industry_'
'moment_'
'trust_'
' & _'
'global_'
'sound_'
'pick_'
'poor_'
'lives_'
'perhaps_'
'ass_'
'sense_'
'worry_'
'test_'
'third_'
'management_'
'court_'
'sent_'
'single_'
',_'
'fast_'
'looked_'
'york_'
'needed_'
'himself_'
'um_'
'age_'
'r_'
'level_'
'students_'
'win_'
'center_'
'example_'
'process_'
'ok_'
'mine_'
'aren_'
'likely_'
'policy_'
'sister_'
'minute_'
'feeling_'
'step_'
'offer_'
'east_'
'trouble_'
'finally_'
'dog_'
'available_'
'capital_'
'boys_'
'waiting_'
'fall_'
'experience_'
'ahead_'
'major_'
'dr_'
'oil_'
'trade_'
'west_'
'4_'
'rooms_'
'lead_'
'form_'
'return_'
'list_'
'evidence_'
'works_'
'share_'
'p_'
'hospital_'
'music_'
'sort_'
'english_'
'hair_'
'follow_'
'military_'
'6_'
'turned_'
'education_'
'ing_'
'key_'
'united_'
'interest_'
'cost_'
'park_'
'force_'
'value_'
'promise_'
'afraid_'
'effect_'
'banks_'
'term_'
'personal_'
'playing_'
'date_'
'figure_'
'rich_'
'view_'
'anymore_'
'ground_'
'sign_'
'pull_'
'rate_'
'act_'
'lord_'
'europe_'
'000_'
'boss_'
'bar_'
'chief_'
'telling_'
'board_'
'recent_'
'relationship_'
'field_'
'worked_'
'cold_'
'higher_'
'cool_'
'serious_'
'yesterday_'
'brain_'
'central_'
'leaving_'
'clean_'
'nobody_'
'7_'
'happens_'
'alive_'
'questions_'
'worth_'
'sea_'
'analysis_'
'college_'
'wish_'
'felt_'
'sell_'
'takes_'
'services_'
'spend_'
'choice_'
'stupid_'
'moving_'
'themselves_'
'main_'
'became_'
'further_'
'credit_'
'lunch_'
'situation_'
' ) ._'
'giving_'
'art_'
'eye_'
'ways_'
' ’ _'
'8_'
'tax_'
'speed_'
'ed_'
'lady_'
'shouldn_'
'spent_'
'write_'
'ones_'
'beijing_'
'sun_'
'seven_'
'double_'
'honey_'
'c_'
'yours_'
'wall_'
'design_'
'decided_'
'table_'
'investment_'
'prices_'
'billion_'
'project_'
'ma_'
'straight_'
'50_'
'markets_'
'river_'
'present_'
'common_'
'weren_'
'science_'
'picture_'
'em_'
'japan_'
'changed_'
' ) , _'
'difficult_'
'shut_'
'secret_'
'certain_'
'crisis_'
'drop_'
'computer_'
'dude_'
'forward_'
'model_'
'floor_'
'hate_'
'quality_'
'paid_'
'dream_'
'usually_'
'position_'
'attention_'
'theory_'
'piece_'
'above_'
'rules_'
'15_'
'eight_'
'funny_'
'natural_'
'entire_'
'former_'
'born_'
'upon_'
'sick_'
'protect_'
'swear_'
'modern_'
'hang_'
'touch_'
'pass_'
'fear_'
'catch_'
'feet_'
'minister_'
'earlier_'
'current_'
'station_'
'quickly_'
'obama_'
'explain_'
'action_'
'london_'
'property_'
'smoking_'
'pain_'
'asking_'
'medical_'
'co_'
'gas_'
'murder_'
'army_'
'society_'
'investors_'
'deep_'
'media_'
'meant_'
'growing_'
'round_'
'attack_'
'damn_'
'members_'
'anybody_'
'decision_'
'anyway_'
'100_'
'somewhere_'
'pressure_'
'plans_'
'itself_'
'type_'
'miles_'
'european_'
'shoot_'
'card_'
'loved_'
'queen_'
'recently_'
'record_'
'plus_'
'sweet_'
'9_'
'voice_'
'12_'
'products_'
'green_'
'expect_'
'crime_'
'cell_'
'dance_'
'seeing_'
'cash_'
'provide_'
'site_'
'india_'
'huge_'
'bet_'
'kept_'
'star_'
'include_'
'biggest_'
'lie_'
'er_'
'fish_'
'practice_'
'movie_'
'began_'
'island_'
'simple_'
'build_'
'lucky_'
'quick_'
'missing_'
'tea_'
'completely_'
'box_'
'mrs_'
'throw_'
'search_'
'bought_'
'dark_'
'create_'
'fresh_'
'led_'
'visit_'
'department_'
'song_'
'ice_'
'firm_'
'built_'
'rights_'
'french_'
'culture_'
'store_'
'imagine_'
'british_'
'cover_'
'charge_'
'summer_'
'worse_'
'role_'
'moved_'
'due_'
'language_'
'following_'
'master_'
'beat_'
'books_'
'nature_'
'sales_'
'areas_'
'changes_'
'continue_'
'calls_'
'wear_'
'held_'
'size_'
'demand_'
'train_'
'nearly_'
'hmm_'
'bitch_'
'online_'
'debt_'
' :_'
'hong_'
'training_'
'jobs_'
'suddenly_'
'lower_'
'caught_'
'club_'
'calling_'
'involved_'
'period_'
'drug_'
'till_'
'wedding_'
'normal_'
'cases_'
'message_'
'post_'
'stopped_'
'mouth_'
'workers_'
'realize_'
'legal_'
'watching_'
'blue_'
' : " _'
'sitting_'
'clothes_'
'staff_'
'broke_'
'fell_'
'results_'
'busy_'
'ran_'
'standing_'
'trip_'
'certainly_'
'agree_'
'ms_'
'account_'
'except_'
'officials_'
'ability_'
'ship_'
' " , _'
'simply_'
'kong_'
'g_'
'interesting_'
'absolutely_'
'talked_'
'shows_'
'bill_'
'marriage_'
'focus_'
'performance_'
'starting_'
'popular_'
'places_'
'john_'
'desk_'
'screen_'
'press_'
'extra_'
'production_'
'partner_'
'guest_'
'bag_'
'restaurant_'
'totally_'
'issue_'
'gold_'
'article_'
'fighting_'
'peace_'
'century_'
'film_'
'window_'
'standard_'
'quiet_'
'worried_'
'hurry_'
'television_'
'lying_'
'systems_'
'style_'
'program_'
'weird_'
'guests_'
'japanese_'
'cross_'
'reach_'
'handle_'
'welcome_'
'ride_'
'respect_'
'environment_'
'drugs_'
'parts_'
'mile_'
'eating_'
'flat_'
'effects_'
'nuclear_'
'ball_'
'pool_'
'similar_'
'scared_'
'whose_'
'tree_'
'letter_'
'learned_'
'increase_'
'prison_'
'driving_'
'tired_'
' ! - _'
'spending_'
'success_'
'safety_'
'machine_'
'grow_'
'stage_'
'rise_'
'result_'
'allowed_'
'allow_'
'writing_'
'wearing_'
'expected_'
'video_'
'carry_'
'complete_'
'product_'
'offers_'
'bus_'
'base_'
'reading_'
'games_'
'ancient_'
'finish_'
'gives_'
'potential_'
'total_'
'google_'
'wine_'
'final_'
'showed_'
'40_'
'fair_'
'travel_'
'choose_'
'thousands_'
'holding_'
'region_'
'neither_'
'points_'
'cars_'
'plane_'
'student_'
'studies_'
'stick_'
'exchange_'
'costs_'
'sold_'
'dress_'
'teacher_'
'percent_'
'plant_'
'scene_'
'mistake_'
'traditional_'
'helped_'
'radio_'
'stock_'
'feels_'
'exit_'
'rock_'
'rates_'
'located_'
'issues_'
'otherwise_'
'boat_'
'b_'
'beginning_'
'smart_'
'refrigerator_'
'file_'
'es_'
'disease_'
'broken_'
'beyond_'
'thinks_'
'numbers_'
'construction_'
'official_'
'apple_'
'victim_'
'forces_'
'difference_'
'careful_'
'related_'
'lived_'
'heavy_'
'dangerous_'
'towards_'
'operation_'
'application_'
'britain_'
'bigger_'
'address_'
'11_'
'firms_'
'contact_'
'push_'
'seriously_'
'ring_'
'insurance_'
'buddy_'
'raise_'
'treatment_'
'avoid_'
'leaders_'
'killer_'
'method_'
'community_'
'putting_'
'necessary_'
'indeed_'
'groups_'
'scientists_'
'patients_'
'anti_'
'airport_'
'knowledge_'
'nine_'
'fund_'
'amount_'
'germany_'
'interested_'
'george_'
'teaching_'
'france_'
'cancer_'
'subject_'
'foot_'
'evening_'
'source_'
'inch_'
'tough_'
'accept_'
'rule_'
'prime_'
'apartment_'
'terms_'
'shop_'
'planning_'
'famous_'
'network_'
'accident_'
'prove_'
'killing_'
'fly_'
'russia_'
'bear_'
'mm_'
'blow_'
'church_'
'leader_'
'amazing_'
'opportunity_'
'average_'
'resources_'
'patient_'
'lawyer_'
'professor_'
'wake_'
'add_'
'basic_'
'wind_'
'career_'
'played_'
'developed_'
'dollars_'
'skin_'
'slow_'
'agent_'
'learning_'
'member_'
'al_'
'walking_'
'spirit_'
'competition_'
'christmas_'
'powerful_'
'mad_'
'seemed_'
'officer_'
'selling_'
'maker_'
'consider_'
'executive_'
'event_'
'weight_'
'judge_'
'worst_'
'strange_'
'code_'
'responsible_'
'happening_'
'fat_'
'damage_'
'besides_'
'levels_'
'immediately_'
'remains_'
'fruit_'
'fix_'
'definitely_'
'cop_'
'web_'
'spring_'
'director_'
'washington_'
'nation_'
'supply_'
'onto_'
'count_'
'features_'
'begin_'
'reported_'
'wrote_'
'forever_'
'lots_'
'loss_'
'suggest_'
'german_'
'soul_'
'remain_'
'flight_'
'captain_'
'track_'
'willing_'
'season_'
'particular_'
'largest_'
'ideas_'
'glad_'
'appreciate_'
'created_'
'match_'
'join_'
'gift_'
'federal_'
'relax_'
'caused_'
'asia_'
'none_'
'h_'
'passed_'
'mark_'
'luck_'
'sky_'
'reports_'
'cells_'
'written_'
'leading_'
'missed_'
'americans_'
'leaves_'
'bye_'
'spot_'
'suppose_'
'eventually_'
'contract_'
'teach_'
'anywhere_'
'comfortable_'
'hundred_'
'ng_'
'24_'
'iron_'
'goods_'
'girlfriend_'
'memory_'
'helping_'
'village_'
'target_'
'saved_'
'daily_'
'vote_'
'smell_'
'angry_'
'fit_'
'animals_'
'particularly_'
'finished_'
'approach_'
'speaking_'
'researchers_'
'horse_'
'25_'
'planet_'
' , ' _'
'campaign_'
'liked_'
'grab_'
'alright_'
'glass_'
'conditions_'
'beer_'
'page_'
'mobile_'
'union_'
'structure_'
'de_'
'suspect_'
'therefore_'
'keeping_'
'election_'
'hide_'
'camera_'
'strategy_'
'admit_'
'thus_'
'plenty_'
'daddy_'
'client_'
'administration_'
'finding_'
'seat_'
'favor_'
'software_'
'schools_'
'boyfriend_'
'animal_'
'series_'
'income_'
'content_'
'mission_'
'female_'
'wonder_'
'physical_'
'names_'
'funds_'
'customers_'
'terrible_'
'grand_'
'wonderful_'
'microwave_'
'race_'
'population_'
'clearly_'
'notice_'
'parking_'
'losing_'
'governments_'
'failed_'
'equipment_'
'closed_'
'cities_'
'afternoon_'
'activity_'
'twice_'
'influence_'
'range_'
'picked_'
'original_'
'improve_'
'surprise_'
'protection_'
'investigation_'
'image_'
'st_'
' . " _'
'lake_'
'proud_'
'beach_'
'parties_'
'quit_'
'impact_'
'truck_'
'promised_'
'bathroom_'
'cent_'
'received_'
'reasons_'
'pictures_'
'battle_'
'professional_'
'families_'
'material_'
'conference_'
'arm_'
'events_'
'sing_'
' " ?_'
'korea_'
' ...... _'
'shower_'
'reform_'
'greater_'
'feelings_'
'arms_'
'agreed_'
'stories_'
'doubt_'
'calm_'
' ;_'
'advice_'
'shoes_'
'paris_'
'decide_'
'birthday_'
'meanwhile_'
'dreams_'
'africa_'
'suit_'
'pulled_'
'honor_'
'traffic_'
'challenge_'
'measures_'
'employees_'
'drinking_'
'designed_'
'considered_'
'bottom_'
'wide_'
'successful_'
'strength_'
'serve_'
'senior_'
'inn_'
'manager_'
'honest_'
'obviously_'
'directly_'
'location_'
'individual_'
'forced_'
'favorite_'
'easily_'
'domestic_'
'adult_'
'shanghai_'
'evil_'
'0_'
'weapons_'
'spread_'
'note_'
'medicine_'
'jail_'
'methods_'
'specific_'
'mountain_'
'lines_'
'easier_'
'committee_'
'bridge_'
'mess_'
'hoping_'
'hundreds_'
'agency_'
'freedom_'
'dry_'
'condition_'
'san_'
'hasn_'
'speech_'
'hole_'
'clock_'
'mail_'
'stuck_'
'russian_'
'march_'
'below_'
'weather_'
'includes_'
'ex_'
'drunk_'
'empty_'
'corner_'
'fired_'
'cops_'
'square_'
'beauty_'
'dying_'
'hearing_'
'fault_'
'weapon_'
'positive_'
'trial_'
'milk_'
'gentlemen_'
'direct_'
'separate_'
' . , _'
'surface_'
'progress_'
'advantage_'
'stars_'
'scale_'
'limited_'
'buying_'
'2008_'
'taste_'
'blame_'
'ya_'
'developing_'
'corporate_'
'kiss_'
'k_'
'direction_'
'behavior_'
'agreement_'
'taiwan_'
'flowers_'
'raised_'
'believed_'
'unit_'
'treat_'
'cup_'
'various_'
'paying_'
'older_'
'meaning_'
'marry_'
'california_'
'unless_'
'commercial_'
'civil_'
'brand_'
'surgery_'
'records_'
'province_'
'male_'
'friday_'
'weekend_'
'sad_'
'dollar_'
'quarter_'
'monday_'
'israel_'
'users_'
'opinion_'
'friendly_'
'appear_'
'2010_'
'warm_'
'thousand_'
'forgive_'
'f_'
'produce_'
'chair_'
'cultural_'
'turns_'
'sports_'
'jack_'
'develop_'
'bodies_'
'highly_'
'dear_'
'responsibility_'
'color_'
'followed_'
'addition_'
'rain_'
'council_'
'cat_'
'added_'
'emergency_'
'zone_'
'roll_'
'jesus_'
'reality_'
'wild_'
'release_'
'opened_'
'jump_'
'county_'
'skills_'
'moon_'
'heat_'
'criminal_'
'exercise_'
'checked_'
'acting_'
'bomb_'
'owe_'
'lay_'
'healthy_'
'sleeping_'
'statement_'
'industrial_'
'millions_'
'centre_'
'bullet_'
'purpose_'
'david_'
'efforts_'
'named_'
'waste_'
'balance_'
'fully_'
'becoming_'
'toward_'
'effort_'
'sector_'
'england_'
'faster_'
'danger_'
'dropped_'
'beds_'
'victims_'
'character_'
'southern_'
'species_'
'likes_'
'excellent_'
'weak_'
'politics_'
'everywhere_'
'nor_'
'nations_'
'heads_'
'provided_'
'doctors_'
'lack_'
'justice_'
'mama_'
'latest_'
'bringing_'
'mostly_'
'li_'
'spoke_'
'seconds_'
'possibly_'
'opening_'
'effective_'
'becomes_'
'secretary_'
'ladies_'
'apart_'
'block_'
'indian_'
'threat_'
'response_'
'duty_'
'activities_'
'laws_'
'faith_'
'photo_'
'bird_'
'complimentary_'
'gay_'
'soldiers_'
'lock_'
'cute_'
'ticket_'
'escape_'
'failure_'
'discovered_'
'rising_'
'owned_'
'ended_'
'18_'
'expensive_'
'businesses_'
'magic_'
'enemy_'
'steal_'
'kitchen_'
'discuss_'
'concerned_'
'reduce_'
' ? ._'
'dogs_'
'uncle_'
'crap_'
'bunch_'
'stress_'
'staying_'
'orders_'
'interview_'
'prepared_'
'impossible_'
'function_'
'upset_'
'trees_'
'hall_'
'appears_'
'organization_'
'arrived_'
' ? !_'
'stone_'
'defense_'
'climate_'
'player_'
'lab_'
'sunday_'
'required_'
'garden_'
'feed_'
'closer_'
'finance_'
'winter_'
'prefer_'
'highway_'
'pregnant_'
'plants_'
'offered_'
'mention_'
'meat_'
'changing_'
'walked_'
'status_'
'benefit_'
'published_'
'lovely_'
'birth_'
'pop_'
'announced_'
'60_'
'tape_'
'guard_'
'fill_'
'grown_'
'authorities_'
'guilty_'
'generation_'
'factors_'
'signs_'
'ocean_'
'camp_'
'shopping_'
'kidding_'
'budget_'
'suite_'
'ly_'
'giant_'
'realized_'
'falling_'
'draw_'
'complex_'
'somehow_'
'conversation_'
'mass_'
'fuel_'
'basis_'
'regular_'
'nervous_'
'mini_'
'eggs_'
'currency_'
'benefits_'
'leg_'
'shooting_'
'hardly_'
'text_'
'relations_'
'details_'
'smoke_'
'distance_'
'herself_'
'released_'
'arrest_'
'tells_'
'streets_'
'prevent_'
'movement_'
'forest_'
'enter_'
'200_'
'brothers_'
'task_'
'rid_'
'driver_'
'legs_'
'brown_'
'afford_'
'truly_'
'smaller_'
'claim_'
'cry_'
'sexual_'
'ourselves_'
'fool_'
'talks_'
'assets_'
'smile_'
'scientific_'
'holy_'
'gotten_'
'strike_'
'guns_'
'frank_'
'facilities_'
'museum_'
'super_'
'negative_'
'bedroom_'
'14_'
'michael_'
'matters_'
'tiny_'
'previous_'
'hat_'
'projects_'
'prepare_'
'increased_'
'hungry_'
'experts_'
'thoughts_'
'listening_'
'throughout_'
'ooh_'
'goal_'
'flying_'
'ensure_'
'neck_'
'inflation_'
'authority_'
'district_'
'mommy_'
'bottle_'
'tests_'
'2009_'
'whenever_'
'unique_'
'covered_'
'football_'
'dirty_'
'border_'
'16_'
'barely_'
'active_'
'noticed_'
'innocent_'
'environmental_'
'stole_'
'exist_'
'500_'
'starts_'
'connection_'
'included_'
'burn_'
'taught_'
'shift_'
'heaven_'
'soft_'
'figured_'
'kick_'
'path_'
'offering_'
'degree_'
'understanding_'
'signed_'
'ha_'
'greatest_'
'locked_'
'fi_'
'x_'
'witness_'
'hadn_'
'euro_'
'pleasure_'
'materials_'
'whom_'
'reached_'
'chicken_'
'brings_'
'ate_'
'tour_'
'helps_'
'setting_'
'peter_'
'universe_'
'shape_'
'fee_'
'band_'
'showing_'
'rare_'
'bush_'
'standards_'
'pre_'
'fed_'
'deserve_'
'houses_'
'mexico_'
'seek_'
'keeps_'
'sat_'
'significant_'
'harder_'
'filled_'
'trading_'
'solution_'
'hero_'
'fixed_'
'cards_'
'forgot_'
'yo_'
'bright_'
'lies_'
'iran_'
'joint_'
'windows_'
'tight_'
'fashion_'
'nose_'
'request_'
'factory_'
'extremely_'
'happiness_'
'congress_'
'recognize_'
'estate_'
'version_'
'june_'
'uses_'
'concern_'
'tend_'
'players_'
'survive_'
'lights_'
'suites_'
'sale_'
'familiar_'
'rose_'
'notes_'
'policies_'
'hanging_'
'farm_'
'charges_'
'blind_'
'compared_'
'receive_'
'facebook_'
'review_'
'pack_'
'wi_'
'route_'
'digital_'
'dancing_'
'map_'
'enterprise_'
' ......_'
'sight_'
'confidence_'
'turning_'
'movies_'
'ill_'
'birds_'
'papers_'
'clients_'
'pants_'
'breaking_'
'aware_'
'arrested_'
'files_'
'consumer_'
'aid_'
'chairman_'
'awesome_'
'suggests_'
'generally_'
'fail_'
'technical_'
'shown_'
'fortune_'
'commission_'
' ... - _'
'steps_'
'copy_'
'despite_'
'surely_'
'sudden_'
'idiot_'
'alarm_'
'interests_'
'carbon_'
'yep_'
'surprised_'
'section_'
'independent_'
'customer_'
'basically_'
'joke_'
'flow_'
'pieces_'
'carried_'
'hopefully_'
'storm_'
'intelligence_'
'net_'
'edge_'
'bond_'
'cheap_'
'banking_'
'vehicle_'
'shirt_'
'runs_'
'planned_'
'tuesday_'
'coast_'
'paul_'
'humans_'
'shares_'
'laugh_'
'faces_'
'ends_'
'annual_'
'stood_'
'concept_'
'believes_'
'vice_'
'institute_'
'la_'
'saturday_'
'obvious_'
'analysts_'
'kinds_'
'july_'
'emerging_'
'17_'
'tickets_'
'measure_'
'illegal_'
'asian_'
'van_'
'sees_'
'dressed_'
'northern_'
'instance_'
'newspaper_'
'correct_'
'apply_'
'operating_'
'13_'
'pretend_'
'hiding_'
'device_'
'urban_'
'profit_'
'pair_'
'destroy_'
'advanced_'
'tech_'
'split_'
'teeth_'
'core_'
'larger_'
'decisions_'
'thursday_'
'meal_'
'hill_'
'fake_'
'sides_'
'saving_'
'partners_'
'photos_'
'package_'
'loves_'
'lied_'
'apologize_'
'wealth_'
'require_'
'command_'
'chain_'
'transfer_'
'sites_'
' )_'
'sugar_'
'proof_'
'launch_'
'grade_'
'en_'
'drinks_'
'creating_'
'attempt_'
'waffles_'
'painting_'
'operations_'
'marketing_'
'fellow_'
'engine_'
'bone_'
'additional_'
'labor_'
'iraq_'
'actual_'
'w_'
'suicide_'
'electric_'
'served_'
'religious_'
'italy_'
'cook_'
'vision_'
'stayed_'
'managed_'
'politicians_'
'ought_'
'september_'
'rice_'
'los_'
'violence_'
'useful_'
'consumers_'
'detective_'
'cutting_'
'sake_'
'holiday_'
'troops_'
'sending_'
'risks_'
'prince_'
'tom_'
'teachers_'
'talent_'
'solar_'
'housing_'
'satellite_'
'regional_'
'snow_'
'knife_'
'opposition_'
'internal_'
'headed_'
'harry_'
'figures_'
'characteristics_'
'valley_'
'survey_'
'ordered_'
'multiple_'
'options_'
'bastard_'
'engineering_'
'causes_'
'background_'
'pattern_'
'grew_'
'gate_'
'communication_'
'assume_'
'perfectly_'
'mate_'
'hopes_'
'younger_'
'tie_'
'democratic_'
'principle_'
'decades_'
'tools_'
'screw_'
'rescue_'
'remove_'
'library_'
'feature_'
'homes_'
'accounts_'
'wood_'
'secure_'
'foundation_'
'crew_'
'bonds_'
'types_'
'claims_'
'fiscal_'
'v_'
'returned_'
'divorce_'
'manage_'
'excited_'
'chemical_'
'lift_'
'dealing_'
'cable_'
'institutions_'
'april_'
'soil_'
'increasingly_'
'finger_'
'cuts_'
'apparently_'
'crash_'
'yellow_'
'association_'
'finds_'
'armed_'
'mid_'
'2011_'
'letting_'
'le_'
'folks_'
'dare_'
'breath_'
'babies_'
'80_'
'metal_'
'32_'
'provides_'
'officers_'
'mental_'
'asleep_'
'afghanistan_'
'taxes_'
'relatively_'
'italian_'
'division_'
'colleagues_'
'powers_'
'fourth_'
'author_'
'2007_'
'signal_'
'wireless_'
'highest_'
'established_'
'buildings_'
'steel_'
'greece_'
'wednesday_'
'primary_'
'pakistan_'
'models_'
'guide_'
'entirely_'
'eastern_'
'bath_'
'letters_'
'fan_'
'existing_'
'temperature_'
'stomach_'
'manufacturing_'
'cream_'
'solve_'
'mary_'
'innovation_'
'option_'
'nearby_'
'revolution_'
'comfort_'
'suffer_'
'mainly_'
'golf_'
'fishing_'
'deliver_'
'appeared_'
'maintain_'
'ii_'
'greek_'
' ...._'
'stronger_'
'introduced_'
'massive_'
'concerns_'
'spain_'
'korean_'
'aircraft_'
'teams_'
'warning_'
'mayor_'
'leadership_'
'january_'
'argue_'
' .._'
'owner_'
'buried_'
'sweetheart_'
'moves_'
'expert_'
'winning_'
'wave_'
'capacity_'
'answers_'
'usual_'
'un_'
'trick_'
'magazine_'
'coach_'
'actions_'
'overall_'
'crowd_'
'debate_'
'angeles_'
'wet_'
'reserve_'
'produced_'
'personally_'
'treated_'
'port_'
'currently_'
'critical_'
'mentioned_'
'october_'
'festival_'
'economies_'
'crying_'
'continued_'
'agents_'
'documents_'
'object_'
'link_'
'distribution_'
'belong_'
'acid_'
'knowing_'
'upstairs_'
'threw_'
'moral_'
'amenities_'
'walls_'
'swimming_'
'spanish_'
'recovery_'
'leads_'
'goodbye_'
'solid_'
'pure_'
'historical_'
'struggle_'
'keys_'
'images_'
'gain_'
'carrying_'
'african_'
'rent_'
'laid_'
'audience_'
'settle_'
'presence_'
'limit_'
'lee_'
'cake_'
'spacious_'
'loans_'
'introduce_'
'eh_'
'downtown_'
'uk_'
'schedule_'
'devices_'
'tall_'
'puts_'
'forms_'
'attacks_'
'invited_'
'wondering_'
'increasing_'
'sources_'
'singing_'
'plastic_'
'express_'
'equity_'
'bloody_'
'items_'
'facing_'
'capable_'
'proper_'
'league_'
'doors_'
'dating_'
'microsoft_'
'stolen_'
'royal_'
'juice_'
'democracy_'
'suggested_'
'brazil_'
'lcd_'
'hidden_'
'mood_'
'ministry_'
'described_'
'affairs_'
'trend_'
'warned_'
'tears_'
'mountains_'
'temple_'
'focused_'
'december_'
'abroad_'
'testing_'
'possibility_'
'eu_'
'alcohol_'
'slowly_'
'sweetie_'
'sensitive_'
'citizens_'
'labour_'
'committed_'
'managers_'
'disaster_'
'chest_'
'bother_'
'associated_'
'variety_'
'therapy_'
'joined_'
'falls_'
'destroyed_'
'goddamn_'
'desire_'
'attorney_'
'hired_'
'chicago_'
'journey_'
'connected_'
'watched_'
'mistakes_'
'hairdryer_'
'august_'
'silver_'
'fallen_'
'aside_'
'allows_'
'writer_'
'victory_'
'roof_'
'fingers_'
'enterprises_'
'canada_'
'attitude_'
'ear_'
'chocolate_'
' ? "_'
'units_'
'switch_'
'reputation_'
'relationships_'
'harm_'
'governor_'
'badly_'
'virus_'
'communist_'
'rural_'
'raising_'
'collection_'
'bread_'
'studying_'
'plays_'
'luxury_'
'australia_'
'pushed_'
'paint_'
'boston_'
'90_'
'rough_'
'factor_'
'driven_'
'transport_'
'pray_'
'mechanism_'
'achieve_'
'opposite_'
'murdered_'
'relevant_'
'pocket_'
'circumstances_'
'proposed_'
'phones_'
'pet_'
'heading_'
'anger_'
'salt_'
'pro_'
'nights_'
'fantastic_'
'cloud_'
'texas_'
'romantic_'
'index_'
'comment_'
'carefully_'
'counter_'
'secrets_'
'identify_'
'experiment_'
'bite_'
'studied_'
'perform_'
'knock_'
'fields_'
'conflict_'
'complicated_'
'accessible_'
'yuan_'
'tub_'
'seeking_'
'james_'
'dust_'
'neighborhood_'
'messages_'
'vast_'
'suffering_'
'brilliant_'
'advance_'
'majority_'
'ordinary_'
'website_'
'awful_'
'sooner_'
'programs_'
'launched_'
'executives_'
'display_'
'noise_'
'facility_'
'christ_'
'attacked_'
'affect_'
'values_'
'pacific_'
'mirror_'
'determined_'
'detail_'
'desert_'
'vehicles_'
'profits_'
'views_'
'fans_'
'consumption_'
'sharp_'
'bay_'
'artist_'
'70_'
'wise_'
'naked_'
'via_'
'loose_'
'lesson_'
'deals_'
'thin_'
'soldier_'
'emotional_'
'user_'
'upper_'
'requires_'
'remind_'
'reaction_'
'lonely_'
'gang_'
'widely_'
'sword_'
'placed_'
'november_'
'toilet_'
'hire_'
'false_'
'telephone_'
'princess_'
'picking_'
'ears_'
'wound_'
'atmosphere_'
'rs_'
'religion_'
'ghost_'
'combination_'
'tool_'
'regulations_'
'loan_'
'applied_'
'technique_'
'residents_'
'fifth_'
'stands_'
'honestly_'
'tip_'
'recession_'
'plate_'
'argument_'
'steve_'
'print_'
'electronic_'
'ceo_'
'boom_'
'alternative_'
'understood_'
'requirements_'
'presidential_'
'burning_'
'accused_'
'accepted_'
'spare_'
'lawyers_'
'darling_'
'woods_'
'hollywood_'
'appropriate_'
'ad_'
'senator_'
'largely_'
'doc_'
'aim_'
'ray_'
'practical_'
'grandma_'
'funeral_'
'farmers_'
'classes_'
'bones_'
'slept_'
'robert_'
'ridiculous_'
'regret_'
'profile_'
'strategic_'
'sam_'
'principles_'
'nowhere_'
'memories_'
'egypt_'
'passing_'
'electricity_'
'mixed_'
'asset_'
'45_'
'songs_'
'slightly_'
'burned_'
'sharing_'
'palace_'
'opportunities_'
'nuts_'
'identity_'
'chances_'
'applications_'
'300_'
' % ._'
'promote_'
'guarantee_'
'delicious_'
'cast_'
'severe_'
'monetary_'
'joy_'
'dozen_'
'corruption_'
'bike_'
'youth_'
'whoever_'
'load_'
'assistant_'
'republican_'
'exciting_'
'balls_'
'license_'
'relative_'
'loud_'
'export_'
'dumb_'
'billy_'
'diet_'
'revenue_'
'mix_'
'losses_'
'lieutenant_'
'cameras_'
'brave_'
'industries_'
'expression_'
'bound_'
'pig_'
'suffered_'
'era_'
'controlled_'
'coal_'
'vacation_'
'importance_'
'tower_'
'shame_'
'shake_'
'mum_'
'individuals_'
'bucks_'
'tank_'
'rush_'
'hurts_'
'economics_'
'remote_'
'2012_'
'row_'
'joe_'
'hunting_'
'essential_'
'elsewhere_'
'borrow_'
'shared_'
'pounds_'
'equal_'
'differences_'
'creative_'
'channel_'
'republic_'
'monster_'
'branch_'
'serving_'
'kim_'
'ideal_'
'ers_'
'chosen_'
'suck_'
'platform_'
'entry_'
'elements_'
'waited_'
'naturally_'
'golden_'
'breathe_'
'? _'
'stores_'
'shock_'
'screwed_'
'payment_'
'etc_'
'computers_'
'celebrate_'
'perspective_'
'merely_'
'lately_'
'islands_'
'resistance_'
'flower_'
'consequences_'
'christian_'
'arts_'
'overseas_'
'horrible_'
'facts_'
'explanation_'
'ugly_'
'establish_'
'closely_'
'cheese_'
'valuable_'
'pushing_'
'prize_'
'bleeding_'
'sexy_'
'moments_'
'discussion_'
'bags_'
'cleaning_'
'bureau_'
'aw_'
'extreme_'
'expecting_'
'dig_'
'candidate_'
'boost_'
'wang_'
'securities_'
'trained_'
'mortgage_'
'delivery_'
'competitive_'
'bullshit_'
'babe_'
'removed_'
'mike_'
'incredible_'
'host_'
'advertising_'
'stealing_'
'rat_'
'motion_'
'issued_'
'handed_'
'fate_'
'stake_'
'pizza_'
'broad_'
'unusual_'
'score_'
'regime_'
'programme_'
'procedure_'
'multi_'
'ignore_'
'fancy_'
'dick_'
'button_'
'zero_'
'tied_'
'ours_'
'loving_'
'literature_'
'holds_'
'entrance_'
'employment_'
'rome_'
'existence_'
'turkey_'
'sport_'
'replace_'
'faced_'
'dragon_'
'academic_'
'stocks_'
'sand_'
'normally_'
'hotels_'
'chose_'
'checking_'
'ties_'
'ho_'
'struck_'
'machines_'
'deeply_'
'santa_'
'properly_'
'incident_'
'id_'
'ben_'
'attractive_'
'temporary_'
'panel_'
'nick_'
'. , _'
'violent_'
'soviet_'
'reasonable_'
'odd_'
'novel_'
'hook_'
'exposed_'
'exact_'
'economists_'
'swim_'
'entered_'
'blew_'
'affair_'
'vegas_'
'symptoms_'
'ships_'
'mystery_'
'19_'
'wow_'
'title_'
'assure_'
'throwing_'
'drawing_'
'devil_'
'com_'
'yogurt_'
'twenty_'
'outdoor_'
'meters_'
'fought_'
'efficient_'
'tongue_'
'pulling_'
'journal_'
'genius_'
'earn_'
'wing_'
'ness_'
'continental_'
'considering_'
'characters_'
'aunt_'
'shoulder_'
'efficiency_'
'accounting_'
'tradition_'
'grace_'
'experienced_'
'disappeared_'
'convinced_'
'waters_'
'wash_'
'rapidly_'
'initial_'
'infrastructure_'
'garage_'
'crimes_'
'creation_'
'22_'
'voters_'
'territory_'
'linked_'
'jury_'
'handsome_'
'appeal_'
'administrative_'
'sons_'
'proved_'
'friendship_'
'crack_'
'resource_'
'regulation_'
'refused_'
'pages_'
'marks_'
'egg_'
'earthquake_'
'dies_'
'choices_'
'affected_'
'visitors_'
'repeat_'
'hung_'
'shots_'
'richard_'
'invite_'
'horses_'
'tokyo_'
'refuse_'
'boring_'
'21_'
'purchase_'
'positions_'
'immediate_'
'hearts_'
'properties_'
'newly_'
'forgotten_'
'conservative_'
'35_'
'stable_'
'seats_'
'engaged_'
'enemies_'
'drag_'
'determine_'
'asshole_'
'acts_'
'unlikely_'
'tested_'
'silence_'
'freak_'
'employee_'
'appointed_'
'silly_'
'regions_'
'exports_'
'causing_'
'bro_'
' "_'
'worker_'
'wheel_'
'respond_'
'relief_'
'defence_'
'2006_'
'kingdom_'
'bell_'
'beating_'
'rapid_'
'pot_'
'madam_'
'decade_'
'confirmed_'
'bills_'
'trace_'
'philosophy_'
'charged_'
'supplies_'
'scheme_'
'parent_'
'laundry_'
'encourage_'
'contain_'
'blocks_'
'selection_'
'minimum_'
'liquid_'
'goals_'
'storage_'
'previously_'
'grass_'
'backed_'
'thou_'
'returns_'
'priority_'
'pride_'
'personnel_'
'fears_'
'cure_'
'cousin_'
'bob_'
'wire_'
'ups_'
'touched_'
'root_'
'frozen_'
'cycle_'
'contains_'
'circle_'
'challenges_'
'permission_'
'manner_'
'harvard_'
'glasses_'
'genetic_'
'document_'
'coat_'
'classic_'
'visiting_'
'unable_'
'meetings_'
'iike_'
'drove_'
'clinical_'
'trigger_'
'th_'
'represent_'
'moreover_'
'evaluation_'
'continues_'
'confused_'
'radiation_'
'owners_'
'gates_'
'flash_'
'combined_'
'bid_'
'approval_'
'technologies_'
'personality_'
'jealous_'
'investments_'
'entertainment_'
'depression_'
'angel_'
'tone_'
'shadow_'
'sentence_'
'pen_'
'marine_'
'mall_'
' .. _'
'typical_'
'minds_'
'degrees_'
'whoa_'
'precious_'
'fucked_'
'breaks_'
'brains_'
'riding_'
'el_'
'decline_'
'2005_'
'techniques_'
'technically_'
'sets_'
'partly_'
'mobility_'
'kinda_'
'desperate_'
'cooperation_'
'appointment_'
'threatened_'
'parliament_'
'florida_'
'cooking_'
'unemployment_'
'medium_'
'formed_'
'venture_'
'thomas_'
'pilot_'
'listed_'
'jacket_'
'interstate_'
'infection_'
'increases_'
'examination_'
'arrive_'
'savings_'
'providing_'
'pal_'
'organic_'
'hunt_'
'belt_'
'2000_'
'colonel_'
'beg_'
'scare_'
'olympic_'
'fewer_'
'reforms_'
'processing_'
'lessons_'
'approved_'
'reference_'
'raw_'
'networks_'
'mode_'
'describe_'
'appearance_'
'allowing_'
'tissue_'
'liver_'
'registered_'
'injury_'
'flesh_'
'elections_'
'sergeant_'
'presented_'
'phase_'
'occurred_'
'controls_'
'bars_'
'toast_'
'tear_'
'limits_'
'kicked_'
'dynasty_'
'discussed_'
'conduct_'
'collapse_'
'volume_'
'terrorist_'
'lounge_'
'j_'
'grave_'
'forth_'
'equipped_'
'disappear_'
'spy_'
'wisdom_'
'superior_'
'republicans_'
'poison_'
'muscle_'
'cereal_'
'traveling_'
'scary_'
'routine_'
'protein_'
'ne_'
'lips_'
'ic_'
'uniform_'
'junior_'
'identified_'
'gods_'
'sub_'
'pastries_'
'objects_'
'february_'
'belief_'
'adults_'
' - - _'
'waves_'
'stations_'
'revealed_'
'punch_'
'passion_'
'inner_'
'commander_'
'23_'
'rarely_'
'prior_'
'latin_'
'henry_'
'francisco_'
'courage_'
'childhood_'
'assault_'
'theater_'
'monkey_'
'empire_'
'deposit_'
'depends_'
'comments_'
'aspects_'
'wherever_'
'protecting_'
'patterns_'
'judges_'
'defend_'
'brief_'
'yard_'
'thy_'
'restaurants_'
'arab_'
'agencies_'
'visual_'
'privacy_'
'plain_'
'intended_'
'independence_'
'exposure_'
'delivered_'
'throat_'
'someday_'
'remembered_'
'pollution_'
'native_'
'meantime_'
'ted_'
'surveillance_'
'remained_'
'judgment_'
'gym_'
'founder_'
'underground_'
'te_'
'sacrifice_'
'dump_'
'da_'
'criticism_'
'bubble_'
'ion_'
'cab_'
'stability_'
'literally_'
'grandfather_'
'deficit_'
'spoken_'
'retail_'
'nurse_'
'ie_'
'clinton_'
'basement_'
'reduced_'
'nerve_'
'guards_'
'explore_'
'discover_'
'contrast_'
'baseball_'
'operate_'
'navy_'
'completed_'
'collect_'
'buffet_'
'tiger_'
'pink_'
'permanent_'
'custody_'
'abandoned_'
'thick_'
'searching_'
'ford_'
'pie_'
'muslim_'
'missile_'
'gene_'
'foods_'
'castle_'
'breathing_'
'assistance_'
'angle_'
'spokesman_'
'senate_'
'hits_'
'compete_'
'stem_'
'insane_'
'decent_'
'constant_'
'confident_'
'closing_'
'adopted_'
'academy_'
'27_'
'downstairs_'
'ceremony_'
'42_'
'sin_'
'ruin_'
'hitting_'
'eaten_'
'agricultural_'
'steady_'
'roads_'
'poverty_'
'ending_'
'begun_'
'typically_'
'makers_'
'jumped_'
'email_'
'database_'
'universities_'
'sample_'
'neighbors_'
'demands_'
'begins_'
'barack_'
'taxi_'
'spell_'
'motor_'
'invest_'
'butt_'
'adding_'
'lifetime_'
'improved_'
'holes_'
'formal_'
'explains_'
'commitment_'
'closet_'
'settled_'
'rocks_'
'crucial_'
'clever_'
'ages_'
'persons_'
'injured_'
'generous_'
'ease_'
'confirm_'
'sometime_'
'oxygen_'
'nah_'
'moscow_'
'furniture_'
'auto_'
'yield_'
'winner_'
'smith_'
'occur_'
'granted_'
'thrown_'
'singapore_'
'reveal_'
'ow_'
'landscape_'
'declined_'
'bust_'
'award_'
'sofa_'
'pissed_'
'pace_'
'hated_'
'funding_'
' . ' _'
'z_'
'twitter_'
'monitor_'
'mining_'
'explosion_'
'enjoyed_'
'commerce_'
'centuries_'
'tail_'
'robbery_'
'rely_'
'extraordinary_'
'drama_'
'damaged_'
'corporation_'
'bang_'
'treasury_'
'trapped_'
'specifically_'
'organizations_'
'micro_'
'ls_'
'warrant_'
'swing_'
'expansion_'
'contracts_'
'asks_'
'psychological_'
'physics_'
'length_'
'grant_'
'claimed_'
'bankers_'
'anniversary_'
'vital_'
'intellectual_'
'cap_'
'attached_'
'subjects_'
'leaf_'
'diseases_'
'darkness_'
'creatures_'
'convince_'
'channels_'
'37_'
'studio_'
'frame_'
'trail_'
'soup_'
'shops_'
'outta_'
'treasure_'
'phenomenon_'
'midnight_'
'mainland_'
'gather_'
'campus_'
'trash_'
'israeli_'
'enjoying_'
'dining_'
'stops_'
'revenge_'
'candidates_'
'sisters_'
'pointed_'
'pleased_'
'intense_'
'hedge_'
'flag_'
'films_'
'charlie_'
'bail_'
'autumn_'
'abuse_'
'punishment_'
'ltd_'
'combat_'
'offices_'
'earnings_'
'chart_'
'worries_'
'wanting_'
'returning_'
'painful_'
'narrow_'
'mount_'
'lobby_'
'grateful_'
'elected_'
'basketball_'
'attend_'
'rats_'
'panic_'
'marked_'
'charity_'
'ultimately_'
'slip_'
'frequently_'
'episode_'
'deeper_'
'yourselves_'
'vulnerable_'
'proposal_'
'iphone_'
'household_'
'heavily_'
'experiences_'
'everyday_'
'earned_'
'crossed_'
'sheet_'
'session_'
'packed_'
'gross_'
'external_'
'amazon_'
'succeed_'
'reward_'
'laughing_'
'jet_'
'feeding_'
'expand_'
'disappointed_'
'ton_'
'promotion_'
'menu_'
'fees_'
'exists_'
'seed_'
'orange_'
'maintenance_'
'insist_'
'han_'
'grandmother_'
'concert_'
'communications_'
'candy_'
'rolling_'
'improving_'
'impressive_'
'hills_'
'fairly_'
'commit_'
' ... ?_'
'liu_'
'functions_'
'elevator_'
'checks_'
'blog_'
'beings_'
'woke_'
'targets_'
'staring_'
'prisoners_'
'priest_'
'grounds_'
'sized_'
'ruling_'
'pillow_'
'passengers_'
'newspapers_'
'martin_'
'knocked_'
'jerk_'
'institution_'
'26_'
'transportation_'
'thirty_'
'squad_'
'spa_'
'select_'
'rival_'
'lending_'
'gdp_'
'brands_'
'battery_'
'bacteria_'
'wings_'
'gear_'
'editor_'
'chen_'
'smooth_'
'reflect_'
'math_'
'gap_'
'click_'
' ? ! _'
'warming_'
'suspects_'
'stimulus_'
'silent_'
'readers_'
'output_'
'garbage_'
'fundamental_'
'constantly_'
'conclusion_'
'aggressive_'
'struggling_'
'roman_'
'pardon_'
'expectations_'
'enforcement_'
'bull_'
'shoe_'
'producing_'
'effectively_'
'drawn_'
'divided_'
'corn_'
'belongs_'
'visited_'
'unknown_'
'trap_'
'principal_'
'nasty_'
'boxes_'
'theories_'
'peaceful_'
'ownership_'
'graduate_'
'default_'
'reverse_'
'resolution_'
'procedures_'
'opera_'
'tourism_'
'recommend_'
'protected_'
'promises_'
'contemporary_'
'bullets_'
'avenue_'
'votes_'
'skill_'
'shareholders_'
'ruined_'
'practices_'
'physically_'
'legend_'
'landing_'
'400_'
'spiritual_'
'regulators_'
'indoor_'
'buyers_'
'alert_'
'theme_'
'tap_'
'pills_'
'managing_'
'item_'
'flu_'
'clothing_'
'burden_'
'bin_'
'backup_'
'assembly_'
'freeze_'
'extent_'
'educational_'
'couples_'
'climb_'
'agriculture_'
'shaped_'
'replaced_'
'links_'
'investigate_'
'convention_'
'assumed_'
'alliance_'
'suits_'
'strip_'
'screaming_'
'random_'
'premises_'
'miracle_'
'homework_'
'habit_'
'emissions_'
'argues_'
'tracking_'
'supreme_'
'performed_'
'helpful_'
'evolution_'
'economist_'
'deny_'
'compensation_'
'charming_'
'bible_'
'awkward_'
'tries_'
'repair_'
'pity_'
'mmm_'
'curious_'
'2004_'
'wheat_'
'seal_'
'protest_'
'necessarily_'
'mister_'
'gifts_'
'fraud_'
'discovery_'
'artists_'
'admitted_'
'surrounded_'
'string_'
'stranger_'
'liberal_'
'languages_'
'glory_'
'consciousness_'
'clue_'
'chat_'
'certificate_'
'biological_'
'75_'
'wealthy_'
'thief_'
'stream_'
'recorded_'
'nominal_'
'element_'
'beneath_'
'awake_'
'scientist_'
'jane_'
'grain_'
'enormous_'
'denied_'
'balcony_'
'argued_'
'alien_'
'actor_'
'uncomfortable_'
'treating_'
'posted_'
'pan_'
'occasion_'
'lover_'
'architecture_'
'shuttle_'
'premium_'
'jim_'
'handling_'
'georgia_'
'explained_'
'cares_'
'arrival_'
'tracks_'
'rabbit_'
'lets_'
'gentleman_'
'formation_'
'defeat_'
'breast_'
'warn_'
'vietnam_'
'interior_'
'improvement_'
'historic_'
'equally_'
'discipline_'
'declared_'
'couch_'
'constitution_'
'chip_'
'warehouse_'
'organized_'
'mutual_'
'immune_'
'entering_'
'sought_'
'practically_'
'maximum_'
'gradually_'
'gorgeous_'
'dramatic_'
'deputy_'
'conducted_'
'bowl_'
'wars_'
'stays_'
'sheriff_'
'regard_'
'prints_'
'photograph_'
'emperor_'
'convenient_'
'aged_'
'vegetables_'
'survival_'
'presents_'
'mouse_'
'generations_'
'extended_'
'ban_'
'manufacturers_'
'hoped_'
'gulf_'
'chapter_'
'summit_'
'stepped_'
'potentially_'
'peak_'
'illness_'
'cleared_'
'worldwide_'
'witnesses_'
'spirits_'
'solutions_'
'samples_'
'officially_'
'mercy_'
'headquarters_'
'accurate_'
'trusted_'
'terrorists_'
'symbol_'
'recognized_'
'railway_'
'experiments_'
'conditioning_'
'behalf_'
'amounts_'
'settlement_'
'scott_'
'ireland_'
'dispute_'
'connections_'
'connect_'
'capture_'
'bug_'
'wounds_'
'wore_'
'structures_'
'rivals_'
'prisoner_'
'noted_'
'murderer_'
'inspired_'
'guilt_'
'experimental_'
'dates_'
'concrete_'
'survived_'
'roughly_'
'preparing_'
'kilometers_'
'ian_'
'favour_'
'diplomatic_'
'cabinet_'
'wallet_'
'monitoring_'
'legislation_'
'flood_'
'destruction_'
'assessment_'
'wolf_'
'stretch_'
'restrictions_'
'ies_'
'examples_'
'courses_'
'clouds_'
'cave_'
'captured_'
'behaviour_'
'28_'
'tribe_'
'represents_'
'reaching_'
'originally_'
'mysterious_'
'minor_'
'jersey_'
'footage_'
'fitness_'
'factories_'
'dozens_'
'detailed_'
'attract_'
'quietly_'
'error_'
'determination_'
'democrats_'
'brian_'
'berlin_'
'sweat_'
'strategies_'
'reporter_'
'payments_'
'liar_'
'investor_'
'coalition_'
'clinic_'
'zoo_'
'surrounding_'
'shed_'
'resort_'
'psychology_'
'preparation_'
'na_'
'mothers_'
'loser_'
'exam_'
'creates_'
'congratulations_'
'components_'
'announcement_'
'welfare_'
'urgent_'
'fever_'
'charles_'
'bride_'
'threats_'
'sounded_'
'reporting_'
'dirt_'
'app_'
'strongly_'
'socialist_'
'sheets_'
'serves_'
'secondary_'
'resist_'
'pursue_'
'ally_'
'significantly_'
'nato_'
'miami_'
'inspection_'
'impression_'
'emotions_'
'chase_'
'blown_'
'adventure_'
'unto_'
'sandwich_'
'relation_'
'precisely_'
'whereas_'
'treaty_'
'remaining_'
'protests_'
'manhattan_'
'bless_'
'reserves_'
'remarkable_'
'poetry_'
'outstanding_'
'messed_'
'lung_'
'hospitals_'
'hitler_'
'fridge_'
'electrical_'
'deaths_'
'charm_'
'champagne_'
'ambassador_'
'servant_'
'intelligent_'
'indicate_'
'hurting_'
'absolute_'
'william_'
'rejected_'
'reducing_'
'participants_'
'neighbor_'
'expressed_'
'critics_'
'bow_'
'aye_'
'ashamed_'
'ts_'
'snake_'
'recall_'
'musical_'
'listened_'
'greatly_'
'description_'
'cheating_'
'behave_'
'signature_'
'log_'
'knees_'
'findings_'
'drivers_'
'complain_'
'bury_'
'burst_'
'beside_'
'arranged_'
'reception_'
'pitch_'
'overcome_'
'investigating_'
'dynamic_'
'blast_'
'accordance_'
'tony_'
'tasks_'
'supported_'
'stairs_'
'significance_'
'revolutionary_'
'jewish_'
'height_'
'heated_'
'gray_'
'extend_'
'whore_'
'nevertheless_'
'morgan_'
'layer_'
'helicopter_'
'ethnic_'
'butter_'
'attempts_'
'amid_'
'alike_'
'2003_'
'useless_'
'supporters_'
'se_'
'lt_'
'intend_'
'inc_'
'diamond_'
'defined_'
'analyzed_'
'sheep_'
'negotiations_'
'imagination_'
'hug_'
'filed_'
'colors_'
'cleaned_'
'150_'
'unlike_'
'unhappy_'
'tennis_'
'rude_'
'performing_'
'ming_'
'mere_'
'lane_'
'delay_'
'definition_'
'courts_'
'comparison_'
'beast_'
'articles_'
'tunnel_'
'regardless_'
'passes_'
'estimates_'
'emotion_'
'depend_'
'cozy_'
'clark_'
'travelers_'
'stopping_'
'salary_'
'max_'
'jones_'
'impressed_'
'divorced_'
'cow_'
'bobby_'
'allies_'
'weakness_'
'statements_'
'rocket_'
'relatives_'
'pets_'
'mexican_'
'eve_'
'disorder_'
'artificial_'
'wishes_'
'virginia_'
'timing_'
'suspected_'
'receiving_'
'pound_'
'painted_'
'offense_'
'fantasy_'
'destiny_'
'customs_'
'commodity_'
'aah_'
' ? . _'
'yang_'
'virtual_'
'transition_'
'thee_'
'sofabed_'
'shell_'
'saint_'
'mud_'
'ling_'
'incredibly_'
'freaking_'
'dumped_'
'drew_'
'creature_'
'universal_'
'steam_'
'pipe_'
'pee_'
'habits_'
'toys_'
'sue_'
'spots_'
'ratio_'
'pretending_'
'percentage_'
'lin_'
'genes_'
'essentially_'
'comprehensive_'
'bored_'
'boots_'
'vampire_'
'sustainable_'
'shore_'
'serial_'
'participate_'
'odds_'
'mice_'
'frequency_'
'founded_'
'follows_'
'context_'
'achieved_'
' ! "_'
'wounded_'
'ultimate_'
'twin_'
'sucks_'
'strict_'
'gm_'
'compare_'
'towns_'
'thesis_'
'sophisticated_'
'separated_'
'rivers_'
'recover_'
'purposes_'
'passenger_'
'nightmare_'
'libya_'
'escaped_'
'engines_'
'embassy_'
'chips_'
'authors_'
'attracted_'
'walks_'
'topic_'
'spin_'
'rip_'
'atlantic_'
'anxiety_'
'wins_'
'toxic_'
'tourists_'
'stroke_'
'ruled_'
'informed_'
'equivalent_'
'sorts_'
'soccer_'
'recognition_'
'praise_'
'involves_'
'characteristic_'
'attractions_'
'sum_'
'statistics_'
'regularly_'
'q_'
'gained_'
'elizabeth_'
'contest_'
'bears_'
'tube_'
'tables_'
'subway_'
'skull_'
'scheduled_'
'sarah_'
'regarding_'
'loaded_'
'foster_'
'fairy_'
'dropping_'
'crown_'
'absence_'
' % , _'
'ye_'
'selected_'
'rape_'
'mask_'
'keen_'
'gathered_'
'failing_'
'covering_'
'consistent_'
'cann_'
'zhang_'
'toy_'
'provisions_'
'pregnancy_'
'ministers_'
'fifty_'
'doll_'
'diagnosis_'
'ation_'
' …_'
'speaks_'
'situations_'
'regulatory_'
'processes_'
'premier_'
'involving_'
'hu_'
'hardware_'
'fax_'
'dan_'
'auction_'
'trunk_'
'sec_'
'scenes_'
'pin_'
'objective_'
'landed_'
'indonesia_'
'communicate_'
'billions_'
'australian_'
'server_'
'regarded_'
'prayer_'
'outcome_'
'immigration_'
'humanity_'
'handful_'
'guidance_'
'expenses_'
'engineer_'
'difficulty_'
'designer_'
'dealer_'
'cats_'
'canadian_'
' ' ._'
'tricks_'
'rail_'
'noble_'
'ironing_'
'fruits_'
'bombs_'
'blowing_'
' .... _'
'revenues_'
'proceed_'
'overnight_'
'organs_'
'matches_'
'logic_'
'instant_'
'goldman_'
'distant_'
'dawn_'
'casino_'
'bitter_'
'admire_'
'voted_'
'torture_'
'threatening_'
'strengthen_'
'script_'
'rings_'
'pump_'
'owns_'
'outfit_'
'locker_'
'fu_'
'examine_'
'estimated_'
'depth_'
'cotton_'
'automatic_'
'20th_'
'swiss_'
'sink_'
'quarters_'
'productivity_'
'nail_'
'liberty_'
'kissed_'
'kills_'
'infected_'
'apology_'
'aii_'
'tips_'
'squeeze_'
'sovereign_'
'singer_'
'scores_'
'roots_'
'purse_'
'knee_'
'involve_'
'implementation_'
'answered_'
'analyst_'
'wages_'
'refer_'
'rational_'
'plug_'
'piss_'
'locations_'
'gentle_'
'enhance_'
'deserves_'
'compound_'
'collected_'
'acute_'
'structural_'
'stones_'
'representative_'
'photographs_'
'partnership_'
'particles_'
'numerous_'
'loyalty_'
'lend_'
'hostage_'
'curse_'
'coverage_'
'counting_'
'android_'
'agenda_'
'sausage_'
'retired_'
'registration_'
'reader_'
'pole_'
'pleasant_'
'minded_'
'ia_'
'cruel_'
'chamber_'
'aimed_'
'transferred_'
'trains_'
'reporters_'
'movements_'
'engineers_'
'criminals_'
'blade_'
'beef_'
'thailand_'
'tension_'
'suitable_'
'substance_'
'signals_'
'seeds_'
'scandal_'
'minority_'
'aids_'
'smiling_'
'hence_'
'gravity_'
'gathering_'
'formula_'
'folk_'
'establishment_'
'developers_'
'copies_'
'29_'
'tons_'
'technological_'
'scratch_'
'ra_'
'prospects_'
'isolated_'
'introduction_'
'intervention_'
'instruments_'
'instructions_'
'firing_'
'entrepreneurs_'
'electronics_'
'conventional_'
'beaten_'
'tourist_'
'sixth_'
'printing_'
'pays_'
'massage_'
'laboratory_'
'invisible_'
'heroes_'
'forty_'
'educated_'
'departments_'
'chemicals_'
'ch_'
'voting_'
'successfully_'
'slave_'
'profound_'
'miserable_'
'imports_'
'frankly_'
'chairs_'
'basket_'
'suspicious_'
'shelter_'
'rob_'
'powder_'
'loyal_'
'lit_'
'lion_'
'contained_'
'communities_'
'chasing_'
'broadcast_'
'alley_'
'adds_'
'48_'
'witch_'
'vessel_'
'someplace_'
'radical_'
'murders_'
'joining_'
'jerry_'
'ge_'
'fluid_'
'engagement_'
'digging_'
'wage_'
'strikes_'
'smells_'
'sacred_'
'meals_'
'johnson_'
'germans_'
'custom_'
'crystal_'
'citizen_'
'cage_'
'taliban_'
'shipping_'
'register_'
'oriented_'
'motive_'
'leather_'
'jackson_'
'integrated_'
'generate_'
'fence_'
'duties_'
'dish_'
'discount_'
'difficulties_'
'deck_'
'counts_'
'adjacent_'
'.-_'
'virgin_'
'junk_'
'daughters_'
'convenience_'
'contents_'
'component_'
'chris_'
'advantages_'
'adam_'
'wasting_'
'taylor_'
'scope_'
'producer_'
'paradise_'
'os_'
'observation_'
'motherfucker_'
'mature_'
'gambling_'
'flew_'
'category_'
'bold_'
'tragedy_'
'tale_'
'submit_'
'somewhat_'
'slide_'
'pathetic_'
'opposed_'
'grows_'
'floating_'
'farmer_'
'encouraged_'
'dutch_'
'ce_'
'blocked_'
'ar_'
'theatre_'
'slipped_'
'promising_'
'patience_'
'magnetic_'
'integration_'
'instrument_'
'injuries_'
'financing_'
'embarrassed_'
'differently_'
'clubs_'
'attempted_'
'rope_'
'lungs_'
'heritage_'
'gut_'
'expense_'
'engage_'
'copper_'
'cancel_'
'assigned_'
'19th_'
'tumor_'
'ta_'
'publicly_'
'paintings_'
'hood_'
'grandpa_'
'fires_'
'arrangement_'
'alex_'
'worship_'
'terror_'
'suggesting_'
'strangers_'
'selfish_'
'retirement_'
'reduction_'
'observed_'
'jumping_'
'ipad_'
'duck_'
'deadly_'
'cia_'
'ads_'
'supporting_'
'preliminary_'
'modest_'
'lowest_'
'laptop_'
'laden_'
'intention_'
'hip_'
'column_'
'closest_'
'classroom_'
'catching_'
'worrying_'
'teddy_'
'surgeon_'
'ham_'
'expanding_'
'eric_'
'dna_'
'busted_'
'bearing_'
'adopt_'
'steak_'
'solved_'
'rises_'
'pit_'
'excessive_'
'depressed_'
'dedicated_'
'confess_'
'approximately_'
'ai_'
'afterwards_'
'abstract_'
'1990s_'
'underneath_'
'syria_'
'robot_'
'recording_'
'mars_'
'invented_'
'intel_'
'indicates_'
'goodness_'
'fiction_'
'civilian_'
'achievement_'
'palm_'
'origin_'
'measured_'
'lands_'
'cultures_'
'continuing_'
'con_'
'champion_'
'troubled_'
'trends_'
'traders_'
'touching_'
'semi_'
'packing_'
'leisure_'
'leak_'
'investing_'
'gains_'
'fox_'
'ey_'
'embrace_'
'chaos_'
'wives_'
'surrender_'
'sang_'
'insisted_'
'gallery_'
'exhibition_'
'embarrassing_'
'dishes_'
'crops_'
'ceiling_'
'sells_'
'putin_'
'notion_'
'majesty_'
'inevitable_'
'grid_'
'genuine_'
'fits_'
'drives_'
'directions_'
'dancer_'
'conscious_'
'cigarette_'
'cheaper_'
'wider_'
'translation_'
'stadium_'
'skip_'
'plates_'
'kit_'
'hates_'
'handled_'
'fort_'
'et_'
'dominated_'
'2001_'
'trauma_'
'tag_'
'romney_'
'pussy_'
'organ_'
'mighty_'
'homicide_'
'dreaming_'
'destination_'
'collapsed_'
'bat_'
'ambulance_'
'visible_'
'villages_'
'ty_'
'terrific_'
'specified_'
'possession_'
'pension_'
'laser_'
'import_'
'hunter_'
'galaxy_'
'dressing_'
'chemistry_'
'writers_'
'suspended_'
'scenario_'
'radar_'
'propose_'
'penny_'
'monthly_'
'installed_'
'extensive_'
'endless_'
'elite_'
'ancestors_'
' ‘ _'
'transformation_'
'tastes_'
'shoulders_'
'russians_'
'patch_'
'jewelry_'
'fellas_'
'exception_'
'eager_'
'competitors_'
'arguments_'
'whirlpool_'
'wasted_'
'syndrome_'
'resolve_'
'presentation_'
'planets_'
'ns_'
'motel_'
'harbor_'
'fails_'
'elegant_'
'disgusting_'
'crush_'
'conscience_'
'concentrate_'
'carrier_'
'cared_'
'cameron_'
'ble_'
'washed_'
'thanksgiving_'
'temperatures_'
'spotted_'
'scream_'
'romance_'
'repeated_'
'recommended_'
'producers_'
'pile_'
'jerusalem_'
'initiative_'
'crossing_'
'corp_'
'branches_'
'adjust_'
'voices_'
'tens_'
'suggestion_'
'silicon_'
'saudi_'
'patrol_'
'olympics_'
'nonsense_'
'jokes_'
'initially_'
'homeless_'
'globe_'
'eurozone_'
'crop_'
'troubles_'
'poll_'
'polish_'
'observe_'
'medication_'
'importantly_'
'chef_'
'automatically_'
'ambitious_'
'talented_'
'souls_'
'ryan_'
'meets_'
'lovers_'
'louis_'
'literary_'
'induced_'
'implement_'
'idol_'
'grief_'
'flip_'
'excitement_'
'containing_'
'borrowing_'
'badge_'
'arguing_'
'tobacco_'
'surprising_'
'speaker_'
'safely_'
'rounds_'
'reliable_'
'racing_'
'nt_'
'invasion_'
'hiring_'
'flies_'
'cheat_'
'bosses_'
'spite_'
'rio_'
'powered_'
'patrick_'
'eliminate_'
'crashed_'
'complaint_'
'chick_'
' .- _'
'shine_'
'poem_'
'ping_'
'nasa_'
'liability_'
'legally_'
'gosh_'
'favourite_'
'daniel_'
'bits_'
'abandon_'
'yields_'
'prominent_'
'patent_'
'inspector_'
'ink_'
'guts_'
'drops_'
'correctly_'
'aspect_'
'arrange_'
'ali_'
'acted_'
'worthy_'
'ross_'
'recovered_'
'predict_'
'collective_'
'boats_'
'belly_'
'altogether_'
'wired_'
'sneak_'
'requirement_'
'professionals_'
'parks_'
'maid_'
'emerged_'
'debts_'
'concentration_'
'civilization_'
'cigarettes_'
'worn_'
'ward_'
'transmission_'
'transaction_'
'terminal_'
'sufficient_'
'strictly_'
'shy_'
'shortly_'
'roger_'
'representatives_'
'promoting_'
'palestinian_'
'muscles_'
'manual_'
'makeup_'
'irish_'
'ignored_'
'guitar_'
'directors_'
'civilians_'
'cheer_'
'carries_'
'capitalism_'
'cabin_'
'bend_'
'southeast_'
'prom_'
'memorial_'
'laying_'
'employers_'
'alongside_'
'accidentally_'
'underwear_'
'relaxing_'
'protective_'
'prospect_'
'invested_'
'integrity_'
'existed_'
'assignment_'
'acquired_'
'swallow_'
'substantial_'
'spreading_'
'speculation_'
'sauce_'
'satisfied_'
'repeatedly_'
'prevention_'
'lecture_'
'exclusive_'
'dial_'
'compromise_'
'coincidence_'
'challenged_'
'widespread_'
'spectacular_'
'shark_'
'ry_'
'punished_'
'poland_'
'papa_'
'kicking_'
'il_'
'centers_'
'unexpected_'
'stanley_'
'referred_'
'legitimate_'
'hm_'
'forecast_'
'filling_'
'cookies_'
'colleague_'
'catholic_'
'abilities_'
'writes_'
'protesters_'
'produces_'
'opens_'
'hers_'
'commonly_'
'apps_'
'announce_'
'wheels_'
'tim_'
'subtle_'
'resume_'
'reservation_'
'rally_'
'kissing_'
'kings_'
'intensive_'
'holidays_'
'entitled_'
'complaints_'
'avoiding_'
'artistic_'
'appetite_'
'55_'
'testimony_'
'supervision_'
'snap_'
'rubber_'
'respected_'
'pointing_'
'jimmy_'
'foreigners_'
'forcing_'
'excess_'
'drank_'
'describes_'
'cruise_'
'costume_'
'carpet_'
'valid_'
'terrorism_'
'qualified_'
'programmes_'
'parade_'
'lightning_'
'diego_'
'define_'
'craft_'
'contrary_'
'circuit_'
'begging_'
'anxious_'
'anonymous_'
'angels_'
'shooter_'
'indians_'
'foolish_'
'fleet_'
'draft_'
'diversity_'
'continent_'
'cargo_'
'bottles_'
'actress_'
'31_'
'videos_'
'tropical_'
'stephen_'
'shocked_'
'salad_'
'rear_'
'pockets_'
'passage_'
'paperwork_'
'organisation_'
'nest_'
'membership_'
'label_'
'inspiration_'
'ghosts_'
'flexible_'
'fame_'
'fabulous_'
'diabetes_'
'devoted_'
'airlines_'
'36_'
'virtually_'
'theft_'
'sins_'
'silk_'
'shield_'
'pursuit_'
'legacy_'
'imperial_'
'hunger_'
'generated_'
'functional_'
'bathtub_'
'assist_'
'actors_'
' [ _'
'threaten_'
'rumors_'
'restore_'
'punk_'
'protocol_'
'occurs_'
'obtain_'
'kidney_'
'inform_'
'immigrants_'
'houston_'
'estimate_'
'dried_'
'dated_'
'chronic_'
'burns_'
'booked_'
'barrel_'
'bacon_'
'afghan_'
'theoretical_'
'slight_'
'ski_'
'proposals_'
'preserve_'
'politically_'
'planes_'
'outlook_'
'occasionally_'
'grey_'
'fathers_'
'enthusiasm_'
'ecological_'
'dragged_'
'concluded_'
'colour_'
'choosing_'
'bench_'
'approve_'
' – _'
' ? " _'
'unfair_'
'trials_'
'sharply_'
'sequence_'
'journalists_'
'jews_'
'invitation_'
'flows_'
'fierce_'
'dean_'
'contribution_'
'calendar_'
'blamed_'
'1000_'
'wrap_'
'update_'
'tang_'
'sunset_'
'stressed_'
'ripped_'
'retreat_'
'rank_'
'prosperity_'
'parked_'
'offshore_'
'lists_'
'humor_'
'happily_'
'expanded_'
'eddie_'
'covers_'
'counsel_'
'cattle_'
'cafe_'
'buyer_'
'appreciation_'
'600_'
'yelling_'
'wu_'
'uncertainty_'
'tablet_'
'strain_'
'sits_'
'sanctions_'
'robbed_'
'pulse_'
'orbit_'
'needle_'
'innovative_'
'governance_'
'establishing_'
'drill_'
'dealers_'
'commodities_'
'coastal_'
'cents_'
'blessed_'
'beloved_'
'washing_'
'trucks_'
'tent_'
'scholars_'
'punish_'
'printed_'
'planted_'
'manufacturer_'
'mankind_'
'mac_'
'honour_'
'cried_'
'boot_'
'analyze_'
'twelve_'
'tune_'
'tanks_'
'striking_'
'spray_'
'sealed_'
'sarkozy_'
'pour_'
'install_'
'gum_'
'floors_'
'featuring_'
'demonstrate_'
'delicate_'
'controlling_'
'competing_'
'celebrity_'
'arrangements_'
'apparent_'
'subsidies_'
'ss_'
'qing_'
'piano_'
'penalty_'
'pa_'
'obtained_'
'interviews_'
'halfway_'
'frequent_'
'fighter_'
'extension_'
'banned_'
'attended_'
' " -_'
'volunteers_'
'unsub_'
'unfortunately_'
'spit_'
'seattle_'
'polls_'
'outer_'
'las_'
'hydrogen_'
'gossip_'
'essence_'
'elephant_'
'discusses_'
'dialogue_'
'deposits_'
'95_'
'yen_'
'wipe_'
'tendency_'
'statue_'
'signing_'
'polite_'
'pc_'
'passport_'
'nut_'
'lighting_'
'islamic_'
'employed_'
'deluxe_'
'contribute_'
'concerning_'
'beliefs_'
'awareness_'
'album_'
'2013_'
'vessels_'
'servants_'
'rolled_'
'primarily_'
'poker_'
'ou_'
'oneself_'
'lincoln_'
'interrupt_'
'exploration_'
'execution_'
'eternal_'
'composition_'
'cart_'
'bonus_'
'blessing_'
'acquisition_'
'tattoo_'
'sole_'
'seoul_'
'roles_'
'rating_'
'productive_'
'laura_'
'inter_'
'imagined_'
'focusing_'
'exhausted_'
'enable_'
'confusion_'
'cock_'
'beats_'
'arctic_'
'99_'
'33_'
'wizard_'
'wen_'
'shrink_'
'shaking_'
'pope_'
'muslims_'
'logical_'
'iranian_'
'introduces_'
'flowing_'
'fascinating_'
'dependent_'
'cooked_'
'brooklyn_'
'usa_'
'searched_'
'scotland_'
'react_'
'reaches_'
'proportion_'
'portfolio_'
'plot_'
'password_'
'ment_'
'gardens_'
'framework_'
'discussions_'
'countryside_'
'answering_'
'wrapped_'
'worlds_'
'warrior_'
'suggestions_'
'sticks_'
'risky_'
'locals_'
'ity_'
'harvest_'
'flights_'
'employer_'
'columbia_'
'cliff_'
'circles_'
'celebration_'
'beans_'
'safer_'
'noon_'
'messing_'
'mechanical_'
'intimate_'
'horror_'
'forum_'
'fashioned_'
'expects_'
'accidents_'
'yu_'
'yards_'
'upside_'
'trips_'
'transactions_'
'tion_'
'sweden_'
'risen_'
'reflection_'
'pill_'
'nd_'
'hop_'
'forming_'
'fastest_'
'exercises_'
'wears_'
'triple_'
'thai_'
'surprisingly_'
'sunshine_'
'soap_'
'seventh_'
'satisfaction_'
'realistic_'
'rage_'
'quantum_'
'optimistic_'
'operator_'
'nursing_'
'lifestyle_'
'ethics_'
'egyptian_'
'borrowed_'
'bankruptcy_'
'associate_'
'airline_'
'wondered_'
'visits_'
'surge_'
'su_'
'resulting_'
'replacement_'
'rachel_'
'purple_'
'op_'
'nancy_'
'mao_'
'maintaining_'
'immunity_'
'harmony_'
'demanding_'
'corrupt_'
'anytime_'
'yahoo_'
'sticking_'
'residential_'
'reflects_'
'ons_'
'margin_'
'madame_'
'harsh_'
'fried_'
'freezing_'
'diamonds_'
'designs_'
'currencies_'
'classified_'
'buck_'
'brick_'
'boards_'
'backing_'
'annoying_'
'alan_'
'affects_'
'2002_'
'testify_'
'sydney_'
'suppliers_'
'stored_'
'soda_'
'rolls_'
'represented_'
'proven_'
'privately_'
'permit_'
'pearl_'
'obsessed_'
'mathematics_'
'inventory_'
'gender_'
'forests_'
'fights_'
'eg_'
'detect_'
'controversial_'
'classical_'
'broader_'
'ang_'
'aims_'
'advise_'
'adjustment_'
'sh_'
'puppy_'
'programming_'
'periods_'
'ore_'
'loses_'
'lf_'
'lean_'
'jam_'
'identification_'
'doubts_'
'discussing_'
'computing_'
'ca_'
'amy_'
' ... ? _'
'websites_'
'volunteer_'
'tactics_'
'southwest_'
'ranks_'
'quote_'
'predicted_'
'partial_'
'opponents_'
'liquidity_'
'jungle_'
'interaction_'
'heating_'
'finest_'
'encouraging_'
'elderly_'
'cope_'
'contacts_'
'consulting_'
'climbing_'
'blank_'
'biology_'
'betrayed_'
'barrier_'
'valentine_'
'schemes_'
'responded_'
'rebels_'
'pledge_'
'opinions_'
'oldest_'
'occupied_'
'meter_'
'insects_'
'frightened_'
'fbi_'
'divide_'
'collecting_'
'briefly_'
'breeding_'
'bare_'
'accent_'
'aboard_'
'250_'
'tomb_'
'supposedly_'
'sunlight_'
'slice_'
'sends_'
'requests_'
'publishing_'
'preferred_'
'kate_'
'hostile_'
'dose_'
'cooperate_'
'coin_'
'buddha_'
'bicycle_'
'800_'
'unity_'
'stepping_'
'sectors_'
'reviews_'
'resident_'
'purchasing_'
'pressed_'
'negotiate_'
'maps_'
'grabbed_'
'gloves_'
'comic_'
'alleged_'
'65_'
'winds_'
'tooth_'
'roses_'
'phrase_'
'phoenix_'
'missiles_'
'meaningful_'
'lazy_'
'ke_'
'joking_'
'facial_'
'di_'
'convicted_'
'backs_'
'awards_'
'avoided_'
'acceptable_'
'stanford_'
'sciences_'
'males_'
'laughed_'
'lamp_'
'inches_'
'hybrid_'
'humble_'
'edward_'
'dam_'
'consideration_'
'confession_'
'cocktail_'
'carolina_'
'advised_'
'00000_'
'wooden_'
'whale_'
'weekly_'
'visa_'
'toll_'
'shirts_'
'pressing_'
'pigs_'
'persuade_'
'min_'
'lousy_'
'lifted_'
'leap_'
'imposed_'
'happier_'
'fixing_'
'executed_'
'considerable_'
'combine_'
'colleges_'
'borders_'
'bean_'
'beam_'
'activists_'
'visitor_'
'toe_'
'tide_'
'stages_'
'specialist_'
'rental_'
'reckon_'
'qualities_'
'operators_'
'mainstream_'
'magical_'
'joey_'
'indicated_'
'households_'
'futures_'
'freely_'
'corpse_'
'concepts_'
'brad_'
'arthur_'
'weed_'
'vault_'
'skilled_'
'rumor_'
'pose_'
'nerves_'
'johnny_'
'imf_'
'heels_'
'heal_'
'ding_'
'contractor_'
'commissioner_'
'blows_'
'advances_'
'ting_'
'stamp_'
'sail_'
'rocky_'
'requested_'
'portion_'
'medal_'
'joseph_'
'grip_'
'gary_'
'fighters_'
'examined_'
'dominant_'
'artery_'
'treatments_'
'targeted_'
'surplus_'
'stan_'
'residence_'
'lasting_'
'goat_'
'forgiveness_'
'forbidden_'
'fatal_'
'encounter_'
'duke_'
'creepy_'
'bugs_'
'atomic_'
'agreements_'
'1999_'
'1980s_'
'thieves_'
'strings_'
'solving_'
'receipt_'
'psychic_'
'pricing_'
'precise_'
'offensive_'
'networking_'
'knight_'
'kidnapped_'
'ingredients_'
'divine_'
'demonstrated_'
'codes_'
'challenging_'
'chains_'
'brush_'
'audit_'
'analyzes_'
'survivors_'
'sober_'
'provincial_'
'politician_'
'moderate_'
'involvement_'
'giants_'
'eighth_'
'deadline_'
'cocoa_'
'acceptance_'
'towel_'
'tender_'
'switched_'
'raises_'
'profitable_'
'merkel_'
'liquor_'
'lip_'
'impress_'
'farming_'
'evolved_'
'directed_'
'dealt_'
'casual_'
'brazilian_'
'backwards_'
'unconscious_'
'smarter_'
'separation_'
'sensors_'
'responsibilities_'
'ratings_'
'profession_'
'mp3_'
'mines_'
'loop_'
'leo_'
'larry_'
'lap_'
'jin_'
'howard_'
'feng_'
'expertise_'
'drought_'
'displays_'
'coke_'
'aesthetic_'
'twist_'
'traded_'
'sustained_'
'spaces_'
'sis_'
'shining_'
'seized_'
'reluctant_'
'puzzle_'
'michigan_'
'ions_'
'hd_'
'exploring_'
'dong_'
'collar_'
'blonde_'
'authorized_'
' ( $ _'
'temper_'
'sa_'
'relaxed_'
'raped_'
'questioning_'
'oral_'
'mob_'
'mi_'
'judicial_'
'halloween_'
'edition_'
'dignity_'
'conspiracy_'
'bruce_'
'breach_'
'argentina_'
'approaches_'
'ahh_'
'urged_'
'traveled_'
'tin_'
'supper_'
'stubborn_'
'questioned_'
'poisoning_'
'photographer_'
'permitted_'
'pale_'
'km_'
'identical_'
'horizon_'
'honeymoon_'
'drain_'
'download_'
'crushed_'
'circus_'
'bubbles_'
'brussels_'
'breed_'
'applying_'
'ambition_'
'achievements_'
'accomplished_'
'therapist_'
'stuffed_'
'slowing_'
'quantity_'
'prey_'
'naval_'
'les_'
'installation_'
'euros_'
'disagree_'
'danny_'
'barriers_'
'attraction_'
'allergic_'
'acknowledge_'
'winners_'
'switzerland_'
'stated_'
'spill_'
'socks_'
'scored_'
'prescription_'
'posts_'
'manners_'
'lu_'
'jehovah_'
'impose_'
'holmes_'
'halt_'
'fiber_'
'declaration_'
'brutal_'
'bee_'
'zealand_'
'ying_'
'springs_'
'shallow_'
'secretly_'
'poet_'
'neighbours_'
'layout_'
'journalist_'
'insight_'
'disputes_'
'coma_'
'breeze_'
'audition_'
'accepting_'
'38_'
'tibet_'
'targeting_'
'starving_'
'slaves_'
'skinny_'
'rushed_'
'roommate_'
'presidency_'
'pete_'
'pat_'
'molecules_'
'machinery_'
'luggage_'
'liverpool_'
'lawsuit_'
'instinct_'
'honesty_'
'gaza_'
'fortunately_'
'dip_'
'cheated_'
'blanket_'
'bastards_'
'austerity_'
'abortion_'
'yi_'
'vegetable_'
'trillion_'
'sperm_'
'martial_'
'locate_'
'lined_'
'implications_'
'horn_'
'honored_'
'hawaii_'
'fled_'
'extract_'
'envelope_'
'deaf_'
'crowded_'
'conversations_'
'consensus_'
'colored_'
'carl_'
'cape_'
'bachelor_'
'assuming_'
'acquire_'
' " ? _'
'wei_'
'snack_'
'senses_'
'seemingly_'
'robin_'
'porn_'
'policymakers_'
'petty_'
'perimeter_'
'paths_'
'parallel_'
'masses_'
'lewis_'
'hatred_'
'escort_'
'dismissed_'
'blair_'
'bargain_'
'allegations_'
'weaker_'
'unions_'
'tablets_'
'stunning_'
'spider_'
'rifle_'
'provinces_'
'paragraph_'
'orleans_'
'ongoing_'
'mummy_'
'magnificent_'
'magazines_'
'interpretation_'
'insists_'
'gordon_'
'fold_'
'flame_'
'delayed_'
'corporations_'
'complaining_'
'approaching_'
'vic_'
'vaccine_'
'twins_'
'stakes_'
'ridge_'
'reject_'
'privilege_'
'potato_'
'penis_'
'packages_'
'northwest_'
'influenced_'
'huang_'
'guardian_'
'fred_'
'fetch_'
'exchanges_'
'emerge_'
'dioxide_'
'cracked_'
'complained_'
'colorado_'
'chill_'
'believing_'
'balanced_'
'autopsy_'
'arabia_'
'tricky_'
'tensions_'
'teenage_'
'surgical_'
'scout_'
'reminds_'
'nap_'
'mechanisms_'
'marrying_'
'manchester_'
'injection_'
'grasp_'
'graduation_'
'fella_'
'crude_'
'bp_'
'attacking_'
'analyses_'
'alibi_'
'seasonal_'
'samsung_'
'pursuing_'
'promoted_'
'practicing_'
'ohio_'
'hammer_'
'funded_'
'feedback_'
'emphasis_'
'dull_'
'chi_'
'burnt_'
'blocking_'
'batteries_'
'tire_'
'roy_'
'reply_'
'organize_'
'operated_'
'obligations_'
'molecular_'
'inevitably_'
'hint_'
'healing_'
'fragile_'
'faithful_'
'est_'
'depending_'
'counted_'
'chancellor_'
'bud_'
'bout_'
'boo_'
'bombing_'
'belonged_'
'backyard_'
'airplane_'
'1998_'
' ] _'
'tibetan_'
'sweep_'
'supports_'
'sack_'
'rewards_'
'resistant_'
'rebel_'
'purchases_'
'pennsylvania_'
'oxford_'
'ong_'
'fond_'
'eats_'
'eagle_'
'domain_'
'departure_'
'courtyard_'
'boundaries_'
'bo_'
'ay_'
'wiped_'
'valve_'
'utility_'
'tournament_'
'stabbed_'
'shorter_'
'scan_'
'pork_'
'poems_'
'mild_'
'guaranteed_'
'farms_'
'fabric_'
'diary_'
'density_'
'corners_'
'ck_'
'canal_'
'assured_'
'undercover_'
'sympathy_'
'skirt_'
'shortage_'
'reflected_'
'portugal_'
'picnic_'
'pakistani_'
'opponent_'
'northeast_'
'nails_'
'myth_'
'logistics_'
'latter_'
'jake_'
'feared_'
'faculty_'
'delight_'
'damned_'
'creativity_'
'cord_'
'arabica_'
'alpha_'
'aliens_'
'admiral_'
'toes_'
'thumb_'
'tends_'
'temporarily_'
'teenagers_'
'taiwanese_'
'suspicion_'
'subsequent_'
'societies_'
'sandwiches_'
'rub_'
'policeman_'
'passionate_'
'operational_'
'mistaken_'
'matt_'
'masters_'
'lame_'
'kennedy_'
'harmonious_'
'gee_'
'finishing_'
'eyed_'
'ecb_'
'drawer_'
'donor_'
'distinct_'
'coward_'
'conviction_'
'cognitive_'
'cautious_'
'accomplish_'
'accompanied_'
'700_'
'wrist_'
'teenager_'
'swept_'
'respectively_'
'oliver_'
'maria_'
'maintained_'
'killers_'
'headache_'
'cooling_'
'consent_'
'clown_'
'chin_'
'buzz_'
'betting_'
'audio_'
'athletes_'
'alter_'
'weigh_'
'tribal_'
'travels_'
'strongest_'
'steven_'
'stab_'
'solo_'
'removing_'
'qaeda_'
'publicity_'
'oath_'
'merge_'
'measuring_'
'jeans_'
'ins_'
'hurricane_'
'hooked_'
'clues_'
'cereals_'
'andy_'
'accommodate_'
'ur_'
'talents_'
'shifts_'
'sharks_'
'shadows_'
'ron_'
'restricted_'
'respects_'
'representing_'
'refers_'
'raid_'
'prick_'
'nicely_'
'necessity_'
'namely_'
'miranda_'
'ln_'
'leverage_'
'holdings_'
'developments_'
'designers_'
'demon_'
'circulation_'
'chicks_'
'businessman_'
'bent_'
'21st_'
'tremendous_'
'transform_'
'tragic_'
'tory_'
'tan_'
'swore_'
'shh_'
'ritual_'
'remarks_'
'probe_'
'plasma_'
'necklace_'
'milan_'
'metals_'
'kindness_'
'guangzhou_'
'flavor_'
'fare_'
'deserved_'
'defeated_'
'balloon_'
'arrives_'
'applies_'
'analyzing_'
'actively_'
'2014_'
'unclear_'
'triggered_'
'tommy_'
'stink_'
'spectrum_'
'rhythm_'
'peanut_'
'ohh_'
'nurses_'
'municipal_'
'interface_'
'incentives_'
'hid_'
'handy_'
'graduates_'
'followers_'
'container_'
'chess_'
'celebrating_'
'attending_'
'villagers_'
'trailer_'
'tougher_'
'torn_'
'tapes_'
'sung_'
'snacks_'
'rehearsal_'
'moron_'
'metres_'
'messy_'
'interfere_'
'intent_'
'influential_'
'homeland_'
'guided_'
'fifteen_'
'evaluate_'
'essay_'
'dual_'
'dresses_'
'consult_'
'conflicts_'
'chuck_'
'booth_'
'apples_'
'witnessed_'
'versions_'
'tales_'
'susan_'
'stare_'
'sessions_'
'possibilities_'
'popularity_'
'pirate_'
'modified_'
'lighter_'
'ji_'
'hbo_'
'hardest_'
'hamas_'
'guidelines_'
'graduated_'
'gaming_'
'emily_'
'detention_'
'defensive_'
'constitutional_'
'champions_'
'buffett_'
' + _'
' ' , _'
'wildlife_'
'wheelchair_'
'tsunami_'
'toss_'
'syrian_'
'sweater_'
'perceived_'
'insult_'
'institutional_'
'instincts_'
'hospitality_'
'heck_'
'explosive_'
'dreamed_'
'dive_'
'designing_'
'defendant_'
'declare_'
'dc_'
'cuisine_'
'cookie_'
'categories_'
'battles_'
'allegedly_'
'urge_'
'sunny_'
'reactor_'
'ranking_'
'populations_'
'parole_'
'ous_'
'mattress_'
'marshal_'
'lawn_'
'ki_'
'ka_'
'jeff_'
'ibm_'
'glorious_'
'europeans_'
'donna_'
'dock_'
'deficits_'
'conservation_'
'blah_'
'attempting_'
' " ( _'
'wicked_'
'shave_'
'satisfy_'
'satellites_'
'sadly_'
'realise_'
'processed_'
'poorly_'
'pm_'
'parker_'
'oven_'
'nitrogen_'
'nearest_'
'monsters_'
'invention_'
'instantly_'
'harvey_'
'gently_'
'fools_'
'fingerprints_'
'finances_'
'expose_'
'errors_'
'dramatically_'
'disposal_'
'deer_'
'bump_'
'arena_'
'120_'
'villa_'
'thread_'
'terribly_'
'tackle_'
'sexually_'
'seas_'
'scenery_'
'retailers_'
'prone_'
'potatoes_'
'perception_'
'observers_'
'oatmeal_'
'mo_'
'misery_'
'mineral_'
'losers_'
'investigators_'
'idiots_'
'hillary_'
'furnished_'
'franklin_'
'emotionally_'
'elaine_'
'ego_'
'dynamics_'
'detroit_'
'destroying_'
'counselor_'
'consultant_'
'comedy_'
'camping_'
'brass_'
'banquet_'
'ant_'
'warfare_'
'thirds_'
'sodium_'
'reveals_'
'retain_'
'praying_'
'nazi_'
'motivated_'
'melt_'
'ley_'
'lehman_'
'iraqi_'
'greenhouse_'
'grades_'
'feast_'
'dessert_'
'desires_'
'dave_'
'cuba_'
'caring_'
'burger_'
'arrow_'
'911_'
'34_'
'- _'
'yoga_'
'viewed_'
'victoria_'
'unnecessary_'
'suitcase_'
'statistical_'
'slower_'
'simultaneously_'
'portable_'
'merry_'
'judging_'
'jar_'
'flush_'
'dug_'
'desperately_'
'buddies_'
'bases_'
'ba_'
'architect_'
'addiction_'
'towers_'
'terrified_'
'styles_'
'slim_'
'shenzhen_'
'secured_'
'rick_'
'resulted_'
'resignation_'
'novels_'
'ni_'
'miller_'
'jean_'
'inappropriate_'
'greeks_'
'foul_'
'exotic_'
'cows_'
'breads_'
'approached_'
'andrew_'
'admission_'
'85_'
' ? , _'
'withdraw_'
'underlying_'
'transformed_'
'shelf_'
'separately_'
'prompted_'
'mediterranean_'
'mart_'
'layers_'
'develops_'
'demonstration_'
'deemed_'
'cowboy_'
'confirmation_'
'cluster_'
'buddhist_'
'barry_'
'arizona_'
'1st_'
' — _'
'virtue_'
'travelling_'
'responses_'
'philippines_'
'peers_'
'oscar_'
'mixture_'
'missions_'
'intact_'
'firmly_'
'envy_'
'dvd_'
'dangers_'
'cos_'
'capability_'
'bucket_'
'bleed_'
'arriving_'
'aging_'
'adorable_'
'39_'
'1997_'
'vampires_'
'theirs_'
'supplier_'
'sorrow_'
'shifting_'
'severely_'
'salmon_'
'prof_'
'pine_'
'peoples_'
'peninsula_'
'nobel_'
'moses_'
'mercury_'
'massachusetts_'
'justify_'
'ive_'
'ine_'
'frustrated_'
'dubai_'
'dimensional_'
'delta_'
'curb_'
'cease_'
'boarding_'
'binding_'
'bamboo_'
'violation_'
'vertical_'
'thoroughly_'
'struggled_'
'stiff_'
'spends_'
'sketch_'
'shade_'
'reminded_'
'purely_'
'possess_'
'performances_'
'mistress_'
'metro_'
'ladder_'
'islam_'
'interference_'
'failures_'
'elementary_'
'distracted_'
'disappointment_'
'defending_'
'damages_'
'bagels_'
'accountant_'
'unprecedented_'
'submitted_'
'spinning_'
'sore_'
'shrimp_'
'ranging_'
'psycho_'
'poisoned_'
'motors_'
'mortgages_'
'monkeys_'
'mails_'
'jazz_'
'intentions_'
'inquiry_'
'hosts_'
'hiv_'
'founding_'
'fireplace_'
'explode_'
'ethical_'
'draws_'
'decides_'
'continuous_'
'compromised_'
'clearing_'
'bidding_'
'47_'
'yale_'
'traitor_'
'tianjin_'
'sudan_'
'sucked_'
'sentiment_'
'scar_'
'rod_'
'researcher_'
'renminbi_'
'rays_'
'prosecutor_'
'prep_'
'prayers_'
'neat_'
'motivation_'
'morality_'
'mentally_'
'measurement_'
'lifting_'
'kevin_'
'jordan_'
'incoming_'
'ideology_'
'hon_'
'hockey_'
'forehead_'
'ferry_'
'females_'
'extraction_'
'effectiveness_'
'ditch_'
'despair_'
'delivering_'
'courtesy_'
'counterparts_'
'climbed_'
'butterfly_'
'bishop_'
'addresses_'
'understands_'
'ultra_'
'twisted_'
'tracked_'
'throne_'
'stir_'
'stark_'
'spark_'
'sailing_'
'routes_'
'recommendation_'
'radioactive_'
'publish_'
'pond_'
'nephew_'
'neil_'
'lease_'
'judged_'
'ipo_'
'introducing_'
'gaining_'
'fossil_'
'du_'
'drown_'
'deliberately_'
'delhi_'
'criteria_'
'corridor_'
'convincing_'
'claiming_'
'centres_'
'cemetery_'
'beneficial_'
'bait_'
'array_'
'alaska_'
'adoption_'
'vain_'
'unemployed_'
'touches_'
'seller_'
'screens_'
'riot_'
'resolved_'
'recipe_'
'prophet_'
'paranoid_'
'marines_'
'interviewed_'
'infections_'
'incentive_'
'furthermore_'
'enjoys_'
'dragging_'
'clay_'
'bothering_'
'bald_'
'assisted_'
'ankle_'
'alice_'
'adviser_'
'whip_'
'wh_'
'unfortunate_'
'swedish_'
'supermarket_'
'richer_'
'restructuring_'
'panels_'
'momentum_'
'merger_'
'madrid_'
'luke_'
'lakes_'
'isolation_'
'imported_'
'donald_'
'detected_'
'contributed_'
'conclusions_'
'cocaine_'
'chongqing_'
'bilateral_'
'beard_'
'banker_'
'agrees_'
'affection_'
'whistle_'
'underwater_'
'surprises_'
'supervisor_'
'slap_'
'sincere_'
'robots_'
'ribs_'
'quest_'
'popped_'
'photography_'
'overwhelming_'
'offerings_'
'obesity_'
'oak_'
'nanny_'
'limitations_'
'hostages_'
'gesture_'
'farther_'
'downturn_'
'doomed_'
'discharge_'
'daylight_'
'charging_'
'awarded_'
'availability_'
'walter_'
'tortured_'
'thirsty_'
'texts_'
'spacecraft_'
'scholarship_'
'responding_'
'pencil_'
'outlets_'
'needing_'
'michelle_'
'lenders_'
'kelly_'
'intensity_'
'info_'
'illinois_'
'gen_'
'ft_'
'diverse_'
'creek_'
'confessed_'
'adapt_'
'wee_'
'upgrade_'
'unbelievable_'
'transplant_'
'thermal_'
'tactical_'
'runner_'
'referring_'
'purchased_'
'proves_'
'poured_'
'obligation_'
'minus_'
'mill_'
'lottery_'
'kidnapping_'
'guessing_'
'governing_'
'einstein_'
'distributed_'
'disk_'
'discrimination_'
'disabled_'
'dell_'
'dancers_'
'curve_'
'cloth_'
'capabilities_'
'buys_'
'booze_'
'wonders_'
'ter_'
'successor_'
'sentenced_'
'rescued_'
'pulls_'
'pub_'
'prosecution_'
'participation_'
'pad_'
'neutral_'
'naughty_'
'margins_'
'knocking_'
'heh_'
'gs_'
'fountain_'
'forecasts_'
'enabled_'
'disney_'
'decorated_'
'curriculum_'
'compounds_'
'chop_'
'bra_'
'boulevard_'
'banana_'
'aviation_'
'autonomous_'
'assess_'
'tic_'
'storms_'
'stall_'
'sichuan_'
'shan_'
'sentences_'
'screwing_'
'righteous_'
'reuters_'
'priced_'
'perfume_'
'parliamentary_'
'mustn_'
'mba_'
'lily_'
'lamb_'
'eco_'
'costly_'
'construct_'
'casualties_'
'bridges_'
'ballet_'
'affecting_'
'wreck_'
'weekends_'
'uncertain_'
'traces_'
'thunder_'
'sweeping_'
'stack_'
'speakers_'
'sony_'
'retire_'
'provision_'
'offspring_'
'notably_'
'medieval_'
'input_'
'hiking_'
'greedy_'
'format_'
'dryer_'
'dictionary_'
'crunch_'
'carter_'
'canyon_'
'breasts_'
'boxing_'
'bore_'
'bitches_'
'ash_'
'amendment_'
'accusations_'
'wished_'
'verdict_'
'tops_'
'tasty_'
'spike_'
'simon_'
'reminder_'
'refugees_'
'presidents_'
'plano_'
'particle_'
'ordering_'
'monopoly_'
'liberation_'
'investigated_'
'harmless_'
'float_'
'filthy_'
'faint_'
'enters_'
'disasters_'
'davis_'
'corresponding_'
'claire_'
'cal_'
'blunt_'
'amongst_'
'alexander_'
'affordable_'
'yell_'
'tours_'
'terry_'
'sporting_'
'seldom_'
'screening_'
'rotten_'
'rented_'
'potter_'
'narrative_'
'lasted_'
'harmful_'
'fist_'
'fatty_'
'excuses_'
'dope_'
'crises_'
'contributions_'
'comforts_'
'collateral_'
'chickens_'
'chased_'
'championship_'
'caution_'
'bunny_'
'bulk_'
'18th_'
'zhou_'
'topics_'
'thereby_'
'teii_'
'succeeded_'
'specialized_'
'sickness_'
'settings_'
'seasons_'
'scholar_'
'sandy_'
'runway_'
'reads_'
'preventing_'
'plague_'
'pirates_'
'pentagon_'
'mccain_'
'lens_'
'kitty_'
'jade_'
'explaining_'
'diagnosed_'
'derived_'
'christians_'
'canceled_'
'calculated_'
'cakes_'
'businessmen_'
'absent_'
'yourseif_'
'worthless_'
'vodka_'
'unstable_'
'umbrella_'
'slowdown_'
'setup_'
'scattered_'
'sadness_'
'ri_'
'reviewed_'
'resting_'
'ramp_'
'pyongyang_'
'primitive_'
'presumably_'
'occasions_'
'launching_'
'implemented_'
'hail_'
'grocery_'
'grill_'
'freddie_'
'diving_'
'disturbing_'
'disorders_'
'demanded_'
'dallas_'
'chile_'
'cambridge_'
'baggage_'
'ambitions_'
'acknowledged_'
'transparency_'
'thoughtful_'
'specialty_'
'reunion_'
'rated_'
'petrol_'
'migration_'
'improvements_'
'imaging_'
'grandson_'
'federation_'
'elaborate_'
'doubled_'
'dimensions_'
'designated_'
'der_'
'cardiac_'
'bronze_'
'boeing_'
'vacuum_'
'traditions_'
'summary_'
'substitute_'
'shout_'
'radius_'
'priests_'
'planting_'
'occupation_'
'occasional_'
'obstacles_'
'nowadays_'
'motorcycle_'
'midst_'
'lodge_'
'kin_'
'investigations_'
'inspire_'
'ings_'
'ignorance_'
'heroin_'
'frog_'
'fireworks_'
'filter_'
'fang_'
'entrepreneur_'
'countless_'
'congressional_'
'colony_'
'cleaner_'
'cited_'
'bees_'
'atlanta_'
'apartments_'
'44_'
' * _'
'whales_'
'waking_'
'supportive_'
'sensible_'
'ruins_'
'restored_'
'quoted_'
'pressures_'
'portrait_'
'obsession_'
'multilingual_'
'mounted_'
'melting_'
'lethal_'
'laughter_'
'inherited_'
'haul_'
'freaked_'
'den_'
'curiosity_'
'consultancy_'
'consequence_'
'condemned_'
'clerk_'
'candles_'
'calories_'
'buddhism_'
'accuse_'
'welcomed_'
'watches_'
'vanity_'
'turmoil_'
'toiletries_'
'throws_'
'sucking_'
'recommendations_'
'ranked_'
'plea_'
'plaza_'
'phil_'
'olive_'
'lisa_'
'lemon_'
'juices_'
'jaw_'
'jason_'
'inviting_'
'hats_'
'gamble_'
'fracture_'
'fortunate_'
'filing_'
'feeds_'
'drum_'
'drowned_'
'distress_'
'complexity_'
'cheek_'
'carriers_'
'candle_'
'barbara_'
'baked_'
'ample_'
'alternate_'
'altar_'
'46_'
'wandering_'
'thompson_'
'tenth_'
'socialism_'
'rhetoric_'
'reportedly_'
'realm_'
'propaganda_'
'persistent_'
'pancakes_'
'orientation_'
'nutrition_'
'misunderstanding_'
'mirrors_'
'marathon_'
'luckily_'
'longest_'
'ken_'
'jurisdiction_'
'instruction_'
'inclined_'
'helmet_'
'gratitude_'
'dumping_'
'detectives_'
'describing_'
'debris_'
'correlation_'
'corps_'
'consists_'
'composed_'
'cement_'
'bolt_'
'bernanke_'
'begged_'
'absorb_'
'utterly_'
'tense_'
'surf_'
'stance_'
'speeches_'
'smoked_'
'smashed_'
'sen_'
'reconstruction_'
'reckons_'
'preserved_'
'pops_'
'monsieur_'
'malaysia_'
'likewise_'
'lesbian_'
'highlights_'
'helen_'
'healthcare_'
'guangdong_'
'glow_'
'flames_'
'eleven_'
'derivatives_'
'damaging_'
'dairy_'
'cough_'
'confidential_'
'competent_'
'clearance_'
'bully_'
'barn_'
'asses_'
'zones_'
'woo_'
'willingness_'
'usage_'
'takeover_'
'taipei_'
'swap_'
'suspension_'
'spies_'
'resign_'
'replacing_'
'portland_'
'pepper_'
'peasants_'
'matching_'
'illusion_'
'hack_'
'flooding_'
'exploded_'
'elder_'
'cured_'
'connecting_'
'chang_'
'bothered_'
'blackberry_'
'beaches_'
'bands_'
'baghdad_'
'associates_'
'ashes_'
'adjusted_'
'verify_'
'transparent_'
'sworn_'
'sponsored_'
'soaring_'
'smallest_'
'seize_'
'scenic_'
'reactions_'
'ransom_'
'rainbow_'
'preference_'
'po_'
'pilots_'
'optimism_'
'openly_'
'myanmar_'
'mansion_'
'indiana_'
'incidents_'
'equality_'
'enhanced_'
'eng_'
'curtain_'
'concentrated_'
'camps_'
'browser_'
'boobs_'
'awfully_'
'alas_'
'adequate_'
'youngest_'
'wax_'
'versus_'
'unrest_'
'tolerance_'
'thrilled_'
'skiing_'
'shipment_'
'shareholder_'
'seeks_'
'salvation_'
'relate_'
'races_'
'quantitative_'
'publisher_'
'prosecutors_'
'pipeline_'
'philadelphia_'
'pharmaceutical_'
'netherlands_'
'nanjing_'
'lawmakers_'
'lauren_'
'jonathan_'
'ist_'
'interrogation_'
'ideological_'
'guinea_'
'flexibility_'
'evolutionary_'
'easter_'
'dentist_'
'delighted_'
'copyright_'
'constructed_'
'coins_'
'cinema_'
'campaigns_'
'buses_'
'breakthrough_'
'bounce_'
'blend_'
'betray_'
'2nd_'
'waiter_'
'vicious_'
'turkish_'
'teaches_'
'surviving_'
'stimulate_'
'semester_'
'sachs_'
'richest_'
'ranch_'
'railroad_'
'proteins_'
'pony_'
'mathematical_'
'listing_'
'implementing_'
'ignoring_'
'hormones_'
'hormone_'
'holder_'
'hallway_'
'goose_'
'generating_'
'fork_'
'floods_'
'fitting_'
'employ_'
'eliminated_'
'elevated_'
'ds_'
'dominate_'
'diplomats_'
'dimension_'
'deployed_'
'cups_'
'consistently_'
'attitudes_'
'arise_'
'activated_'
'abundant_'
' " . _'
'workplace_'
'withdrawal_'
'tightly_'
'sleeper_'
'shouting_'
'servers_'
'seated_'
'reagan_'
'pupils_'
'polar_'
'platforms_'
'overtime_'
'nicholas_'
'ner_'
'med_'
'lure_'
'lunar_'
'lucy_'
'lacks_'
'hath_'
'gasoline_'
'fry_'
'folder_'
'endure_'
'emails_'
'decrease_'
'continuously_'
'compliment_'
'cans_'
'bypass_'
'bizarre_'
'bets_'
'bernard_'
'authentic_'
'antibiotics_'
'ann_'
'amateur_'
'worm_'
'williams_'
'warren_'
'victor_'
'varieties_'
'translate_'
'tits_'
'taxpayers_'
'steep_'
'spiral_'
'sm_'
'roller_'
'references_'
'owed_'
'legislative_'
'kremlin_'
'infinite_'
'hunters_'
'groom_'
'conclude_'
'comparative_'
'celebrated_'
'buttons_'
'wolves_'
'wells_'
'volatile_'
'viable_'
'trophy_'
'tribes_'
'toyota_'
'smiled_'
'situated_'
'scotch_'
'resigned_'
'rd_'
'rack_'
'poster_'
'pickup_'
'picks_'
'needles_'
'naive_'
'loading_'
'libyan_'
'keyboard_'
'focuses_'
'exhibit_'
'credibility_'
'contacted_'
'companion_'
'comfy_'
'chew_'
'cherry_'
'chelsea_'
'charts_'
'capitalist_'
'baltimore_'
'au_'
'astronaut_'
'angela_'
'albert_'
'accompany_'
'wilson_'
'viruses_'
'ventures_'
'tightening_'
'tai_'
'stunt_'
'spreads_'
'spatial_'
'sovereignty_'
'shipped_'
'rig_'
'renewed_'
'regards_'
'rash_'
'peru_'
'perfection_'
'palmer_'
'mumbai_'
'modeling_'
'logo_'
'insect_'
'husbands_'
'hp_'
'divisions_'
'distinction_'
'developer_'
'compliance_'
'clip_'
'caribbean_'
'butcher_'
'biscuits_'
'bbc_'
'basin_'
'addressed_'
'absurd_'
' ? ' _'
'xinhua_'
'wagon_'
'updated_'
'tvs_'
'tuna_'
'titles_'
'synthetic_'
'smartphone_'
'sizes_'
'sights_'
'shakespeare_'
'sauna_'
'prevented_'
'organisms_'
'monk_'
'mississippi_'
'meds_'
'lo_'
'ism_'
'huawei_'
'fraction_'
'diplomacy_'
'detained_'
'crowds_'
'cancelled_'
'broadly_'
'allen_'
'accelerate_'
'3d_'
' , $ _'
'vitamin_'
'urine_'
'switching_'
'spinal_'
'slowed_'
'sections_'
'reserved_'
'reservations_'
'rap_'
'quake_'
'pictured_'
'optical_'
'ninth_'
'navigation_'
'lucas_'
'lad_'
'kung_'
'knives_'
'kansas_'
'historically_'
'guarantees_'
'furious_'
'fulfill_'
'flags_'
'explosives_'
'eur_'
'erm_'
'entity_'
'drawings_'
'cosmic_'
'consuming_'
'consume_'
'compassion_'
'careers_'
'calcium_'
'breakdown_'
'behaviors_'
'armor_'
'alternatives_'
'aiso_'
'advocate_'
'addict_'
'acquisitions_'
'4th_'
'traditionally_'
'traced_'
'swine_'
'staged_'
'specially_'
'sour_'
'shorts_'
'scrambled_'
'rim_'
'regulated_'
'refusing_'
'proving_'
'proceedings_'
'ports_'
'phenomena_'
'ph_'
'parameters_'
'negotiating_'
'muhammad_'
'matched_'
'libraries_'
'jets_'
'hollow_'
'heights_'
'distinguished_'
'disclosure_'
'creditors_'
'colorful_'
'belgium_'
'accusing_'
'walker_'
'thorough_'
'swift_'
'succession_'
'steer_'
'solitary_'
'shove_'
'renowned_'
'recruit_'
'realised_'
'pools_'
'peer_'
'oversight_'
'oregon_'
'oracle_'
'operates_'
'oceans_'
'neighbour_'
'mubarak_'
'louisiana_'
'locks_'
'lipstick_'
'linda_'
'innocence_'
'hub_'
'girlfriends_'
'gig_'
'forgetting_'
'exploit_'
'execute_'
'drilling_'
'doe_'
'demons_'
'convert_'
'conservatives_'
'confusing_'
'conducting_'
'comply_'
'compelling_'
'1970s_'
'youtube_'
'yan_'
'wilderness_'
'volcano_'
'vest_'
'vary_'
'uniforms_'
'sensation_'
'scent_'
'ro_'
'rebuild_'
'rains_'
'quitting_'
'queens_'
'quantities_'
'qi_'
'psychologist_'
'provider_'
'noodles_'
'nightmares_'
'morgue_'
'mcdonald_'
'mandate_'
'madness_'
'imminent_'
'immense_'
'hooker_'
'galaxies_'
'fries_'
'favors_'
'ent_'
'displayed_'
'coup_'
'charter_'
'carriage_'
'banging_'
'attach_'
'accurately_'
'64_'
' . ?_'
' # _'
'valued_'
'tunnels_'
'tray_'
'torch_'
'strengths_'
'static_'
'spine_'
'shi_'
'sally_'
'sacrifices_'
'rehab_'
'prescribed_'
'outs_'
'matthew_'
'handing_'
'greet_'
'expressing_'
'experiencing_'
'ell_'
'electoral_'
'ebay_'
'easing_'
'converted_'
'congressman_'
'coffin_'
'automobile_'
'altered_'
'aiming_'
'admits_'
'72_'
'49_'
'widow_'
'unveiled_'
'unusually_'
'ukraine_'
'traits_'
'trades_'
'systematic_'
'surveys_'
'straw_'
'steering_'
'specialists_'
'sheer_'
'seafood_'
'rogue_'
'releasing_'
'providers_'
'priorities_'
'pouring_'
'organisations_'
'oppose_'
'museums_'
'monument_'
'lawrence_'
'labs_'
'jan_'
'insulin_'
'ier_'
'headlines_'
'geography_'
'gangs_'
'fur_'
'functioning_'
'freight_'
'forensic_'
'danced_'
'crawl_'
'conveniently_'
'confront_'
'chambers_'
'cellular_'
'bum_'
'booking_'
'bedrooms_'
'ballroom_'
'autonomy_'
'accordingly_'
'1990_'
'ze_'
'workshop_'
'workforce_'
'traveler_'
'symptom_'
'symbols_'
'representation_'
'removal_'
'relying_'
'relaxation_'
'relating_'
'proximity_'
'progressive_'
'pause_'
'palestinians_'
'outbreak_'
'muffins_'
'lou_'
'lions_'
'iook_'
'insert_'
'im_'
'heavens_'
'hatch_'
'granny_'
'frankie_'
'disturb_'
'dilemma_'
'cultivation_'
'beware_'
'arrogant_'
'ants_'
'anna_'
'accuracy_'
'ys_'
'ville_'
'variable_'
'uranium_'
'triumph_'
'telescope_'
'sweating_'
'surfing_'
'passive_'
'ox_'
'meditation_'
'luxurious_'
'jong_'
'jacob_'
'hua_'
'haunted_'
'flooded_'
'dot_'
'demonstrations_'
'collaboration_'
'clause_'
'churches_'
'cheers_'
'beta_'
'assumption_'
'appealing_'
'airports_'
'52_'
'43_'
'zombie_'
'worms_'
'wal_'
'wa_'
'swallowed_'
'suited_'
'sting_'
'steadily_'
'somalia_'
'skies_'
'shook_'
'shapes_'
'salesman_'
'salaries_'
'rides_'
'probability_'
'premature_'
'physician_'
'patents_'
'operative_'
'offset_'
'offended_'
'merit_'
'membrane_'
'lacking_'
'ish_'
'identifying_'
'grounded_'
'ess_'
'erase_'
'ee_'
'donors_'
'chloe_'
'broadway_'
'battlefield_'
'anne_'
'aluminum_'
'accounted_'
'yankees_'
'waitress_'
'viral_'
'tes_'
'supplied_'
'strengthening_'
'streams_'
'splendid_'
'slut_'
'shocking_'
'ruler_'
'robust_'
'renewable_'
'recognise_'
'possessed_'
'owes_'
'militants_'
'masks_'
'loads_'
'kenya_'
'iii_'
'idle_'
'holders_'
'graphics_'
'genetically_'
'frost_'
'fortunes_'
'fertility_'
'exterior_'
'expedition_'
'exceptional_'
'electron_'
'elect_'
'drowning_'
'distraction_'
'dinosaurs_'
'delightful_'
'criticized_'
'costumes_'
'consumed_'
'charlotte_'
'ans_'
'abnormal_'
'51_'
'variation_'
'tore_'
'tab_'
'stretching_'
'spying_'
'slump_'
'similarly_'
'sean_'
'ralph_'
'raining_'
'racist_'
'publication_'
'prayed_'
'pipes_'
'mug_'
'mixing_'
'miners_'
'migrants_'
'messenger_'
'irrelevant_'
'intern_'
'helpless_'
'harold_'
'generals_'
'gaddafi_'
'fuels_'
'frontier_'
'francis_'
'expo_'
'ethan_'
'eternity_'
'enzyme_'
'embarrassment_'
'elena_'
'echo_'
'downs_'
'doctrine_'
'disguise_'
'dime_'
'dim_'
'differ_'
'dental_'
'declining_'
'cyber_'
'creep_'
'courtroom_'
'complications_'
'competitiveness_'
'beers_'
'bedded_'
'batch_'
'assad_'
'advocates_'
'vocal_'
'tolerate_'
'tighten_'
'spouse_'
'specify_'
'smash_'
'shoots_'
'rockets_'
'repay_'
'rejection_'
'puppet_'
'precision_'
'porch_'
'pledged_'
'partially_'
'organizing_'
'module_'
'memorable_'
'mei_'
'maritime_'
'jacuzzi_'
'highlight_'
'heroic_'
'headaches_'
'glue_'
'gases_'
'frustration_'
'fooled_'
'flee_'
'fiance_'
'fatigue_'
'equities_'
'earthquakes_'
'earliest_'
'denying_'
'cooler_'
'chan_'
'calculate_'
'caesar_'
'briefing_'
'bracelet_'
'assumptions_'
'2015_'
' ) -_'
'yin_'
'wayne_'
'warriors_'
'warmer_'
'vague_'
'upright_'
'tao_'
'spoil_'
'sensor_'
'scouts_'
'relieve_'
'reduces_'
'poorer_'
'pairs_'
'oversized_'
'obey_'
'nope_'
'nationality_'
'moms_'
'mates_'
'marx_'
'manufacture_'
'lizzie_'
'inequality_'
'indulge_'
'ignorant_'
'forbid_'
'flirting_'
'equation_'
'environments_'
'distinguish_'
'dispatch_'
'disclose_'
'contractors_'
'comparing_'
'cellphone_'
'bumped_'
'broker_'
'bells_'
'behold_'
'bedding_'
'baker_'
'atoms_'
'architectural_'
'annie_'
'advisory_'
'advisers_'
'whatsoever_'
'veteran_'
'transit_'
'thrust_'
'substances_'
'sonny_'
'segment_'
'satisfying_'
'salon_'
'rushing_'
'rubbish_'
'rot_'
'relieved_'
'permanently_'
'peasant_'
'packaging_'
'outsiders_'
'nixon_'
'negotiation_'
'moore_'
'minerals_'
'marie_'
'ko_'
'illegally_'
'haircut_'
'guessed_'
'graphic_'
'formally_'
'flock_'
'epic_'
'donkey_'
'desired_'
'condom_'
'chopper_'
'carved_'
'cam_'
'bloom_'
'blond_'
'athlete_'
'asthma_'
'appreciated_'
'activate_'
'absorbed_'
'1994_'
'1991_'
'warnings_'
'utilization_'
'toronto_'
'suburbs_'
'smartphones_'
'rows_'
'requiring_'
'renovated_'
'refuses_'
'rebound_'
'reactors_'
'ram_'
'nigeria_'
'medvedev_'
'magnitude_'
'lining_'
'lex_'
'ler_'
'jew_'
'jay_'
'inheritance_'
'indication_'
'hopeless_'
'gps_'
'garlic_'
'formerly_'
'encountered_'
'disturbed_'
'distract_'
'disc_'
'dense_'
'deeds_'
'cycles_'
'cracking_'
'colonial_'
'cannon_'
'bureaucracy_'
'bowling_'
'armies_'
'anatomy_'
'altitude_'
' ' ?_'
'wary_'
'voyage_'
'voluntary_'
'vocational_'
'temptation_'
'sushi_'
'summers_'
'spoiled_'
'searches_'
'russell_'
'rode_'
'refined_'
'posed_'
'patio_'
'monica_'
'mole_'
'mit_'
'medicines_'
'lightly_'
'leaning_'
'kan_'
'inland_'
'infant_'
'humanitarian_'
'hobby_'
'hears_'
'haiti_'
'generator_'
'fog_'
'fade_'
'exile_'
'diana_'
'choir_'
'cafeteria_'
'billionaire_'
'bias_'
'beverage_'
'betty_'
'backward_'
'austria_'
'arsenal_'
'ammunition_'
'wires_'
'whiskey_'
'unexpectedly_'
'territorial_'
'tae_'
'sums_'
'spilled_'
'simulation_'
'sculpture_'
'savage_'
'robe_'
'rmb_'
'rigid_'
'recruiting_'
'razor_'
'publishers_'
'predators_'
'onion_'
'occupy_'
'obstacle_'
'neglected_'
'musician_'
'murdoch_'
'merchant_'
'margaret_'
'lectures_'
'interrupted_'
'inspiring_'
'innovations_'
'freed_'
'favorites_'
'ethanol_'
'ensuring_'
'diesel_'
'conversion_'
'casting_'
'bribe_'
'boundary_'
'borrowers_'
'barcelona_'
'bankrupt_'
'atom_'
'applicable_'
'ana_'
'alcoholic_'
'admired_'
'54_'
'41_'
'1960s_'
'whisper_'
'viewers_'
'va_'
'unpleasant_'
'trusting_'
'treats_'
'translated_'
'taxation_'
'survivor_'
'sucker_'
'snakes_'
'smiles_'
'shiny_'
'sensitivity_'
'remembers_'
'recycling_'
'recreation_'
'qaddafi_'
'pyramid_'
'objectives_'
'ned_'
'moody_'
'mechanics_'
'locally_'
'limb_'
'liabilities_'
'karen_'
'journalism_'
'initiatives_'
'impulse_'
'hips_'
'gunshot_'
'graham_'
'goddess_'
'esteem_'
'disappoint_'
'desktop_'
'clan_'
'builds_'
'buffalo_'
'blake_'
'berg_'
'bass_'
'apologies_'
'acids_'
'3000_'
'womb_'
'upward_'
'turtle_'
'trademark_'
'threatens_'
'smelled_'
'slack_'
'shotgun_'
'roosevelt_'
'roast_'
'ringing_'
'remarkably_'
'reign_'
'racial_'
'pumpkin_'
'prediction_'
'playground_'
'pier_'
'pains_'
'organised_'
'nelson_'
'musicians_'
'mounting_'
'misses_'
'meaningless_'
'marshall_'
'lly_'
'limiting_'
'irrigation_'
'interactive_'
'ingredient_'
'influences_'
'independently_'
'hangs_'
'genuinely_'
'fukushima_'
'extending_'
'diner_'
'competitor_'
'commitments_'
'brenda_'
'blaming_'
'bio_'
'barbecue_'
'bake_'
'anchor_'
'almighty_'
'aggression_'
'7th_'
'5th_'
'10th_'
'wit_'
'wisconsin_'
'wan_'
'von_'
'void_'
'tier_'
'tempted_'
'sustain_'
'spoon_'
'si_'
'secular_'
'scarce_'
'sanctuary_'
'retrieve_'
'respiratory_'
'relies_'
'rabbits_'
'prosperous_'
'peculiar_'
'peach_'
'pasta_'
'panda_'
'origins_'
'oklahoma_'
'objection_'
'nce_'
'mills_'
'metaphor_'
'mandarin_'
'lucrative_'
'lick_'
'lesser_'
'leaked_'
'kicks_'
'karma_'
'jiang_'
'invalid_'
'habitat_'
'gigantic_'
'getaway_'
'gauge_'
'freezer_'
'filming_'
'examining_'
'ecosystem_'
'earning_'
'doug_'
'detection_'
'chooses_'
'cholesterol_'
'bark_'
'apollo_'
'whites_'
'vows_'
'tires_'
'tapped_'
'submarine_'
'stretched_'
'sponsor_'
'soy_'
'scottish_'
'renaissance_'
'reckless_'
'receives_'
'prototype_'
'proposition_'
'outlet_'
'miracles_'
'migrant_'
'measurements_'
'lump_'
'liking_'
'jammed_'
'informal_'
'imposing_'
'hesitate_'
'herd_'
'hearted_'
'ginger_'
'fucker_'
'forgiven_'
'finals_'
'eyebrows_'
'exquisite_'
'emma_'
'distinctive_'
'decisive_'
'danish_'
'closure_'
'circular_'
'cha_'
'cavity_'
'booming_'
'blogs_'
'bangkok_'
'assassination_'
'artillery_'
'analysed_'
'advertisement_'
'abundance_'
'15th_'
'wishing_'
'visions_'
'vet_'
'utter_'
'tubes_'
'tighter_'
'terrifying_'
'terrace_'
'teen_'
'tasted_'
'synthesis_'
'speeds_'
'snapped_'
'seeker_'
'saves_'
'respective_'
'replied_'
'refuge_'
'quicker_'
'qin_'
'punched_'
'prompt_'
'predictions_'
'placing_'
'nicolas_'
'mint_'
'maturity_'
'manages_'
'louder_'
'locking_'
'kilometer_'
'ipod_'
'infants_'
'hottest_'
'harbour_'
'greg_'
'grandparents_'
'grammar_'
'globalization_'
'exclusively_'
'evacuation_'
'destined_'
'cuban_'
'couid_'
'cooperative_'
'colours_'
'cole_'
'burial_'
'bonuses_'
'athletic_'
'archives_'
'alabama_'
'adapted_'
'accord_'
'accommodations_'
' ! " _'
'workout_'
'undermine_'
'tuition_'
'tick_'
'temples_'
'strains_'
'stain_'
'sounding_'
'sniper_'
'quarantine_'
'outcomes_'
'nina_'
'nickname_'
'neural_'
'marriages_'
'hughes_'
'hike_'
'hank_'
'hacking_'
'glance_'
'figuring_'
'feds_'
'exporters_'
'endangered_'
'egyptians_'
'ecology_'
'easiest_'
'downward_'
'cs_'
'crab_'
'controversy_'
'classification_'
'cheeks_'
'calculations_'
'briefcase_'
'boiled_'
'blackmail_'
'benjamin_'
'accumulation_'
'62_'
'weaknesses_'
'waving_'
'vendors_'
'timely_'
'swell_'
'smoothly_'
'smack_'
'slavery_'
'sino_'
'righteousness_'
'psychiatrist_'
'praised_'
'popping_'
'plead_'
'plains_'
'pinch_'
'payroll_'
'norway_'
'nigger_'
'nicer_'
'netanyahu_'
'minnesota_'
'merchants_'
'loneliness_'
'lone_'
'lively_'
'islamist_'
'hsbc_'
'hose_'
'guiding_'
'governmental_'
'glimpse_'
'foam_'
'feathers_'
'fairness_'
'evidently_'
'entertaining_'
'dolls_'
'documentary_'
'devastated_'
'deed_'
'credible_'
'coupon_'
'centered_'
'brooke_'
'beth_'
'amusement_'
'ambush_'
'aerial_'
'abraham_'
'xu_'
'wrath_'
'whack_'
'verge_'
'vent_'
'trim_'
'tomato_'
'slope_'
'sleepy_'
'shouid_'
'shells_'
'scrutiny_'
'sands_'
'releases_'
'regulator_'
'puerto_'
'ps_'
'practiced_'
'pioneer_'
'petition_'
'painter_'
'observing_'
'nevada_'
'monitors_'
'mongolia_'
'mon_'
'mitch_'
'mason_'
'manifest_'
'liable_'
'lent_'
'lan_'
'interpret_'
'infectious_'
'incomes_'
'hypothesis_'
'herbs_'
'hemisphere_'
'hairy_'
'gravy_'
'globalisation_'
'geneva_'
'florence_'
'evident_'
'epidemic_'
'enthusiastic_'
'efficiently_'
'donations_'
'desirable_'
'democrat_'
'cries_'
'compensate_'
'colombia_'
'claus_'
'champ_'
'cathedral_'
'brotherhood_'
'bounty_'
'bind_'
'appearing_'
'aha_'
'activist_'
'56_'
'1980_'
'wto_'
'warmth_'
'vanished_'
'tyler_'
'transfers_'
'trails_'
'territories_'
'tasting_'
'taller_'
'surfaces_'
'sticky_'
'soo_'
'simpler_'
'secrecy_'
'reverend_'
'reasonably_'
'rang_'
'potassium_'
'portal_'
'persuaded_'
'perry_'
'pending_'
'overhead_'
'noisy_'
'mortal_'
'mickey_'
'mia_'
'methane_'
'lest_'
'issuing_'
'inflammation_'
'inferior_'
'harassment_'
'fertilizer_'
'elephants_'
'dummy_'
'des_'
'dances_'
'cousins_'
'coral_'
'chiefs_'
'cairo_'
'barclays_'
'athens_'
'academics_'
'. ' _'
'volcanic_'
'startup_'
'spotlight_'
'shrinking_'
'scars_'
'sacrificed_'
'residue_'
'remembering_'
'pretended_'
'populated_'
'popcorn_'
'physiological_'
'persian_'
'participating_'
'panties_'
'obscure_'
'neo_'
'mortality_'
'moisture_'
'meth_'
'memo_'
'marble_'
'legendary_'
'learnt_'
'junction_'
'jr_'
'insufficient_'
'heel_'
'hee_'
'gu_'
'foundations_'
'fm_'
'finland_'
'eva_'
'engaging_'
'encourages_'
'embedded_'
'editing_'
'duration_'
'dudes_'
'donate_'
'disappointing_'
'diagnostic_'
'denial_'
'cheerful_'
'budgets_'
'amber_'
'adopting_'
' , ..._'
'zi_'
'yacht_'
'wig_'
'watson_'
'voucher_'
'venice_'
'tribute_'
'towels_'
'textile_'
'sympathetic_'
'sneaking_'
'referendum_'
'receipts_'
'prostitute_'
'outrage_'
'ot_'
'ops_'
'nokia_'
'merchandise_'
'limbs_'
'lasts_'
'justified_'
'interactions_'
'injected_'
'indicating_'
'icon_'
'hosting_'
'handwriting_'
'founders_'
'flaws_'
'fig_'
'explored_'
'earl_'
'dough_'
'devastating_'
'denver_'
'credits_'
'courthouse_'
'configuration_'
'conception_'
'clarity_'
'chapel_'
'beautifully_'
'assholes_'
'aspirin_'
'abused_'
'58_'
' . ,_'
'wines_'
'wander_'
'viewing_'
'verse_'
'understandable_'
'tossed_'
'thrill_'
'tattoos_'
'starve_'
'sparkling_'
'selective_'
'scanning_'
'ripe_'
'remedy_'
'reliance_'
'reasoning_'
'realization_'
'readily_'
'pumping_'
'pudding_'
'psych_'
'parenting_'
'nutrients_'
'ning_'
'marking_'
'mandatory_'
'litigation_'
'interact_'
'intake_'
'inadequate_'
'healthier_'
'gifted_'
'framed_'
'feminine_'
'explanations_'
'doom_'
'directory_'
'denmark_'
'cosmetic_'
'condoms_'
'conditioned_'
'comparable_'
'cheng_'
'capsule_'
'blessings_'
'biopsy_'
'belgian_'
'banner_'
'axis_'
'attracting_'
'ark_'
'applause_'
'ace_'
'ac_'
'wrestling_'
'varied_'
'unlimited_'
'traumatic_'
'tigers_'
'stamps_'
'socially_'
'sleeps_'
'shoppers_'
'ses_'
'seating_'
'revised_'
'repairs_'
'regulate_'
'rainy_'
'quo_'
'proposes_'
'presenting_'
'predictable_'
'positively_'
'philosopher_'
'pact_'
'overheard_'
'neglect_'
'nailed_'
'mt_'
'minimal_'
'mentor_'
'lowered_'
'lloyd_'
'killings_'
'kai_'
'insider_'
'horizontal_'
'honorable_'
'herb_'
'grim_'
'flown_'
'fellows_'
'dye_'
'destructive_'
'depths_'
'defects_'
'crashing_'
'coroner_'
'coordinates_'
'comet_'
'chatting_'
'characterized_'
'caffeine_'
'brakes_'
'bites_'
'bathrooms_'
'anticipated_'
'algorithm_'
'accommodation_'
'aaron_'
'1996_'
'17th_'
'16th_'
' . '_'
'wholly_'
'violated_'
'verbal_'
'vein_'
'triangle_'
'threshold_'
'textbook_'
'tended_'
'starters_'
'stalking_'
'skeleton_'
'sellers_'
'scarlett_'
'scales_'
'satan_'
'rug_'
'routinely_'
'reversed_'
'reef_'
'rainfall_'
'policemen_'
'permits_'
'notify_'
'norman_'
'noises_'
'multinational_'
'mona_'
'lotus_'
'linking_'
'kyle_'
'juvenile_'
'jesse_'
'instability_'
'individually_'
'humiliation_'
'heir_'
'greed_'
'globally_'
'fuss_'
'fractures_'
'expressions_'
'evacuate_'
'empirical_'
'disgrace_'
'curtains_'
'consultation_'
'confuse_'
'composite_'
'clocks_'
'christianity_'
'certificates_'
'cerebral_'
'caves_'
'boosting_'
'beverages_'
'astronauts_'
'antique_'
'acres_'
'53_'
'5000_'
'3rd_'
'1989_'
'110_'
'yemen_'
'vienna_'
'venus_'
'veins_'
'unpredictable_'
'tt_'
'tehran_'
'stuart_'
'spokeswoman_'
'specification_'
'slaughter_'
'rulers_'
'recruited_'
'readings_'
'privileges_'
'pr_'
'poop_'
'oxide_'
'outright_'
'outfits_'
'observations_'
'nomination_'
'monks_'
'marvelous_'
'lords_'
'licence_'
'kiddo_'
'interim_'
'hui_'
'heather_'
'hazard_'
'harris_'
'handles_'
'grapes_'
'geographic_'
'featured_'
'facilitate_'
'districts_'
'discretion_'
'dice_'
'deciding_'
'cultivated_'
'creator_'
'contaminated_'
'consultants_'
'constructing_'
'cd_'
'catherine_'
'carnival_'
'broadcasting_'
'bravo_'
'bmw_'
'bloomberg_'
'benchmark_'
'ax_'
'audiences_'
'12th_'
' . ( _'
'wholesale_'
'venezuela_'
'ut_'
'updates_'
'thriving_'
'tariffs_'
'subsequently_'
'slightest_'
'shelves_'
'settling_'
'sensing_'
'sailors_'
'romeo_'
'revealing_'
'ren_'
'prostitution_'
'princeton_'
'predecessor_'
'plateau_'
'overwhelmed_'
'offs_'
'notorious_'
'notebook_'
'mutually_'
'munich_'
'maryland_'
'lowering_'
'loosen_'
'livestock_'
'licensed_'
'jun_'
'jewels_'
'interrupting_'
'intends_'
'inmates_'
'indicators_'
'hungary_'
'headline_'
'fusion_'
'farewell_'
'drift_'
'documented_'
'disputed_'
'dismiss_'
'definite_'
'czech_'
'cursed_'
'cult_'
'console_'
'considers_'
'conquer_'
'coats_'
'boyfriends_'
'bomber_'
'blues_'
'bailout_'
'autism_'
'authorization_'
'anderson_'
'allocation_'
'adventures_'
'66_'
'1995_'
'weighing_'
'upcoming_'
'therapeutic_'
'thankful_'
'telecom_'
'strait_'
'sri_'
'shifted_'
'seizure_'
'rumours_'
'rewarded_'
'prop_'
'proliferation_'
'precinct_'
'pots_'
'philosophical_'
'ol_'
'manufactured_'
'logs_'
'lobster_'
'knights_'
'kidnap_'
'intersection_'
'heavenly_'
'glove_'
'fooling_'
'evan_'
'enables_'
'editorial_'
'duncan_'
'dominance_'
'dome_'
'disappears_'
'dinosaur_'
'delays_'
'del_'
'crane_'
'contestants_'
'confronted_'
'commands_'
'brake_'
'blur_'
'blades_'
'behaved_'
'avatar_'
'ap_'
'accessories_'
'8th_'
'14th_'
'zhu_'
'zhejiang_'
'weighed_'
'wardrobe_'
'wales_'
'wakes_'
'waist_'
'vegetarian_'
'thirteen_'
'systemic_'
'sweets_'
'swan_'
'sunrise_'
'studios_'
'stash_'
'span_'
'spaghetti_'
'solely_'
'snuck_'
'shitty_'
'seminar_'
'scum_'
'scam_'
'sarge_'
'qualify_'
'psychologists_'
'psychiatric_'
'prohibited_'
'panicked_'
'originated_'
'mold_'
'manipulation_'
'mammals_'
'knot_'
'jackie_'
'inspect_'
'insights_'
'hut_'
'hen_'
'hamilton_'
'hai_'
'gown_'
'felony_'
'dots_'
'donation_'
'deployment_'
'delegation_'
'coordination_'
'coordinate_'
'containers_'
'constitute_'
'compass_'
'communists_'
'combining_'
'columns_'
'collision_'
'clarify_'
'caps_'
'cane_'
'calculation_'
'cables_'
'biting_'
'berkeley_'
'baking_'
'assorted_'
'arbitration_'
'appeals_'
'accustomed_'
'68_'
'57_'
'11th_'
'zip_'
'whereabouts_'
'weddings_'
'vomit_'
'vocabulary_'
'vietnamese_'
'upgraded_'
'trousers_'
'teens_'
'superb_'
'streaming_'
'straightforward_'
'spelling_'
'skating_'
'senators_'
'rib_'
'resentment_'
'resent_'
'recognised_'
'rebellion_'
'raft_'
'processor_'
'posters_'
'portuguese_'
'plausible_'
'pistol_'
'pe_'
'olds_'
'mosque_'
'militia_'
'mercedes_'
'melted_'
'matrix_'
'martha_'
'limo_'
'kisses_'
'judah_'
'implies_'
'helicopters_'
'gin_'
'ga_'
'forged_'
'exceed_'
'depressing_'
'denies_'
'demographic_'
'deepest_'
'deceased_'
'copenhagen_'
'comrade_'
'certified_'
'celebrities_'
'catastrophe_'
'bi_'
'beasts_'
'amazed_'
'albeit_'
'achieving_'
'abdominal_'
' . ? _'
'tuck_'
'tess_'
'sufficiently_'
'stumbled_'
'strengthened_'
'stove_'
'ruth_'
'rt_'
'robbing_'
'respectable_'
'rep_'
'preparations_'
'pillows_'
'philip_'
'orderly_'
'obliged_'
'neighboring_'
'nathan_'
'morphine_'
'marijuana_'
'lebanon_'
'ky_'
'jupiter_'
'jung_'
'ir_'
'insured_'
'imaginary_'
'gangster_'
'extinct_'
'equals_'
'entertain_'
'enabling_'
'dependence_'
'dash_'
'contempt_'
'clone_'
'circumstance_'
'bunker_'
'blossom_'
'bacterial_'
'austin_'
'applicants_'
'anthony_'
'angles_'
'allowance_'
'aisle_'
'abducted_'
'61_'
'20s_'
'1992_'
'weakened_'
'vatican_'
'ti_'
'tempting_'
'tapping_'
'tango_'
'suffers_'
'subjective_'
'slipping_'
'sixty_'
'ruthless_'
'prostate_'
'probation_'
'printer_'
'plunged_'
'petroleum_'
'peripheral_'
'pensions_'
'peek_'
'par_'
'overweight_'
'outgoing_'
'neurons_'
'motives_'
'mat_'
'marrow_'
'koreans_'
'kindly_'
'jenny_'
'jelly_'
'irrational_'
'integrate_'
'ike_'
'harper_'
'hairs_'
'gradual_'
'fury_'
'forensics_'
'expelled_'
'edit_'
'duct_'
'dreadful_'
'dragons_'
'doin_'
'compact_'
'clumsy_'
'chunk_'
'chandler_'
'brooks_'
'boil_'
'bly_'
'blink_'
'berlusconi_'
'automotive_'
'assassin_'
'antonio_'
'allied_'
'? ? _'
'900_'
'01_'
'zing_'
'whipped_'
'venue_'
'utah_'
'treasures_'
'trainer_'
'squeezed_'
'sailor_'
'rusty_'
'rotation_'
'risked_'
'reset_'
'prolonged_'
'preceding_'
'poke_'
'orgasm_'
'opt_'
'occurring_'
'newest_'
'nazis_'
'metropolis_'
'maize_'
'kent_'
'iowa_'
'iceland_'
'heartbeat_'
'hay_'
'hawk_'
'halls_'
'glee_'
'geek_'
'exams_'
'exaggerated_'
'embarrass_'
'eclipse_'
'dizzy_'
'distances_'
'coupled_'
'completion_'
'careless_'
'busting_'
'attributed_'
'assembled_'
'alzheimer_'
'airborne_'
'admitting_'
'9th_'
'xi_'
'villain_'
'unreasonable_'
'trusts_'
'troy_'
'testament_'
'terrain_'
'surroundings_'
'spur_'
'speeding_'
'sip_'
'sidewalk_'
'sentimental_'
'scissors_'
'ruining_'
'retailer_'
'restoration_'
'reservoir_'
'professors_'
'poses_'
'porter_'
'packs_'
'overlooking_'
'notch_'
'norm_'
'motorway_'
'methodology_'
'meteor_'
'manipulate_'
'kindergarten_'
'investigator_'
'ideals_'
'hilarious_'
'heavier_'
'grease_'
'freaks_'
'footsteps_'
'ff_'
'extinction_'
'expectation_'
'discovering_'
'defect_'
'crow_'
'critic_'
'crappy_'
'cooper_'
'confined_'
'committees_'
'civilized_'
'cellar_'
'catches_'
'campbell_'
'bundle_'
'branded_'
'bing_'
'bc_'
'arrows_'
'amsterdam_'
'amen_'
'yao_'
'wraith_'
'welcoming_'
'weaken_'
'vs_'
'unwind_'
'unite_'
'troubling_'
'traps_'
'tissues_'
'themes_'
'tennessee_'
'televisions_'
'symbolic_'
'swelling_'
'splash_'
'sparked_'
'smuggling_'
'sloppy_'
'skipped_'
'sincerely_'
'sided_'
'showers_'
'settlements_'
'scrub_'
'scaring_'
'ricky_'
'realizing_'
'ratios_'
'predicts_'
'pounding_'
'potent_'
'poorest_'
'panama_'
'opium_'
'nickel_'
'nationwide_'
'narcotics_'
'marcus_'
'loft_'
'lava_'
'landlord_'
'journals_'
'jointly_'
'instructor_'
'hoo_'
'historians_'
'grabbing_'
'flawed_'
'flare_'
'firstly_'
'entities_'
'doses_'
'dine_'
'diameter_'
'considerably_'
'concessions_'
'conceived_'
'communism_'
'classmates_'
'boasts_'
'bikes_'
'behavioral_'
'ard_'
'appearances_'
'antenna_'
'announcing_'
'anglo_'
'adjustments_'
'abide_'
'volumes_'
'verification_'
'vending_'
'variations_'
'valuation_'
'uprising_'
'troop_'
'travelled_'
'syrup_'
'swinging_'
'sunglasses_'
'sued_'
'stray_'
'strap_'
'sophie_'
'sliced_'
'sire_'
'shaved_'
'sara_'
'runners_'
'rooted_'
'ribbon_'
'profiles_'
'predicting_'
'pharmacy_'
'nursery_'
'montana_'
'modernization_'
'marina_'
'maintains_'
'macro_'
'leaks_'
'ld_'
'laughs_'
'lapd_'
'labels_'
'jackass_'
'iy_'
'hunan_'
'hangzhou_'
'haif_'
'guides_'
'glowing_'
'geological_'
'genus_'
'gabriel_'
'freddy_'
'fragments_'
'fertile_'
'elders_'
'deliberate_'
'delete_'
'deficiency_'
'currents_'
'cue_'
'credentials_'
'countermeasures_'
'contradiction_'
'combines_'
'colonies_'
'choke_'
'ching_'
'catastrophic_'
'cartoon_'
'bred_'
'backpack_'
'autograph_'
'artifact_'
'arrests_'
'accidental_'
'accelerated_'
' " !_'
'zen_'
'vengeance_'
'variables_'
'urging_'
'undertake_'
'transported_'
'tails_'
'swamp_'
'stripper_'
'stripped_'
'straighten_'
'starbucks_'
'spontaneous_'
'sinking_'
'shipments_'
'shaw_'
'shampoo_'
'serum_'
'scarf_'
'scandals_'
'riots_'
'relied_'
'recalled_'
'probable_'
'piracy_'
'pimp_'
'overly_'
'organizational_'
'om_'
'oi_'
'niece_'
'millennium_'
'linear_'
'ivy_'
'ip_'
'io_'
'intimacy_'
'insisting_'
'ingly_'
'immigrant_'
'imagining_'
'hopeful_'
'grants_'
'enclosed_'
'edges_'
'driveway_'
'doorstep_'
'disability_'
'defended_'
'dale_'
'confrontation_'
'competence_'
'capitol_'
'camelot_'
'butler_'
'burma_'
'bulls_'
'bribery_'
'bladder_'
'attachment_'
'appointments_'
'allergies_'
'administrator_'
'accumulated_'
'98_'
'84_'
'82_'
'yelled_'
'unpopular_'
'unified_'
'tribunal_'
'trajectory_'
'tomatoes_'
'telecoms_'
'stroll_'
'stern_'
'sphere_'
'scans_'
'saddle_'
'rubbing_'
'revive_'
'repeating_'
'religions_'
'regrets_'
'reflecting_'
'reacted_'
'qualifications_'
'pumped_'
'protocols_'
'porsche_'
'personalities_'
'paulson_'
'pastor_'
'owning_'
'ors_'
'offenders_'
'murderers_'
'modem_'
'memphis_'
'maggie_'
'licensing_'
'jefferson_'
'iove_'
'installing_'
'initiate_'
'hungarian_'
'grenade_'
'grandchildren_'
'gloomy_'
'ger_'
'geographical_'
'fugitive_'
'fluids_'
'enlightenment_'
'electromagnetic_'
'editors_'
'discharged_'
'deploy_'
'decreased_'
'crust_'
'cola_'
'citigroup_'
'chorus_'
'chewing_'
'catalog_'
'cardiovascular_'
'calf_'
'brighter_'
'bothers_'
'boast_'
'bingo_'
'betrayal_'
'barrels_'
'adverse_'
'adjusting_'
'180_'
' ) --_'
' " ,_'
'wonn_'
'weeds_'
'warden_'
'wade_'
'vigorous_'
'unacceptable_'
'trans_'
'tipped_'
'tian_'
'thrive_'
'swords_'
'surveyed_'
'supplement_'
'suburban_'
'substantially_'
'stylish_'
'stems_'
'sponsors_'
'shortcut_'
'shepherd_'
'seventy_'
'secondly_'
'scenarios_'
'rsquo_'
'restraint_'
'que_'
'quarterly_'
'pros_'
'poisonous_'
'nationalist_'
'nan_'
'metropolitan_'
'medications_'
'malaria_'
'magician_'
'logan_'
'legends_'
'israelis_'
'incomplete_'
'hudson_'
'hostility_'
'homecoming_'
'highness_'
'highlighted_'
'genome_'
'ellen_'
'drone_'
'dorm_'
'discreet_'
'deprived_'
'deleted_'
'dagger_'
'cuffs_'
'crawling_'
'cortex_'
'commissioned_'
'comfortably_'
'borne_'
'belonging_'
'bats_'
'ballistics_'
'attic_'
'atmospheric_'
'addressing_'
'ada_'
'zed_'
'yangtze_'
'withstand_'
'veterans_'
'velocity_'
'uncovered_'
'superman_'
'stu_'
'strive_'
'stressful_'
'strangely_'
'spells_'
'shortages_'
'shaving_'
'seals_'
'ropes_'
'remotely_'
'recovering_'
'pursued_'
'pulmonary_'
'privileged_'
'postal_'
'poetic_'
'peg_'
'parental_'
'mps_'
'motorola_'
'mock_'
'misleading_'
'merrill_'
'marker_'
'maine_'
'lyrics_'
'lawsuits_'
'laptops_'
'khan_'
'jose_'
'jedi_'
'java_'
'jamie_'
'indispensable_'
'imply_'
'ideally_'
'hygiene_'
'hk_'
'grape_'
'governed_'
'garment_'
'forge_'
'feudal_'
'exceptions_'
'evolve_'
'enduring_'
'emission_'
'emergence_'
'ei_'
'economically_'
'delivers_'
'decay_'
'darker_'
'cunt_'
'cultivate_'
'copied_'
'convey_'
'compelled_'
'comeback_'
'carol_'
'booty_'
'bodyguard_'
'blacks_'
'beverly_'
'bathing_'
'architects_'
'apologized_'
'ao_'
'ammo_'
'ageing_'
'2020_'
' ” ._'
' ! !_'
'xiao_'
'vegetation_'
'subprime_'
'struggles_'
'strapped_'
'spencer_'
'soak_'
'shattered_'
'shandong_'
'scrap_'
'schmidt_'
'romans_'
'reviewing_'
'respondents_'
'researching_'
'reproductive_'
'remark_'
'regain_'
'recommends_'
'recalls_'
'poles_'
'pod_'
'oops_'
'offence_'
'nod_'
'nicky_'
'mitchell_'
'metabolism_'
'marching_'
'keeper_'
'joints_'
'jealousy_'
'ja_'
'invaded_'
'inject_'
'initiated_'
'inherent_'
'indigenous_'
'hush_'
'hunted_'
'humiliated_'
'horny_'
'historian_'
'graft_'
'gospel_'
'goodnight_'
'goanna_'
'gaps_'
'fuse_'
'fitted_'
'famously_'
'excellence_'
'equilibrium_'
'enforce_'
'dubbed_'
'dividends_'
'disciples_'
'determining_'
'defender_'
'crews_'
'cracks_'
'covenant_'
'counseling_'
'cottage_'
'coronary_'
'constraints_'
'comrades_'
'compulsory_'
'collector_'
'charitable_'
'chaotic_'
'bricks_'
'boris_'
'boiling_'
'beacon_'
'bangladesh_'
'attributes_'
'asteroid_'
'applicant_'
'81_'
'77_'
'6th_'
'67_'
'---_'
'yunnan_'
'tox_'
'todd_'
'toby_'
'taped_'
'tactic_'
'sweaty_'
'subsidiary_'
'subscription_'
'stretches_'
'streak_'
'squirrel_'
'sleeve_'
'rue_'
'risking_'
'rider_'
'revelation_'
'rests_'
'researches_'
'reinforce_'
'ranger_'
'proceeds_'
'prejudice_'
'precedent_'
'percy_'
'payable_'
'orthodox_'
'notable_'
'noah_'
'neighbouring_'
'mouths_'
'merlin_'
'melody_'
'madison_'
'lynch_'
'jumps_'
'juicy_'
'jon_'
'irresponsible_'
'invent_'
'inhabitants_'
'indicator_'
'hannah_'
'greeted_'
'fuzzy_'
'fungus_'
'frankfurt_'
'fisher_'
'fibers_'
'fe_'
'explicit_'
'evolving_'
'eligible_'
'douglas_'
'dire_'
'detector_'
'ct_'
'chiang_'
'carlos_'
'brendan_'
'bedtime_'
'ballot_'
'ations_'
'astonishing_'
'arc_'
'arabic_'
'antidote_'
'amanda_'
'afterward_'
'350_'
'13th_'
'wendy_'
'vitamins_'
'violate_'
'ver_'
'urges_'
'typing_'
'turf_'
'tions_'
'taxpayer_'
'sway_'
'superficial_'
'structured_'
'stricken_'
'stereo_'
'smoker_'
'siege_'
'shutting_'
'shaky_'
'samuel_'
'safeguard_'
'rum_'
'reed_'
'recipient_'
'pneumonia_'
'placement_'
'pins_'
'ninety_'
'mysteries_'
'maiden_'
'mafia_'
'lunatic_'
'lid_'
'kramer_'
'kidneys_'
'kabul_'
'irregular_'
'intriguing_'
'instructed_'
'inability_'
'hal_'
'guo_'
'gravitational_'
'grams_'
'goats_'
'g20_'
'fundamentally_'
'frightening_'
'freshman_'
'fortress_'
'forthcoming_'
'fiancee_'
'exits_'
'enhancing_'
'eliminating_'
'efficacy_'
'dolphins_'
'dictator_'
'crystals_'
'committing_'
'closes_'
'classics_'
'chrysler_'
'certainty_'
'censorship_'
'bureaucratic_'
'berkshire_'
'basics_'
'adams_'
'accountable_'
'absorption_'
'abdomen_'
'76_'
' @ _'
'worthwhile_'
'woes_'
'vowed_'
'violations_'
'vibrant_'
'validity_'
'undoubtedly_'
'uan_'
'surgeons_'
'strauss_'
'stinks_'
'splitting_'
'sexuality_'
'seniors_'
'semen_'
'savvy_'
'ridden_'
'retained_'
'restrict_'
'relay_'
'reconsider_'
'provoke_'
'prefecture_'
'partnerships_'
'pam_'
'override_'
'ny_'
'newborn_'
'nets_'
'needless_'
'miniature_'
'microscope_'
'mattresses_'
'markers_'
'learns_'
'leaking_'
'kindle_'
'impaired_'
'homemade_'
'hierarchy_'
'handcuffs_'
'gus_'
'greatness_'
'geez_'
'gallon_'
'gal_'
'fringe_'
'forestry_'
'farmland_'
'fantasies_'
'enzymes_'
'embraced_'
'ea_'
'drums_'
'donated_'
'discounts_'
'diplomat_'
'diets_'
'demonstrates_'
'debates_'
'contamination_'
'cleveland_'
'cigar_'
'chili_'
'captive_'
'brokers_'
'brink_'
'bitten_'
'bartender_'
'axe_'
'asylum_'
'annually_'
'advisor_'
'admissions_'
'addicted_'
'accepts_'
'02_'
' ) ; _'
'wong_'
'width_'
'warrants_'
'vancouver_'
'unwilling_'
'underestimate_'
'transmitted_'
'transmit_'
'tonnes_'
'toilets_'
'texture_'
'tenure_'
'tearing_'
'swollen_'
'strangled_'
'stealth_'
'specifications_'
'sock_'
'slot_'
'sewing_'
'reliability_'
'recreational_'
'proxy_'
'proposing_'
'preservation_'
'penguin_'
'participated_'
'overlook_'
'outdoors_'
'olivia_'
'nigga_'
'needn_'
'napoleon_'
'minorities_'
'merits_'
'marital_'
'mapping_'
'manipulated_'
'likelihood_'
'liang_'
'jeremy_'
'jeep_'
'irony_'
'internationally_'
'infrared_'
'induce_'
'hindu_'
'hazardous_'
'guarding_'
'fishermen_'
'financially_'
'fills_'
'feasible_'
'explorer_'
'ere_'
'ella_'
'disrespect_'
'disastrous_'
'digest_'
'demonstrators_'
'compiled_'
'columbus_'
'census_'
'brat_'
'blooded_'
'batman_'
'attracts_'
'artwork_'
'arch_'
'ale_'
'88_'
'1993_'
'. - _'
' ~ _'
' - ?_'
'zation_'
'vaccines_'
'undergoing_'
'turner_'
'subconscious_'
'stripes_'
'stella_'
'soaked_'
'shields_'
'shaft_'
'scoop_'
'saul_'
'regeneration_'
'recruitment_'
'publications_'
'psychotic_'
'protects_'
'predator_'
'posting_'
'pittsburgh_'
'packet_'
'oriental_'
'orchestra_'
'monitored_'
'melbourne_'
'manny_'
'legislature_'
'lateral_'
'lanes_'
'lads_'
'kentucky_'
'karzai_'
'kahn_'
'justin_'
'julia_'
'intervene_'
'interpreted_'
'intentionally_'
'insanity_'
'indonesian_'
'incapable_'
'imbalances_'
'ide_'
'hugely_'
'hollande_'
'greens_'
'grains_'
'freaky_'
'franchise_'
'flashing_'
'favorable_'
'explicitly_'
'ethiopia_'
'dusty_'
'dow_'
'doorway_'
'disclosed_'
'cons_'
'conferences_'
'celebrations_'
'brace_'
'blankets_'
'bauer_'
'assignments_'
'algae_'
'additionally_'
' - ? _'
'youngsters_'
'whispering_'
'whilst_'
'weary_'
'vagina_'
'uncommon_'
'tones_'
'tents_'
'temporal_'
'stimulation_'
'stationed_'
'stared_'
'stalin_'
'spared_'
'sings_'
'singh_'
'shores_'
'scares_'
'sap_'
'salty_'
'ronald_'
'robber_'
'restless_'
'rested_'
'resorts_'
'renal_'
'refusal_'
'refreshing_'
'questionnaire_'
'prospective_'
'prompting_'
'phrases_'
'peaks_'
'oz_'
'owen_'
'outline_'
'optimal_'
'noses_'
'nana_'
'murray_'
'modes_'
'lust_'
'lance_'
'jo_'
'injustice_'
'indefinitely_'
'hebei_'
'generators_'
'fuelled_'
'frustrating_'
'freud_'
'fingerprint_'
'evaluating_'
'enjoyable_'
'engineered_'
'encrypted_'
'elvis_'
'elbow_'
'docks_'
'discomfort_'
'demise_'
'costa_'
'consolidation_'
'clusters_'
'citizenship_'
'chocolates_'
'chengdu_'
'ces_'
'bushes_'
'boosted_'
'bikini_'
'bending_'
'battalion_'
'bao_'
'bakery_'
'baidu_'
'backstage_'
'awhile_'
'awaits_'
'associations_'
'assign_'
'artifacts_'
'anomaly_'
'amusing_'
'allah_'
'ak_'
'aig_'
'advancing_'
'accountability_'
'abuses_'
'89_'
'63_'
'101_'
' . )_'
'vladimir_'
'upsetting_'
'ubs_'
'tow_'
'thinner_'
'tar_'
'surgeries_'
'superstar_'
'stool_'
'stewart_'
'spiders_'
'sorted_'
'slam_'
'shouted_'
'sed_'
'sailed_'
'ruby_'
'rounded_'
'reinforced_'
'refugee_'
'redemption_'
'promptly_'
'preferably_'
'precipitation_'
'powerless_'
'posing_'
'phony_'
'peanuts_'
'owl_'
'navigate_'
'nationalism_'
'nate_'
'mutation_'
'murphy_'
'molecule_'
'misunderstood_'
'milky_'
'ite_'
'ironic_'
'imprisoned_'
'impatient_'
'immortal_'
'hotter_'
'hosted_'
'hints_'
'henan_'
'healed_'
'harness_'
'haired_'
'guarded_'
'glucose_'
'gland_'
'gaze_'
'gastric_'
'fujian_'
'friction_'
'formidable_'
'fleeing_'
'financed_'
'evenings_'
'escaping_'
'erosion_'
'enthusiasts_'
'economical_'
'drip_'
'distribute_'
'disruption_'
'disrupt_'
'devote_'
'dedication_'
'cupcakes_'
'cricket_'
'contributing_'
'contagious_'
'congratulate_'
'congo_'
'chrome_'
'chatter_'
'bureaucrats_'
'bumper_'
'buffer_'
'bruises_'
'blackout_'
'berry_'
'bargaining_'
'atlantis_'
'analyse_'
'allergy_'
'adhesive_'
'accomplice_'
' _'
'writings_'
'withdrawn_'
'weights_'
'warner_'
'volatility_'
'unlock_'
'tutor_'
'transferring_'
'tract_'
'titanic_'
'timer_'
'thirst_'
'tags_'
'supplements_'
'subsidy_'
'slapped_'
'rust_'
'rethink_'
'rendered_'
'rebecca_'
'racism_'
'prestigious_'
'prank_'
'pragmatic_'
'pleasing_'
'pitched_'
'pd_'
'paste_'
'onions_'
'nun_'
'northwestern_'
'narrowed_'
'mri_'
'mourning_'
'mop_'
'molly_'
'mann_'
'macau_'
'leonard_'
'lender_'
'kay_'
'incorporated_'
'ids_'
'heed_'
'greeting_'
'fourteen_'
'ferrari_'
'fashionable_'
'famine_'
'edible_'
'drunken_'
'dreamt_'
'dinners_'
'dared_'
'damp_'
'continually_'
'confirms_'
'civic_'
'chores_'
'broadband_'
'bonding_'
'biography_'
'beggar_'
'attorneys_'
'astronomers_'
'appraisal_'
'airbus_'
'ahmadinejad_'
'aftermath_'
'advertisers_'
'admiration_'
'adjoining_'
'83_'
'1988_'
'wool_'
'woody_'
'warns_'
'viewpoint_'
'vibe_'
'undo_'
'undergraduate_'
'unarmed_'
'trader_'
'tornado_'
'telecommunications_'
'swings_'
'susceptible_'
'sts_'
'spice_'
'soared_'
'slaughtered_'
'shale_'
'robbers_'
'realities_'
'raymond_'
'randy_'
'railways_'
'punishing_'
'polluted_'
'pierre_'
'paralyzed_'
'overhaul_'
'ounce_'
'ouch_'
'ontario_'
'omar_'
'offend_'
'nonetheless_'
'moonlight_'
'loudly_'
'looming_'
'interestingly_'
'intercourse_'
'inherit_'
'improves_'
'impacts_'
'illustrated_'
'holland_'
'grove_'
'groceries_'
'govern_'
'geithner_'
'fulfilled_'
'faking_'
'exploitation_'
'expenditure_'
'energetic_'
'drastic_'
'diversion_'
'dislike_'
'disappearing_'
'disappearance_'
'deserted_'
'delegates_'
'cuff_'
'counties_'
'consecutive_'
'cloak_'
'catalyst_'
'caller_'
'bridget_'
'bombed_'
'battered_'
'bananas_'
'bailed_'
'babysitter_'
'babylon_'
'automated_'
'assurance_'
'arkansas_'
'appoint_'
'administered_'
' " , " _'
'yong_'
'vintage_'
'vanilla_'
'valet_'
'tunisia_'
'tuned_'
'tumors_'
'tor_'
'tailor_'
'successive_'
'subjected_'
'spock_'
'slippers_'
'slash_'
'shaken_'
'screws_'
'rightly_'
'revival_'
'res_'
'relevance_'
'racket_'
'questionable_'
'programmed_'
'prefers_'
'preferences_'
'prague_'
'polished_'
'pointless_'
'plunge_'
'pigeon_'
'pervert_'
'persist_'
'penetrate_'
'penalties_'
'nts_'
'nike_'
'newton_'
'mustard_'
'millionaire_'
'mega_'
'medals_'
'massacre_'
'marketplace_'
'lengthy_'
'landmark_'
'karl_'
'julie_'
'ivory_'
'intellectuals_'
'honda_'
'hides_'
'herbal_'
'hans_'
'hacked_'
'greetings_'
'governors_'
'generic_'
'freeway_'
'flute_'
'fiat_'
'fences_'
'ew_'
'enjoyment_'
'edinburgh_'
'disguised_'
'digit_'
'destinations_'
'dennis_'
'decoration_'
'declines_'
'databases_'
'damascus_'
'daisy_'
'convertible_'
'condo_'
'concentrating_'
'commanded_'
'coloured_'
'cm_'
'chartered_'
'carson_'
'canvas_'
'canned_'
'cambodia_'
'birmingham_'
'bids_'
'authoritarian_'
'amino_'
'80s_'
'10000_'
' = _'
'weighs_'
'volunteered_'
'virtues_'
'unaware_'
'ue_'
'twilight_'
'trafficking_'
'suspend_'
'surround_'
'strawberry_'
'stirring_'
'stefan_'
'speculative_'
'singers_'
'sightseeing_'
'seizures_'
'securing_'
'screams_'
'sakes_'
'saddam_'
'rubble_'
'rocked_'
'robinson_'
'resolutions_'
'resemble_'
'regimes_'
'projected_'
'pong_'
'photographed_'
'ory_'
'nerd_'
'neighborhoods_'
'negotiated_'
'nationals_'
'mornings_'
'maze_'
'marxism_'
'mae_'
'keith_'
'implied_'
'ility_'
'hustle_'
'hampshire_'
'hamlet_'
'goodwill_'
'generosity_'
'ful_'
'fart_'
'excluding_'
'electrons_'
'dodge_'
'documentation_'
'disposable_'
'chapters_'
'certification_'
'ceos_'
'bulb_'
'boardroom_'
'believer_'
'auditions_'
'appliances_'
'ancestor_'
'79_'
'73_'
' " ..._'
'zuckerberg_'
'whining_'
'vivid_'
'vendor_'
'undertaking_'
'ugh_'
'truce_'
'tripoli_'
'timber_'
'ticking_'
'thumbs_'
'thine_'
'thereof_'
'suspicions_'
'supernatural_'
'sunk_'
'starwood_'
'stabilize_'
'spicy_'
'smartest_'
'simplicity_'
'siblings_'
'shrine_'
'salvage_'
'saints_'
'royalty_'
'rocking_'
'rigorous_'
'rico_'
'recorder_'
'provoked_'
'postpone_'
'possessions_'
'plumbing_'
'peacefully_'
'pavilion_'
'overlooked_'
'outskirts_'
'modify_'
'mechanic_'
'marty_'
'mailbox_'
'magnet_'
'lifelong_'
'katie_'
'intuition_'
'illustrates_'
'ied_'
'hideous_'
'gram_'
'forecasting_'
'flipped_'
'fibre_'
'fascinated_'
'experimenting_'
'exhaust_'
'episodes_'
'entries_'
'emphasized_'
'eighty_'
'dolphin_'
'dent_'
'cynical_'
'crushing_'
'crippled_'
'consulate_'
'confucian_'
'commanders_'
'coaches_'
'clearer_'
'bowel_'
'bounced_'
'attendant_'
'arguably_'
'aquarium_'
'ape_'
'anticipate_'
'antibodies_'
'alarming_'
'ahem_'
'advertisements_'
'adore_'
'71_'
'whichever_'
'vow_'
'vase_'
'ul_'
'theoretically_'
'testosterone_'
'tequila_'
'systematically_'
'superiority_'
'stresses_'
'stocked_'
'stitch_'
'stew_'
'steroids_'
'solomon_'
'solidarity_'
'shanxi_'
'separating_'
'samantha_'
'rigged_'
'riches_'
'pushes_'
'protectionism_'
'prostitutes_'
'prevents_'
'positioning_'
'positioned_'
'porcelain_'
'pollen_'
'pinned_'
'pi_'
'perks_'
'peking_'
'opposing_'
'oils_'
'od_'
'observatory_'
'norwegian_'
'mist_'
'kite_'
'kitchenette_'
'judgments_'
'iong_'
'interns_'
'indirect_'
'illnesses_'
'iced_'
'hebrew_'
'granddaughter_'
'genetics_'
'gel_'
'gamma_'
'flynn_'
'fannie_'
'exchanged_'
'evaluated_'
'ensures_'
'encouragement_'
'durable_'
'ducks_'
'discoveries_'
'discourse_'
'diarrhea_'
'deutsche_'
'despise_'
'degradation_'
'deception_'
'dangerously_'
'containment_'
'concussion_'
'completing_'
'compares_'
'commentary_'
'christopher_'
'chopped_'
'cheque_'
'cheerleader_'
'cabbage_'
'boxer_'
'bouquet_'
'bliss_'
'bility_'
'benign_'
'austrian_'
'assaulted_'
'allegiance_'
'aggressively_'
'accompanying_'
'1986_'
'1930s_'
'130_'
'wrists_'
'vine_'
'ventilation_'
'unrelated_'
'unhealthy_'
'trench_'
'toxins_'
'thanked_'
'suppress_'
'statues_'
'starved_'
'spinach_'
'spaceship_'
'skate_'
'sherlock_'
'shack_'
'selecting_'
'scoring_'
'satisfactory_'
'sank_'
'rookie_'
'rituals_'
'reproduction_'
'render_'
'refund_'
'receiver_'
'randomly_'
'pumps_'
'prose_'
'plush_'
'pleasures_'
'physicists_'
'phantom_'
'peel_'
'palin_'
'owing_'
'orphan_'
'optic_'
'nov_'
'muddy_'
'metre_'
'meltdown_'
'medicare_'
'mattered_'
'marched_'
'listings_'
'listens_'
'lacked_'
'janitor_'
'iv_'
'isolate_'
'integrating_'
'inflammatory_'
'identities_'
'graceful_'
'gourmet_'
'gladly_'
'generates_'
'gandhi_'
'fueled_'
'flattered_'
'feather_'
'feasibility_'
'exposing_'
'explores_'
'excluded_'
'entrepreneurial_'
'drainage_'
'dividend_'
'disposition_'
'descendants_'
'darkest_'
'curtis_'
'costing_'
'convict_'
'considerations_'
'concealed_'
'comforting_'
'collins_'
'bullying_'
'bulletin_'
'buenos_'
'bryan_'
'breakup_'
'belongings_'
'aggregate_'
'ache_'
'abu_'
' " --_'
'zhao_'
'yearly_'
'wandered_'
'vulnerability_'
'varying_'
'truths_'
'trump_'
'trek_'
'treason_'
'transforming_'
'topped_'
'token_'
'telegram_'
'teachings_'
'sustainability_'
'summoned_'
'striker_'
'stalled_'
'stabbing_'
'slippery_'
'slick_'
'shalt_'
'sabotage_'
'retarded_'
'restraining_'
'resonance_'
'remorse_'
'rehabilitation_'
'rampant_'
'queue_'
'quarrel_'
'pronounced_'
'premise_'
'pint_'
'performer_'
'paralysis_'
'pals_'
'outrageous_'
'osama_'
'optional_'
'observer_'
'nutrient_'
'notified_'
'ngs_'
'messaging_'
'litter_'
'lime_'
'jing_'
'jeopardy_'
'iq_'
'interviewing_'
'imprisonment_'
'homo_'
'herr_'
'hating_'
'hart_'
'hainan_'
'hacker_'
'grind_'
'glacier_'
'gao_'
'fulfilling_'
'freshly_'
'footprint_'
'folded_'
'fisherman_'
'fading_'
'extraterrestrial_'
'encryption_'
'embracing_'
'drifting_'
'discourage_'
'dearly_'
'dawg_'
'criticize_'
'criticised_'
'counterpart_'
'correspondent_'
'coping_'
'controller_'
'congestion_'
'choking_'
'catering_'
'cartel_'
'calligraphy_'
'bribes_'
'attribute_'
'arrogance_'
'amnesia_'
'alarms_'
'abe_'
'91_'
' , ( _'
'wright_'
'vulgar_'
'violin_'
'violating_'
'veto_'
'venom_'
'vat_'
'vascular_'
'utilities_'
'unification_'
'uncover_'
'trait_'
'toothbrush_'
'tangible_'
'tainted_'
'symphony_'
'skeptical_'
'siberia_'
'shovel_'
'shaping_'
'sensory_'
'scarcely_'
'scanner_'
'rifles_'
'restart_'
'relentless_'
'registry_'
'reconciliation_'
'puppies_'
'puke_'
'proudly_'
'profoundly_'
'posture_'
'polymer_'
'plantation_'
'pierce_'
'piease_'
'philosophers_'
'phd_'
'patriotic_'
'passports_'
'outsourcing_'
'optimization_'
'offender_'
'nominated_'
'multilateral_'
'motherfuckers_'
'morally_'
'mitt_'
'misfortune_'
'microphone_'
'mel_'
'meanings_'
'marc_'
'lifts_'
'lays_'
'laundering_'
'kang_'
'juan_'
'ju_'
'integral_'
'instances_'
'insecure_'
'hunch_'
'honors_'
'hitch_'
'hackers_'
'graves_'
'gracious_'
'gloom_'
'flour_'
'faded_'
'employs_'
'dwell_'
'doubling_'
'disadvantage_'
'diploma_'
'diaper_'
'depot_'
'darwin_'
'darn_'
'cy_'
'cupcake_'
'contracted_'
'conceal_'
'compartment_'
'communicating_'
'comb_'
'cnn_'
'charities_'
'cancers_'
'burgers_'
'bryant_'
'brushed_'
'brightest_'
'belts_'
'barracks_'
'barnes_'
'barbie_'
'banning_'
'balloons_'
'ballistic_'
'arthritis_'
'animation_'
'aires_'
'addicts_'
'accelerating_'
'abbey_'
'59_'
'1500_'
'140_'
' , -_'
'xinjiang_'
'winding_'
'waits_'
'urgently_'
'traction_'
'toxin_'
'tile_'
'tempered_'
'telegraph_'
'tabs_'
'sunni_'
'subpoena_'
'spear_'
'souvenir_'
'solvent_'
'sixteen_'
'sidelines_'
'shane_'
'serena_'
'sebastian_'
'schooling_'
'savior_'
'sampling_'
'sammy_'
'restriction_'
'resembles_'
'renting_'
'renew_'
'reassure_'
'rankings_'
'projections_'
'precautions_'
'preach_'
'powell_'
'poised_'
'poets_'
'performers_'
'pawn_'
'operatives_'
'obtaining_'
'objections_'
'obese_'
'norms_'
'neighbourhood_'
'naming_'
'myths_'
'morale_'
'minimize_'
'mergers_'
'ments_'
'maternal_'
'mario_'
'lemonade_'
'kosovo_'
'junkie_'
'judgement_'
'jpmorgan_'
'insulted_'
'infantry_'
'ineffective_'
'induction_'
'incorporate_'
'icy_'
'horns_'
'hilton_'
'hereby_'
'grieving_'
'goog_'
'gi_'
'franco_'
'fearing_'
'extracted_'
'ergonomic_'
'erased_'
'environmentally_'
'edgar_'
'dumpster_'
'drying_'
'dread_'
'downloaded_'
'differential_'
'devotion_'
'cylinder_'
'cunning_'
'critically_'
'crisp_'
'convictions_'
'consortium_'
'conquered_'
'connects_'
'commute_'
'collections_'
'clout_'
'clips_'
'clash_'
'citing_'
'circuits_'
'chow_'
'camel_'
'bluff_'
'berries_'
'batter_'
'barking_'
'barber_'
'assert_'
'arbitrary_'
'annoyed_'
'als_'
'affirmative_'
'78_'
'witches_'
'wildly_'
'vitro_'
'vicinity_'
'tidy_'
'symmetry_'
'strokes_'
'spectacle_'
'slogan_'
'shia_'
'shelters_'
'shades_'
'severed_'
'sedan_'
'salute_'
'romania_'
'rendezvous_'
'radios_'
'prophets_'
'polo_'
'pharaoh_'
'perspectives_'
'palestine_'
'ozone_'
'outward_'
'outlined_'
'organism_'
'negro_'
'mushrooms_'
'lured_'
'lisbon_'
'linux_'
'linguistic_'
'lenses_'
'legitimacy_'
'lamps_'
'lag_'
'ironically_'
'invariably_'
'intercept_'
'insulting_'
'influenza_'
'iness_'
'impoverished_'
'implicit_'
'implants_'
'hyper_'
'hugh_'
'haunt_'
'fundamentals_'
'footprints_'
'flaw_'
'firefighters_'
'festivals_'
'fearful_'
'faulty_'
'faults_'
'extends_'
'dynasties_'
'dylan_'
'coupons_'
'correction_'
'confidentiality_'
'conductor_'
'concerts_'
'compatible_'
'colin_'
'churchill_'
'chiefly_'
'chemo_'
'castro_'
'builders_'
'bruno_'
'brunch_'
'brandy_'
'bogus_'
'bloke_'
'beneficiary_'
'await_'
'ashley_'
'arse_'
'ag_'
'aerospace_'
'160_'
'- " _'
'valves_'
'unforgettable_'
'unfamiliar_'
'undergo_'
'ui_'
'trivial_'
'tractor_'
'township_'
'tel_'
'tease_'
'suicidal_'
'strawberries_'
'snitch_'
'screamed_'
'scratched_'
'roundabout_'
'ripping_'
'revolt_'
'resin_'
'researched_'
'recess_'
'reap_'
'quotes_'
'qualification_'
'qinghai_'
'proprietary_'
'promotes_'
'proceeding_'
'prevail_'
'poking_'
'openness_'
'nissan_'
'niche_'
'mythology_'
'millimeter_'
'luo_'
'lodged_'
'lobbying_'
'limp_'
'lanka_'
'lana_'
'ks_'
'ker_'
'itch_'
'ists_'
'invincible_'
'ina_'
'hypertension_'
'humiliating_'
'hr_'
'helm_'
'graduating_'
'geometry_'
'flourish_'
'fingernails_'
'extortion_'
'eun_'
'dwarf_'
'disrupted_'
'dispose_'
'diminished_'
'diane_'
'depart_'
'consolation_'
'confucianism_'
'concentrations_'
'coating_'
'clowns_'
'clicking_'
'cherish_'
'casing_'
'caroline_'
'cadillac_'
'bursting_'
'brightly_'
'breached_'
'behaving_'
'armstrong_'
'ancients_'
'airplanes_'
'agony_'
'admittedly_'
'acquaintance_'
'abduction_'
'abandoning_'
'whisky_'
'wellness_'
'weep_'
'warp_'
'vinegar_'
'uterus_'
'ultrasound_'
'translator_'
'toughest_'
'textbooks_'
'swiftly_'
'stranded_'
'stimulating_'
'starter_'
'staple_'
'standpoint_'
'sluggish_'
'slit_'
'signatures_'
'shines_'
'schedules_'
'resisting_'
'reductions_'
'recruits_'
'ranges_'
'quota_'
'quasi_'
'qatar_'
'purity_'
'pulp_'
'prudent_'
'presently_'
'poppy_'
'polling_'
'perceive_'
'penguins_'
'payback_'
'ov_'
'ously_'
'orphanage_'
'occurrence_'
'occupational_'
'nude_'
'noda_'
'nasdaq_'
'myseif_'
'mutations_'
'mourn_'
'motherfucking_'
'mohammed_'
'modification_'
'metric_'
'marxist_'
'marginal_'
'manpower_'
'luther_'
'longevity_'
'linkedin_'
'leonardo_'
'leon_'
'leftovers_'
'lama_'
'kirk_'
'josh_'
'ire_'
'ios_'
'intensely_'
'inspectors_'
'hugging_'
'hooks_'
'harrison_'
'gina_'
'genocide_'
'gateway_'
'gala_'
'fragrance_'
'fluent_'
'fa_'
'exporter_'
'exploited_'
'expired_'
'energies_'
'earnest_'
'drones_'
'disturbance_'
'disciplines_'
'diligence_'
'detectors_'
'derek_'
'densely_'
'defy_'
'debut_'
'daring_'
'dads_'
'creeping_'
'correspondence_'
'collectors_'
'cctv_'
'cardinal_'
'cancellation_'
'caliber_'
'brigade_'
'breaker_'
'bradley_'
'atm_'
'arresting_'
'antarctica_'
'alliances_'
'aides_'
'adrenaline_'
'administer_'
'adaptation_'
'acupuncture_'
'69_'
'. ?_'
'wrapping_'
'willy_'
'waffle_'
'vanish_'
'tripped_'
'tina_'
'thanking_'
'superhero_'
'successes_'
'stevens_'
'stalker_'
'shen_'
'saliva_'
'requesting_'
'rents_'
'recipes_'
'realism_'
'prosecute_'
'physiology_'
'performs_'
'pedal_'
'pear_'
'paula_'
'paramedics_'
'overthrow_'
'overdue_'
'orphans_'
'ofthe_'
'numbered_'
'motto_'
'mongolian_'
'manuscript_'
'longing_'
'lois_'
'legged_'
'leash_'
'kingdoms_'
'homeowners_'
'heist_'
'grudge_'
'fuckin_'
'froze_'
'frown_'
'frontal_'
'frames_'
'favoured_'
'fats_'
'explosions_'
'educate_'
'drained_'
'distorted_'
'disregard_'
'dementia_'
'deceive_'
'connecticut_'
'comprehend_'
'colder_'
'coconut_'
'clutch_'
'cite_'
'ceremonies_'
'bs_'
'bruising_'
'brandon_'
'bottled_'
'bluffing_'
'baths_'
'awaiting_'
'attendance_'
'assemble_'
'aspirations_'
'ascension_'
'aquatic_'
'apparatus_'
'analogy_'
'aesthetics_'
'ae_'
'aapl_'
'360_'
'1979_'
'125_'
' , ,,_'
'wuhan_'
'worldly_'
'weakening_'
'voter_'
'victorian_'
'urgency_'
'upload_'
'unfinished_'
'ua_'
'tuberculosis_'
'tongues_'
'timeline_'
'thames_'
'texting_'
'teller_'
'surged_'
'supervisors_'
'storing_'
'statute_'
'stains_'
'sorting_'
'softly_'
'sociology_'
'similarities_'
'sewage_'
'scanned_'
'rotating_'
'respecting_'
'repaired_'
'reforming_'
'recipients_'
'rabbi_'
'punching_'
'presume_'
'practise_'
'plum_'
'plainly_'
'pillar_'
'piles_'
'pies_'
'persuasive_'
'perpetual_'
'patriotism_'
'paradigm_'
'paddy_'
'oversee_'
'outsider_'
'oid_'
'offline_'
'murdering_'
'monroe_'
'monastery_'
'misguided_'
'marsh_'
'lorenzo_'
'lookout_'
'lang_'
'labeled_'
'jiangsu_'
'internship_'
'influencing_'
'inconvenience_'
'imagery_'
'iconic_'
'hoover_'
'hamburger_'
'guatemala_'
'groupon_'
'granite_'
'forgiving_'
'footing_'
'flatter_'
'firearms_'
'fetus_'
'feeble_'
'exempt_'
'enrolled_'
'emphasize_'
'elusive_'
'elimination_'
'elevation_'
'edged_'
'declaring_'
'cubs_'
'cruelty_'
'craig_'
'covert_'
'cosmetics_'
'concludes_'
'commentators_'
'coca_'
'chefs_'
'cheering_'
'chalk_'
'chad_'
'ceased_'
'cant_'
'bristol_'
'bourbon_'
'bipolar_'
'benefited_'
'balancing_'
'awe_'
'arose_'
'analytical_'
'amazingly_'
'acne_'
'wretched_'
'weeping_'
'waterfall_'
'warmed_'
'vincent_'
'venues_'
'vacant_'
'unlucky_'
'tte_'
'tolerant_'
'tilt_'
'tiles_'
'tidal_'
'tat_'
'stirred_'
'spleen_'
'spartacus_'
'sow_'
'softer_'
'slows_'
'slopes_'
'sigh_'
'sew_'
'serbia_'
'santiago_'
'rotting_'
'resisted_'
'residual_'
'reinforcements_'
'refrain_'
'rebuilt_'
'probes_'
'plots_'
'piling_'
'perish_'
'pedestrian_'
'palms_'
'nutritional_'
'nikki_'
'nightclub_'
'nicole_'
'newer_'
'narrator_'
'mortar_'
'misconduct_'
'metabolic_'
'maya_'
'macroeconomic_'
'louise_'
'logged_'
'lighten_'
'liberties_'
'lax_'
'kilometres_'
'kazakhstan_'
'jennifer_'
'invoice_'
'inefficient_'
'indoors_'
'illustrate_'
'hyun_'
'humility_'
'housekeeper_'
'hou_'
'hdtv_'
'gong_'
'fright_'
'fret_'
'foremost_'
'foreigner_'
'flashes_'
'exhibits_'
'evacuated_'
'eighteen_'
'dy_'
'doubted_'
'diabetic_'
'developmental_'
'deposition_'
'departed_'
'defining_'
'decency_'
'dame_'
'coordinated_'
'cooled_'
'constructive_'
'connotation_'
'conform_'
'commanding_'
'chu_'
'cervical_'
'cadres_'
'buds_'
'breeds_'
'bombers_'
'bernie_'
'believers_'
'beaver_'
'assumes_'
'akin_'
'africans_'
'acquiring_'
'accusation_'
'accessory_'
'abc_'
'96_'
'94_'
'87_'
' " : _'
'zimbabwe_'
'xiang_'
'wyoming_'
'wits_'
'whores_'
'voluntarily_'
'violet_'
'vastly_'
'ure_'
'upwards_'
'unreliable_'
'uneasy_'
'underway_'
'tunes_'
'tucked_'
'triggers_'
'toaster_'
'timetable_'
'thigh_'
'tenant_'
'tad_'
'taco_'
'superpower_'
'sullivan_'
'suction_'
'submission_'
'stockholm_'
'stargate_'
'stained_'
'spree_'
'slug_'
'sliding_'
'sideways_'
'semiconductor_'
'scrape_'
'sceptical_'
'sage_'
'rift_'
'rhyme_'
'query_'
'psychopath_'
'procurement_'
'printers_'
'prestige_'
'preserving_'
'playboy_'
'plastics_'
'paved_'
'onboard_'
'noodle_'
'nano_'
'mute_'
'mushroom_'
'muscular_'
'muffin_'
'mosquitoes_'
'mick_'
'mic_'
'medicinal_'
'masculine_'
'marilyn_'
'maniac_'
'lobe_'
'lightweight_'
'lice_'
'lengths_'
'jeffrey_'
'invites_'
'invasive_'
'invade_'
'insomnia_'
'insiders_'
'incumbent_'
'imperative_'
'hysterical_'
'hydraulic_'
'humiliate_'
'hubei_'
'holly_'
'hemorrhage_'
'handler_'
'hamburg_'
'hailed_'
'frogs_'
'fragment_'
'flipping_'
'fest_'
'faked_'
'exporting_'
'eventual_'
'evans_'
'eugene_'
'embryos_'
'eleanor_'
'duplicate_'
'duchess_'
'dublin_'
'distressed_'
'dispatched_'
'disable_'
'differentiation_'
'devised_'
'defaults_'
'dec_'
'dakota_'
'cyclical_'
'crosses_'
'cripple_'
'crater_'
'crashes_'
'corrupted_'
'copying_'
'contraction_'
'competitions_'
'comedian_'
'coding_'
'cigars_'
'chun_'
'chinatown_'
'casinos_'
'carving_'
'carrot_'
'capita_'
'cao_'
'burton_'
'bunk_'
'boredom_'
'attacker_'
'arteries_'
'anyways_'
'agreeing_'
'advancement_'
'admirable_'
' … _'
' ) . _'
'youths_'
'wrench_'
'windshield_'
'warranty_'
'voltage_'
'thaksin_'
'tenants_'
'tackling_'
'supermarkets_'
'suburb_'
'stumble_'
'stoned_'
'staircase_'
'spears_'
'soybean_'
'solemn_'
'smelling_'
'sheikh_'
'scumbag_'
'roar_'
'rivalry_'
'rita_'
'richmond_'
'rewarding_'
'restroom_'
'restoring_'
'regulating_'
'rails_'
'professionally_'
'prisons_'
'prettier_'
'postcard_'
'platinum_'
'pike_'
'pickle_'
'pens_'
'penetration_'
'patron_'
'participant_'
'oval_'
'oo_'
'onstage_'
'northeastern_'
'myriad_'
'missouri_'
'midwest_'
'mckinsey_'
'masterpiece_'
'maple_'
'majors_'
'lever_'
'latte_'
'lakers_'
'informant_'
'incurred_'
'incorrect_'
'incompetent_'
'humour_'
'homosexual_'
'hometown_'
'guru_'
'guido_'
'grabs_'
'glaciers_'
'genesis_'
'garcia_'
'fuller_'
'frighten_'
'forbes_'
'flats_'
'filmed_'
'favored_'
'fallout_'
'excel_'
'enacted_'
'eccentric_'
'earrings_'
'dynamite_'
'drafted_'
'dorothy_'
'disco_'
'disciplined_'
'directing_'
'dictatorship_'
'diapers_'
'diagram_'
'determines_'
'detecting_'
'denounced_'
'deliveries_'
'deflation_'
'decorations_'
'curfew_'
'cube_'
'crib_'
'corporal_'
'comparatively_'
'co2_'
'cleaners_'
'citi_'
'ci_'
'cho_'
'chilly_'
'chilled_'
'chap_'
'ceramic_'
'carrots_'
'butts_'
'butterflies_'
'bugger_'
'boutique_'
'bled_'
'belle_'
'beck_'
'barney_'
'barge_'
'auntie_'
'asean_'
'archive_'
'acre_'
'abort_'
'93_'
' 。_'
' ? -_'
' %_'
'wifi_'
'wed_'
'wand_'
'volcanoes_'
'virginity_'
'vibration_'
'verified_'
'veil_'
'underestimated_'
'unconventional_'
'unclean_'
'timothy_'
'temp_'
'teammates_'
'supplying_'
'suing_'
'subsidiaries_'
'spooked_'
'spam_'
'serpent_'
'sept_'
'seismic_'
'segments_'
'retiring_'
'retaliation_'
'renovation_'
'recycled_'
'rebuilding_'
'realizes_'
'rag_'
'quinn_'
'quarterback_'
'puff_'
'profitability_'
'prizes_'
'prepares_'
'poultry_'
'pillowtop_'
'pcs_'
'patches_'
'parish_'
'paranoia_'
'pajamas_'
'orlando_'
'orchid_'
'ock_'
'nile_'
'neurological_'
'morris_'
'mating_'
'maternity_'
'lofty_'
'lle_'
'lithium_'
'liberated_'
'knocks_'
'kane_'
'jintao_'
'itunes_'
'indifferent_'
'incidence_'
'genre_'
'gan_'
'frankenstein_'
'flint_'
'fletcher_'
'flashlight_'
'fines_'
'feat_'
'espionage_'
'entrepreneurship_'
'enforced_'
'empathy_'
'elegance_'
'dysfunction_'
'donuts_'
'dissolve_'
'disciplinary_'
'descended_'
'dalai_'
'cushion_'
'crook_'
'consistency_'
'confiscated_'
'commonwealth_'
'coffeemaker_'
'coated_'
'claws_'
'civilizations_'
'childish_'
'chic_'
'buckle_'
'brook_'
'bourgeois_'
'bloggers_'
'blasted_'
'bitcoin_'
'biblical_'
'beams_'
'bali_'
'bahrain_'
'ary_'
'aroused_'
'anhui_'
'aloud_'
'advises_'
'accomplishment_'
'1985_'
'1950s_'
' , " " _'
'xin_'
'weibo_'
'vigorously_'
'unwanted_'
'twentieth_'
'tories_'
'toid_'
'theorists_'
'tame_'
'taboo_'
'swaps_'
'surpluses_'
'squat_'
'spun_'
'sniff_'
'smokers_'
'slips_'
'slammed_'
'showcase_'
'saturn_'
'sarcasm_'
'samurai_'
'reproduce_'
'rangers_'
'predecessors_'
'possesses_'
'phillips_'
'paycheck_'
'pavement_'
'patty_'
'pandemic_'
'onsite_'
'omega_'
'oct_'
'nuisance_'
'node_'
'ninja_'
'nineteen_'
'nicest_'
'needy_'
'nam_'
'multitude_'
'mp_'
'mentality_'
'mar_'
'malls_'
'malcolm_'
'majestic_'
'mailed_'
'logy_'
'kyoto_'
'joan_'
'innovate_'
'infirmary_'
'ical_'
'hypocrite_'
'hull_'
'hardship_'
'happiest_'
'hanged_'
'handset_'
'gorges_'
'gestures_'
'ged_'
'gallons_'
'fore_'
'fling_'
'fishes_'
'felix_'
'exercising_'
'exceeded_'
'encounters_'
'eldest_'
'dove_'
'distracting_'
'dissent_'
'dietary_'
'desks_'
'descend_'
'defines_'
'defenders_'
'daytime_'
'conventions_'
'contradictions_'
'contagion_'
'consciously_'
'composer_'
'combustion_'
'cologne_'
'coaching_'
'clinics_'
'cling_'
'christine_'
'chloride_'
'charms_'
'catalogue_'
'carve_'
'buster_'
'burner_'
'bumps_'
'bruised_'
'britons_'
'brewing_'
'brett_'
'brady_'
'bookstore_'
'bonded_'
'bei_'
'beforehand_'
'bam_'
'asap_'
'apt_'
'antarctic_'
'ankles_'
'anesthesia_'
'amnesty_'
'alumni_'
'affluent_'
'acquainted_'
'acceleration_'
'74_'
' ? ?_'
'yielded_'
'xian_'
'whoo_'
'whiff_'
'welcomes_'
'victories_'
'utmost_'
'tread_'
'thinkers_'
'sylvia_'
'summarized_'
'subscribers_'
'stunned_'
'strategist_'
'stephanie_'
'stamped_'
'staggering_'
'squash_'
'sponge_'
'speculators_'
'specialize_'
'sophia_'
'soften_'
'skype_'
'sina_'
'shaanxi_'
'sculptures_'
'scratching_'
'robberies_'
'roam_'
'rhode_'
'restrain_'
'responsive_'
'relics_'
'recognizing_'
'quiz_'
'prevailing_'
'preoccupied_'
'pep_'
'parrot_'
'paints_'
'overboard_'
'ordinance_'
'onset_'
'obsessive_'
'noticing_'
'militant_'
'mayer_'
'marco_'
'lingering_'
'knit_'
'joshua_'
'jessica_'
'jess_'
'ium_'
'irs_'
'insure_'
'hypothetical_'
'hypnosis_'
'hurdles_'
'hes_'
'hepatitis_'
'hazards_'
'graveyard_'
'graffiti_'
'giris_'
'geese_'
'gays_'
'fuckers_'
'flea_'
'fetal_'
'faggot_'
'enlightened_'
'ellie_'
'dwelling_'
'dusk_'
'dividing_'
'differentiate_'
'destroys_'
'daunting_'
'cub_'
'crackdown_'
'crabs_'
'corridors_'
'constellation_'
'conditioner_'
'cohen_'
'burt_'
'bursts_'
'burke_'
'burglary_'
'budapest_'
'brokerage_'
'brethren_'
'bounds_'
'bouncing_'
'bosnia_'
'bon_'
'battling_'
'avenge_'
'authentication_'
'assistants_'
'aneurysm_'
'aluminium_'
'alibaba_'
'accountants_'
'absorbing_'
'30th_'
'23rd_'
'03_'
' ... " _'
' ' ? _'
' '
'zedong_'
'youthful_'
'willingly_'
'wartime_'
'walt_'
'visas_'
'violently_'
'velvet_'
'varies_'
'usd_'
'turbulence_'
'turbines_'
'turbine_'
'superiors_'
'stinking_'
'spitting_'
'speculate_'
'sketches_'
'sincerity_'
'sierra_'
'sharon_'
'sewer_'
'seduce_'
'secretive_'
'scalp_'
'rods_'
'riley_'
'revelations_'
'renewal_'
'reluctance_'
'rein_'
'projection_'
'princes_'
'preacher_'
'portraits_'
'platoon_'
'pigeons_'
'physicist_'
'pedro_'
'pathology_'
'obsolete_'
'notions_'
'nodes_'
'nasal_'
'napkin_'
'moth_'
'morals_'
'modernity_'
'miguel_'
'mer_'
'medic_'
'martini_'
'linguistics_'
'liberals_'
'leopard_'
'lei_'
'lantern_'
'kuwait_'
'kitten_'
'inventor_'
'indications_'
'impressions_'
'implying_'
'ignition_'
'hive_'
'histories_'
'hires_'
'havoc_'
'hassan_'
'haley_'
'glamorous_'
'galileo_'
'gadgets_'
'functionality_'
'fluctuations_'
'flap_'
'firepower_'
'fiery_'
'extravagant_'
'expire_'
'endowment_'
'eli_'
'eden_'
'douche_'
'disneyland_'
'digits_'
'dexter_'
'devon_'
'decorate_'
'crooked_'
'crocodile_'
'cradle_'
'corpses_'
'consist_'
'conformity_'
'condemn_'
'collects_'
'coded_'
'chien_'
'cally_'
'calif_'
'calculating_'
'braces_'
'bono_'
'blindness_'
'blindly_'
'biologists_'
'bicycles_'
'bai_'
'ashore_'
'ase_'
'arnold_'
'appropriately_'
'apprentice_'
'algorithms_'
'airways_'
'agitated_'
'abruptly_'
'92_'
'25th_'
' % ) _'
'zinc_'
'wreckage_'
'witty_'
'wikipedia_'
'whereby_'
'ware_'
'unthinkable_'
'unmanned_'
'underworld_'
'unauthorized_'
'transmitter_'
'titan_'
'tit_'
'tis_'
'teresa_'
'tempt_'
'temperate_'
'tate_'
'surging_'
'suppression_'
'steamed_'
'squeezing_'
'sprint_'
'slate_'
'slashed_'
'sinister_'
'shek_'
'sequences_'
'sediment_'
'schizophrenia_'
'rover_'
'robbie_'
'retard_'
'retaining_'
'reg_'
'receptor_'
'raging_'
'quotas_'
'queer_'
'quaint_'
'politely_'
'physicians_'
'personalized_'
'peaches_'
'payoff_'
'passwords_'
'oysters_'
'nigel_'
'newman_'
'nes_'
'nausea_'
'naomi_'
'mustache_'
'mozart_'
'milton_'
'microscopic_'
'manly_'
'logging_'
'locke_'
'lockdown_'
'leukemia_'
'learner_'
'joyful_'
'joins_'
'jobless_'
'italians_'
'invitations_'
'intestinal_'
'insurers_'
'inserted_'
'inconsistent_'
'impulsive_'
'immature_'
'imitation_'
'iife_'
'highways_'
'harmed_'
'grinding_'
'gloria_'
'gardening_'
'friedman_'
'francs_'
'foreman_'
'folly_'
'flirt_'
'fda_'
'famed_'
'extracting_'
'exclude_'
'erupted_'
'enriched_'
'ecstasy_'
'eater_'
'doo_'
'displaced_'
'discouraged_'
'descriptions_'
'curry_'
'coolest_'
'convoy_'
'constitutes_'
'cone_'
'cinnamon_'
'chunks_'
'capturing_'
'calorie_'
'bu_'
'blanks_'
'bathrobe_'
'backgrounds_'
'bach_'
'babysitting_'
'auditing_'
'attain_'
'artificially_'
'arabs_'
'appealed_'
'adventurous_'
'abby_'
'1945_'
'yielding_'
'wrecked_'
'wisely_'
'wiring_'
'winters_'
'volleyball_'
'unsustainable_'
'unchanged_'
'tying_'
'treadmill_'
'thugs_'
'technicians_'
'tallest_'
'sync_'
'swat_'
'suu_'
'succeeds_'
'sterile_'
'startups_'
'stalk_'
'stainless_'
'spikes_'
'soils_'
'soar_'
'slides_'
'simultaneous_'
'shui_'
'shocks_'
'shang_'
'scheduling_'
'safest_'
'runaway_'
'roommates_'
'reopen_'
'relativity_'
'reactive_'
'raj_'
'raids_'
'prophecy_'
'preaching_'
'postponed_'
'pornography_'
'poolside_'
'polly_'
'pleaded_'
'perceptions_'
'onal_'
'ole_'
'nypd_'
'numb_'
'nk_'
'nepal_'
'multinationals_'
'mu_'
'moss_'
'monte_'
'migrate_'
'mediocre_'
'manor_'
'manipulating_'
'lows_'
'lodging_'
'liz_'
'literal_'
'liberalisation_'
'laboratories_'
'jewel_'
'jakarta_'
'iodine_'
'inflicted_'
'hum_'
'hookers_'
'heap_'
'hardened_'
'hangover_'
'gymnastics_'
'graph_'
'ght_'
'frigging_'
'friendships_'
'font_'
'flourishing_'
'flavour_'
'fellowship_'
'fascist_'
'extensively_'
'expands_'
'exert_'
'endlessly_'
'employing_'
'ely_'
'drawers_'
'dialect_'
'dalian_'
'contend_'
'colon_'
'cod_'
'choked_'
'centrally_'
'cedar_'
'bun_'
'bulbs_'
'browse_'
'brow_'
'broom_'
'bronx_'
'bodily_'
'bloodstream_'
'blacked_'
'bender_'
'beep_'
'banged_'
'ated_'
'apes_'
'amends_'
'alps_'
'advocated_'
'advising_'
'administrators_'
'ab_'
'97_'
'450_'
'4000_'
'1981_'
' ? ? ?_'
'zombies_'
'zeus_'
'wiser_'
'weasel_'
'weakest_'
'watchers_'
'vista_'
'uphold_'
'unbearable_'
'tyre_'
'turtles_'
'turnout_'
'tricked_'
'toothpaste_'
'theatrical_'
'tabloid_'
'swimmer_'
'supervise_'
'stitches_'
'sticker_'
'sterling_'
'steals_'
'statutory_'
'staging_'
'spouses_'
'spirited_'
'solitude_'
'ser_'
'rwanda_'
'rex_'
'repaid_'
'recalling_'
'rapist_'
'problematic_'
'preview_'
'populist_'
'plentiful_'
'planetary_'
'pissing_'
'pierced_'
'pesticides_'
'pesticide_'
'persistence_'
'peck_'
'pearls_'
'partying_'
'pageant_'
'overdose_'
'odor_'
'obstruction_'
'nintendo_'
'nic_'
'neutron_'
'narrowly_'
'nagging_'
'morocco_'
'montreal_'
'monsoon_'
'mexicans_'
'metallic_'
'melon_'
'maximize_'
'maths_'
'masked_'
'malicious_'
'landscapes_'
'kgb_'
'katherine_'
'joys_'
'istanbul_'
'issuance_'
'irresistible_'
'invaders_'
'interventions_'
'intermediate_'
'inquiries_'
'incense_'
'hurried_'
'hog_'
'heartless_'
'hammond_'
'guangxi_'
'grilled_'
'giri_'
'ghana_'
'frequencies_'
'frat_'
'foe_'
'fin_'
'fei_'
'factions_'
'everest_'
'essays_'
'endured_'
'endurance_'
'emerges_'
'emergencies_'
'elliot_'
'elevators_'
'disruptive_'
'disconnect_'
'disadvantages_'
'dimon_'
'digestion_'
'cutter_'
'cucumber_'
'creations_'
'craving_'
'crate_'
'complement_'
'cognition_'
'cody_'
'carrie_'
'carcinoma_'
'campaigning_'
'blaze_'
'blames_'
'births_'
'bedside_'
'bailey_'
'anyhow_'
'aided_'
'adjustable_'
'accumulate_'
'abdullah_'
'1975_'
'08_'
' £ _'
'watering_'
'vermont_'
'vacations_'
'utilize_'
'urbanization_'
'tucker_'
'triggering_'
'tombs_'
'titled_'
'threads_'
'thinki_'
'tendencies_'
'temperament_'
'tally_'
'sweetness_'
'sweetest_'
'sustaining_'
'survives_'
'supervisory_'
'stuffing_'
'strung_'
'stein_'
'stacked_'
'spices_'
'skins_'
'skates_'
'sighted_'
'shoved_'
'shortcomings_'
'shameless_'
'sha_'
'seedling_'
'sacked_'
'sac_'
'riverside_'
'respectful_'
'repairing_'
'reid_'
'regiment_'
'randall_'
'qualitative_'
'qingdao_'
'psychiatry_'
'protesting_'
'prosper_'
'poo_'
'plumber_'
'planners_'
'pitcher_'
'photographic_'
'perennial_'
'pepsi_'
'peggy_'
'paw_'
'parasites_'
'noting_'
'notification_'
'netflix_'
'municipality_'
'multimedia_'
'mule_'
'merged_'
'mend_'
'melanie_'
'manslaughter_'
'lurking_'
'lori_'
'lopez_'
'levy_'
'lenovo_'
'launches_'
'kyi_'
'kettle_'
'jiabao_'
'jeez_'
'isaac_'
'ira_'
'inmate_'
'injections_'
'improper_'
'ics_'
'hump_'
'horribly_'
'hijacked_'
'hesitation_'
'handbag_'
'grooming_'
'grievances_'
'grenades_'
'grad_'
'fronts_'
'frederick_'
'flushed_'
'fleeting_'
'flank_'
'flagship_'
'finnish_'
'finite_'
'fascination_'
'examines_'
'everlasting_'
'ev_'
'espresso_'
'errands_'
'erect_'
'equations_'
'enhancement_'
'emphasizes_'
'embryo_'
'eel_'
'edison_'
'eagles_'
'drugged_'
'dresser_'
'doubles_'
'dopamine_'
'displaying_'
'dishwasher_'
'directive_'
'deposited_'
'delaware_'
'definitions_'
'curved_'
'cubic_'
'conquest_'
'congregation_'
'conglomerate_'
'compassionate_'
'comparisons_'
'commons_'
'cocktails_'
'clot_'
'clears_'
'classy_'
'chung_'
'cheapest_'
'cavalry_'
'catholics_'
'brutally_'
'brighton_'
'brew_'
'bolster_'
'boarded_'
'blazing_'
'barred_'
'badges_'
'backlash_'
'automation_'
'arising_'
'86_'
'70s_'
'60s_'
'1970_'
' “ _'
'zion_'
'www_'
'waved_'
'warehouses_'
'wallace_'
'valleys_'
'vaguely_'
'unpaid_'
'unlocked_'
'undertaken_'
'ulcer_'
'uganda_'
'turnaround_'
'trunks_'
'thyroid_'
'theaters_'
'tara_'
'tangled_'
'taik_'
'surrendered_'
'stellar_'
'starvation_'
'sneakers_'
'skinned_'
'singles_'
'shady_'
'scroll_'
'scrambling_'
'scarlet_'
'sasha_'
'sane_'
'rugged_'
'rogers_'
'roadside_'
'ria_'
'resemblance_'
'reliant_'
'refrigerators_'
'reassuring_'
'protestant_'
'progression_'
'priceless_'
'pitt_'
'pilgrims_'
'picasso_'
'philly_'
'peterson_'
'petals_'
'passions_'
'partisan_'
'parting_'
'outof_'
'osborne_'
'orbiting_'
'opted_'
'oasis_'
'nova_'
'nipples_'
'nash_'
'mutant_'
'motherland_'
'moose_'
'menus_'
'menace_'
'mandela_'
'mam_'
'magnesium_'
'magistrate_'
'macao_'
'listener_'
'kobe_'
'katrina_'
'jumper_'
'julian_'
'ivan_'
'inventories_'
'intersect_'
'internally_'
'insurgents_'
'inflows_'
'infect_'
'indirectly_'
'importing_'
'ians_'
'humane_'
'hostess_'
'hooking_'
'highs_'
'hefty_'
'hast_'
'harvesting_'
'gwen_'
'guan_'
'godfather_'
'glands_'
'gem_'
'garments_'
'gadhafi_'
'fragrant_'
'foil_'
'focal_'
'floated_'
'ferguson_'
'fencing_'
'favourable_'
'eyewitness_'
'extraordinarily_'
'exploding_'
'evenly_'
'evasion_'
'etiquette_'
'establishes_'
'epa_'
'entrenched_'
'emperors_'
'eise_'
'duly_'
'drake_'
'distributing_'
'disconnected_'
'devils_'
'deter_'
'deepening_'
'cruz_'
'comprehension_'
'choreography_'
'capitals_'
'bugging_'
'briefed_'
'bonnie_'
'bleak_'
'beginnings_'
'baron_'
'banners_'
'astronomical_'
'anomalies_'
'animated_'
'alphabet_'
'aligned_'
'alarmed_'
'adrian_'
'adhere_'
'? ? ? _'
'1987_'
'1969_'
'05_'
'.- _'
' . !_'
'zurich_'
'zheng_'
'za_'
'yeast_'
'winston_'
'wheeler_'
'visibility_'
'vip_'
'vince_'
'upbeat_'
'untouched_'
'unmarried_'
'typhoon_'
'turnover_'
'tu_'
'tive_'
'terminate_'
'tedious_'
'technician_'
'teamwork_'
'summon_'
'strife_'
'stacy_'
'spokesperson_'
'sherry_'
'settlers_'
'seaside_'
'saturated_'
'robotic_'
'robes_'
'roberts_'
'ries_'
'riders_'
'reversal_'
'resembling_'
'repression_'
'replicate_'
'reminding_'
'regained_'
'redeem_'
'raided_'
'pu_'
'propelled_'
'plight_'
'pits_'
'pipelines_'
'philippine_'
'periphery_'
'penetrated_'
'pea_'
'passages_'
'parcel_'
'overwhelmingly_'
'ottoman_'
'omelet_'
'niagara_'
'nebraska_'
'monarchy_'
'missus_'
'meta_'
'memorize_'
'manure_'
'manifestation_'
'lunches_'
'luis_'
'lla_'
'linger_'
'lineup_'
'linen_'
'licenses_'
'kenny_'
'jaws_'
'jacques_'
'intimidating_'
'inquire_'
'initiation_'
'inflationary_'
'indicted_'
'imperialism_'
'imperfect_'
'imbalance_'
'hillside_'
'hash_'
'hallucinations_'
'greenland_'
'germination_'
'galleries_'
'freedoms_'
'fractured_'
'flung_'
'fluffy_'
'flora_'
'felon_'
'facto_'
'exceptionally_'
'evergreen_'
'escapes_'
'ene_'
'endorse_'
'dumps_'
'downside_'
'downfall_'
'distortion_'
'dishonest_'
'disgust_'
'dipped_'
'diligent_'
'desperation_'
'defendants_'
'dealings_'
'culprit_'
'crawled_'
'crave_'
'cracker_'
'counterfeit_'
'correlated_'
'converting_'
'contracting_'
'consolidate_'
'compatibility_'
'colossal_'
'collaborative_'
'coastline_'
'coaster_'
'circling_'
'chilling_'
'celestial_'
'cardboard_'
'captivity_'
'bulgaria_'
'bruise_'
'bravery_'
'boating_'
'bloodshed_'
'biofuels_'
'beethoven_'
'balances_'
'backdrop_'
'ave_'
'atop_'
'aol_'
'amp_'
'affiliated_'
'40s_'
'30s_'
' , ._'
'zer_'
'zeal_'
'withdrew_'
'whispered_'
'wha_'
'werewolf_'
'vitality_'
'val_'
'uv_'
'unrealistic_'
'undervalued_'
'undermining_'
'underage_'
'ultraviolet_'
'turks_'
'tumbled_'
'torturing_'
'tly_'
'timed_'
'thug_'
'thorn_'
'template_'
'tariff_'
'sunflower_'
'stud_'
'stipulated_'
'stating_'
'standby_'
'squares_'
'sprayed_'
'sparsely_'
'sparks_'
'soothing_'
'sniffing_'
'sly_'
'signaling_'
'shrunk_'
'sheng_'
'settles_'
'setback_'
'separates_'
'sensed_'
'sealing_'
'saline_'
'rica_'
'resilient_'
'rehearse_'
'reacting_'
'quid_'
'puzzles_'
'pupil_'
'pronounce_'
'prevalent_'
'precaution_'
'populous_'
'plotting_'
'pledges_'
'playful_'
'planner_'
'phoebe_'
'petersburg_'
'pencils_'
'parkway_'
'pans_'
'overload_'
'outdated_'
'opener_'
'opaque_'
'ome_'
'nsa_'
'nearer_'
'myocardial_'
'mph_'
'mosquito_'
'moist_'
'missionary_'
'milwaukee_'
'longtime_'
'limitation_'
'lesions_'
'lavish_'
'kurdish_'
'karate_'
'juliet_'
'judiciary_'
'jolly_'
'johns_'
'jogging_'
'jetted_'
'jackets_'
'isabel_'
'intimidate_'
'insensitive_'
'inflated_'
'indebted_'
'implanted_'
'immoral_'
'hussein_'
'hound_'
'hobbies_'
'hayes_'
'halted_'
'gregory_'
'gmail_'
'glen_'
'ges_'
'freshwater_'
'frenzy_'
'franz_'
'foxconn_'
'folders_'
'flick_'
'flavors_'
'fireman_'
'fined_'
'finale_'
'favours_'
'fainted_'
'ery_'
'enforcing_'
'endorsement_'
'endorsed_'
'enact_'
'eliza_'
'diversified_'
'disagreement_'
'dis_'
'descent_'
'deported_'
'defenses_'
'decorative_'
'dana_'
'consequently_'
'concierge_'
'col_'
'clyde_'
'carts_'
'capitalists_'
'buns_'
'brute_'
'breathtaking_'
'boundless_'
'boiler_'
'bodyguards_'
'blouse_'
'blossoms_'
'blogger_'
'blackstone_'
'biscuit_'
'biologist_'
'biking_'
'bidder_'
'beetle_'
'basel_'
'aura_'
'atrium_'
'astronomy_'
'asians_'
'arson_'
'arises_'
'arid_'
'archer_'
'apologise_'
'americas_'
'alfred_'
'aide_'
'accomplishments_'
'abusive_'
'3g_'
'28th_'
'1984_'
'zodiac_'
'yue_'
'yn_'
'yearbook_'
'wraps_'
'workings_'
'wn_'
'westerners_'
'waterfront_'
'voodoo_'
'voicemail_'
'unleashed_'
'uniquely_'
'tycoon_'
'turd_'
'tripping_'
'transplantation_'
'traitors_'
'toad_'
'thereafter_'
'thankfully_'
'swam_'
'suicides_'
'steaks_'
'statistically_'
'stalling_'
'specifies_'
'snooping_'
'snapshot_'
'smug_'
'sanitation_'
'sandra_'
'sacrificing_'
'retention_'
'rejects_'
'reel_'
'recon_'
'rallied_'
'puzzled_'
'provocative_'
'protested_'
'proportions_'
'premiums_'
'plaque_'
'pineapple_'
'pests_'
'oecd_'
'novelty_'
'nonprofit_'
'ngo_'
'negligence_'
'necks_'
'nba_'
'mystical_'
'municipalities_'
'meticulous_'
'mayo_'
'manageable_'
'lush_'
'loo_'
'loaf_'
'liaison_'
'lettuce_'
'ledger_'
'lapse_'
'kuomintang_'
'ketchup_'
'jog_'
'inward_'
'humorous_'
'hiya_'
'gorilla_'
'gore_'
'germs_'
'gag_'
'fulfil_'
'forgets_'
'fisheries_'
'firefox_'
'fiercely_'
'fiddle_'
'feminist_'
'fearless_'
'eyeballs_'
'exercised_'
'eureka_'
'errand_'
'erotic_'
'entrusted_'
'elves_'
'ellis_'
'elites_'
'eaters_'
'dumplings_'
'dolly_'
'dissolved_'
'dispersed_'
'disperse_'
'denominated_'
'deceived_'
'debating_'
'debated_'
'dams_'
'curves_'
'culinary_'
'crumbling_'
'courageous_'
'cornell_'
'conjunction_'
'compliments_'
'claw_'
'cisco_'
'calculus_'
'calamity_'
'burying_'
'bosom_'
'blueprint_'
'bhp_'
'bella_'
'backseat_'
'analytics_'
'allocated_'
'alleviate_'
'ailing_'
'adequately_'
'adaptive_'
'adamant_'
'acrylic_'
'abrupt_'
'abbas_'
'06_'
' ” _'
'yup_'
'yellowstone_'
'yankee_'
'xia_'
'withholding_'
'willie_'
'washer_'
'walmart_'
'volunteering_'
'unsuccessful_'
'unidentified_'
'ukrainian_'
'ubiquitous_'
'tyres_'
'tracy_'
'tonic_'
'tofu_'
'thighs_'
'thatcher_'
'terminals_'
'tb_'
'tanker_'
'syringe_'
'swapped_'
'supervised_'
'stride_'
'stepfather_'
'startled_'
'sprung_'
'spilling_'
'softball_'
'skipping_'
'simulated_'
'sid_'
'shutdown_'
'scientifically_'
'scarcity_'
'rugby_'
'rotary_'
'ronnie_'
'roma_'
'roasted_'
'revolutions_'
'rehearsing_'
'reflex_'
'refining_'
'recite_'
'radically_'
'quoting_'
'provoking_'
'processors_'
'prescriptions_'
'prairie_'
'practitioners_'
'portrayed_'
'plump_'
'pitching_'
'phoned_'
'phases_'
'periodic_'
'pathological_'
'pastry_'
'paige_'
'pads_'
'oppression_'
'oddly_'
'obedience_'
'newcomers_'
'neal_'
'nay_'
'nauseous_'
'mischief_'
'miner_'
'microbes_'
'messrs_'
'mermaid_'
'melancholy_'
'meddling_'
'marvel_'
'marshals_'
'manifesto_'
'madman_'
'lunchtime_'
'lizard_'
'lib_'
'legion_'
'lebanese_'
'latitude_'
'lace_'
'jill_'
'jewellery_'
'jeopardize_'
'jang_'
'iooking_'
'inventions_'
'intrigued_'
'intensified_'
'inspections_'
'ingenious_'
'influx_'
'infamous_'
'illicit_'
'hybrids_'
'humphrey_'
'hovering_'
'horrific_'
'holler_'
'hispanic_'
'herald_'
'henderson_'
'hearings_'
'haste_'
'guerrilla_'
'grumpy_'
'gh_'
'gerald_'
'geniuses_'
'garfield_'
'gardener_'
'gangsters_'
'furry_'
'fraternity_'
'formulated_'
'footed_'
'flattering_'
'fernando_'
'fares_'
'extremes_'
'exported_'
'exploiting_'
'examinations_'
'erected_'
'enron_'
'elastic_'
'edmund_'
'ecuador_'
'dung_'
'doubtful_'
'dodd_'
'distractions_'
'digestive_'
'detonate_'
'delightfully_'
'deepen_'
'decree_'
'dante_'
'curl_'
'convergence_'
'condolences_'
'concede_'
'complementary_'
'combinations_'
'collapsing_'
'chemotherapy_'
'cardio_'
'captures_'
'calmly_'
'burglar_'
'borough_'
'bn_'
'blurred_'
'bloated_'
'bistro_'
'birthdays_'
'bates_'
'bart_'
'bandit_'
'backbone_'
'authorize_'
'attackers_'
'apologizing_'
'apocalypse_'
'antitrust_'
'anterior_'
'andre_'
'albums_'
'advertise_'
'adolescent_'
'admiring_'
'adept_'
'accessed_'
'aa_'
'90s_'
'1982_'
'1960_'
'wikileaks_'
'widening_'
'westminster_'
'weighted_'
'wedge_'
'weaving_'
'weave_'
'vomiting_'
'uruguay_'
'unseen_'
'turbulent_'
'tung_'
'tracing_'
'timid_'
'themed_'
'terminated_'
'tack_'
'surname_'
'suisse_'
'sudanese_'
'strangle_'
'stabilized_'
'spurred_'
'specimens_'
'snatch_'
'slots_'
'skyline_'
'skirts_'
'skeletons_'
'saleh_'
'royce_'
'roster_'
'rom_'
'riddle_'
'rescuing_'
'reptiles_'
'reich_'
'reformation_'
'punks_'
'protector_'
'promotions_'
'prohibition_'
'pollutants_'
'pla_'
'pillars_'
'pest_'
'perkins_'
'perfected_'
'penthouse_'
'paulo_'
'patrols_'
'patriot_'
'pathway_'
'parameter_'
'paradox_'
'parachute_'
'packard_'
'octopus_'
'nurture_'
'nucleus_'
'novelist_'
'noticeable_'
'nicotine_'
'newcastle_'
'nesting_'
'neatly_'
'mundane_'
'motions_'
'modesty_'
'mis_'
'minneapolis_'
'mil_'
'mentioning_'
'mediation_'
'materialism_'
'martyr_'
'markings_'
'loosely_'
'leisurely_'
'lasers_'
'knots_'
'jian_'
'jailed_'
'islamabad_'
'iranians_'
'investigative_'
'intuitive_'
'interval_'
'ini_'
'inherently_'
'inducing_'
'humidity_'
'hearty_'
'handsets_'
'hamptons_'
'granting_'
'gorge_'
'flowering_'
'firewall_'
'expresses_'
'eta_'
'ens_'
'emit_'
'embryonic_'
'dormant_'
'divert_'
'distributor_'
'dismal_'
'dictate_'
'deterioration_'
'deserts_'
'delegate_'
'curly_'
'criterion_'
'crest_'
'creeps_'
'creditor_'
'crafted_'
'crackers_'
'coworkers_'
'cowboys_'
'copycat_'
'contingent_'
'continents_'
'connor_'
'conceptual_'
'conceded_'
'commercials_'
'comets_'
'collapses_'
'collaborate_'
'cockpit_'
'claude_'
'clamp_'
'checkout_'
'cartoons_'
'carmakers_'
'caretaker_'
'buzzing_'
'burg_'
'broadcasts_'
'brennan_'
'bradshaw_'
'biodiversity_'
'biased_'
'banished_'
'auditorium_'
'audi_'
'ance_'
'amateurs_'
'alignment_'
'alicia_'
'acoustic_'
'ach_'
'1949_'
' - " _'
'zoom_'
'wrinkles_'
'wrestle_'
'worsening_'
'whitney_'
'volvo_'
'vitals_'
'upgrading_'
'unnoticed_'
'underwent_'
'unavailable_'
'ture_'
'tumble_'
'trustworthy_'
'tranquil_'
'tramp_'
'tipping_'
'til_'
'tides_'
'tailored_'
'taiking_'
'suppressed_'
'stint_'
'ster_'
'staples_'
'standardized_'
'squid_'
'specifics_'
'soaking_'
'sheraton_'
'sharper_'
'seminars_'
'seekers_'
'seawater_'
'seasoned_'
'scooter_'
'sarcastic_'
'rupert_'
'rudy_'
'rowing_'
'rooster_'
'rite_'
'reynolds_'
'revived_'
'residency_'
'relocate_'
'regina_'
'refresh_'
'reformed_'
'redundant_'
'recycle_'
'readiness_'
'rationality_'
'radicals_'
'quentin_'
'purification_'
'pry_'
'prowess_'
'portfolios_'
'plc_'
'perp_'
'pennies_'
'peng_'
'parted_'
'oranges_'
'omaha_'
'nip_'
'neon_'
'morphology_'
'manila_'
'lionel_'
'liars_'
'lenin_'
'legislators_'
'knitting_'
'klaus_'
'justification_'
'joel_'
'jie_'
'intestines_'
'interrogate_'
'imitate_'
'ikea_'
'hwy_'
'hubble_'
'hing_'
'hinder_'
'heightened_'
'headphones_'
'groove_'
'gordo_'
'goin_'
'gavin_'
'furnace_'
'fossils_'
'flyers_'
'fluorescent_'
'flex_'
'fists_'
'fishy_'
'fictional_'
'fermentation_'
'exhibitions_'
'exemption_'
'ethic_'
'eth_'
'estimation_'
'estates_'
'enlarged_'
'ence_'
'earns_'
'dungeon_'
'dosage_'
'dork_'
'distinctly_'
'dissidents_'
'diagnose_'
'crossroads_'
'courier_'
'compulsive_'
'climax_'
'circulating_'
'circulated_'
'chewed_'
'cheerleaders_'
'cheaply_'
'carpets_'
'carlo_'
'caravan_'
'bragging_'
'bitterly_'
'bennett_'
'belarus_'
'barren_'
'bandits_'
'baltic_'
'aww_'
'awakening_'
'aurora_'
'arranging_'
'armored_'
'archaeological_'
'anticipation_'
'advisors_'
'zoe_'
'wonderfully_'
'warhead_'
'vogue_'
'virtuous_'
'vi_'
'ux_'
'uptight_'
'tx_'
'twisting_'
'tumour_'
'trumpet_'
'trespassing_'
'travellers_'
'transitional_'
'touring_'
'titanium_'
'tickle_'
'thrilling_'
'texted_'
'telescopes_'
'tata_'
'surrounds_'
'sundays_'
'summarizes_'
'subscribe_'
'subordinate_'
'strand_'
'stale_'
'sprawling_'
'specializes_'
'sox_'
'soviets_'
'sitter_'
'singular_'
'silently_'
'shin_'
'seedlings_'
'scripture_'
'sanity_'
'safari_'
'sabbath_'
'rouge_'
'restrictive_'
'responds_'
'replacements_'
'reefs_'
'receptors_'
'qian_'
'pronunciation_'
'primates_'
'presses_'
'pottery_'
'plugged_'
'piggy_'
'photographers_'
'perverse_'
'periodically_'
'peep_'
'peaked_'
'payday_'
'parasite_'
'pablo_'
'notoriously_'
'notices_'
'nationalists_'
'natalie_'
'multiply_'
'moons_'
'momma_'
'mindset_'
'merciful_'
'mentions_'
'mecca_'
'marketers_'
'maneuver_'
'mamma_'
'mahmoud_'
'madoff_'
'listeners_'
'licking_'
'lavender_'
'lastly_'
'knicks_'
'kashmir_'
'jamaica_'
'irritating_'
'interviewer_'
'interfering_'
'insurer_'
'insulation_'
'indictment_'
'immortality_'
'illusions_'
'ignores_'
'iceberg_'
'horrors_'
'highland_'
'herein_'
'heilongjiang_'
'hare_'
'hardwired_'
'harassing_'
'handicapped_'
'guardians_'
'greasy_'
'gotham_'
'goo_'
'glenn_'
'glamour_'
'ghetto_'
'georgetown_'
'fungi_'
'frying_'
'fortified_'
'flawless_'
'fared_'
'expounds_'
'expiration_'
'erratic_'
'envoy_'
'electrodes_'
'echoes_'
'draghi_'
'downhill_'
'dom_'
'docking_'
'divers_'
'din_'
'dew_'
'demonstrating_'
'delusion_'
'deduction_'
'dedicate_'
'dearest_'
'cycling_'
'contingency_'
'consulted_'
'consolidated_'
'conflicting_'
'complicate_'
'companions_'
'cautioned_'
'caterpillar_'
'casually_'
'burmese_'
'bryce_'
'britney_'
'bridal_'
'branding_'
'bombings_'
'blueberry_'
'blogging_'
'blizzard_'
'bathe_'
'bash_'
'barefoot_'
'backers_'
'assessing_'
'ascend_'
'arrivals_'
'armour_'
'ani_'
'andrews_'
'amused_'
'agreeable_'
'22nd_'
'1968_'
'1967_'
'$ _'
' , ” _'
'zhuang_'
'zhi_'
'yugoslavia_'
'xie_'
'ws_'
'widen_'
'wallets_'
'vouch_'
'url_'
'upstream_'
'unsure_'
'undermined_'
'transporting_'
'torso_'
'tong_'
'thru_'
'textiles_'
'testifying_'
'techs_'
'tagged_'
'sy_'
'swung_'
'switches_'
'superstition_'
'submerged_'
'stimulated_'
'stickers_'
'steward_'
'stakeholders_'
'stairwell_'
'specimen_'
'southwestern_'
'smuggle_'
'slender_'
'sleeves_'
'sinners_'
'simulate_'
'shooters_'
'shone_'
'shawn_'
'shakes_'
'seventeen_'
'sedative_'
'sectarian_'
'routines_'
'rotate_'
'roaming_'
'rewrite_'
'rendering_'
'rejecting_'
'reflective_'
'reconnaissance_'
'reconcile_'
'pyramids_'
'punitive_'
'pundits_'
'puncture_'
'promotional_'
'procedural_'
'predicament_'
'ponder_'
'poe_'
'pluck_'
'piled_'
'picturesque_'
'peed_'
'patricia_'
'pagan_'
'paddle_'
'packaged_'
'oyster_'
'outnumbered_'
'ordination_'
'ordeal_'
'numerical_'
'niggers_'
'ney_'
'naoto_'
'moderation_'
'mimic_'
'millionaires_'
'microwaves_'
'megan_'
'marion_'
'lynn_'
'legit_'
'laundromat_'
'lau_'
'lai_'
'invaluable_'
'intestine_'
'institutes_'
'industrialization_'
'incision_'
'impending_'
'hugs_'
'hugo_'
'hopkins_'
'helmets_'
'hector_'
'gothic_'
'gems_'
'gambler_'
'fonts_'
'finishes_'
'fertilization_'
'femoral_'
'fangs_'
'fabrication_'
'eyesight_'
'extremists_'
'extensions_'
'eruption_'
'ensured_'
'emerald_'
'embodies_'
'embodied_'
'elbows_'
'ec_'
'earthly_'
'dubious_'
'dissertation_'
'discounted_'
'discarded_'
'dharma_'
'dewey_'
'derive_'
'democracies_'
'decor_'
'debbie_'
'dazzling_'
'darcy_'
'customary_'
'cupboard_'
'crowned_'
'crescent_'
'cot_'
'corrected_'
'cooperating_'
'cooks_'
'contentious_'
'confucius_'
'compromises_'
'compression_'
'communion_'
'commissions_'
'comics_'
'collectively_'
'coherent_'
'cloning_'
'classmate_'
'cholera_'
'chimney_'
'cheered_'
'che_'
'challenger_'
'chained_'
'celebrates_'
'casualty_'
'casket_'
'capped_'
'burdens_'
'brilliance_'
'brag_'
'blush_'
'blinded_'
'bleach_'
'beatles_'
'beads_'
'baptized_'
'assisting_'
'arterial_'
'appendix_'
'anthropology_'
'anthem_'
'advocacy_'
'adapter_'
'acknowledges_'
'abound_'
'ably_'
'aang_'
'1983_'
'1978_'
' : ' _'
' ) : _'
'yank_'
'xing_'
'woven_'
'whacked_'
'vw_'
'vin_'
'villains_'
'vegan_'
'valuations_'
'upheaval_'
'upgrades_'
'unload_'
'tweets_'
'troublesome_'
'trainers_'
'tracker_'
'termination_'
'tentative_'
'tart_'
'supermodel_'
'striving_'
'straits_'
'stocking_'
'spiked_'
'spat_'
'soluble_'
'sneaky_'
'smelly_'
'smashing_'
'smallpox_'
'slogans_'
'siberian_'
'shun_'
'sexes_'
'seth_'
'setbacks_'
'selves_'
'seduced_'
'scratches_'
'rosy_'
'rooftop_'
'resilience_'
'reluctantly_'
'rejoice_'
'recreate_'
'rallies_'
'rainforest_'
'rabies_'
'quits_'
'puberty_'
'prosecuted_'
'posh_'
'plagued_'
'placebo_'
'pioneers_'
'peril_'
'penicillin_'
'peas_'
'parlor_'
'pancake_'
'oy_'
'overlap_'
'overcoming_'
'optimum_'
'nuke_'
'notebooks_'
'nia_'
'newsletter_'
'negotiator_'
'mountainous_'
'misplaced_'
'michel_'
'mellow_'
'maw_'
'mailing_'
'luxembourg_'
'looting_'
'leaned_'
'lawful_'
'kg_'
'keller_'
'kangaroo_'
'jules_'
'jockey_'
'jacked_'
'ization_'
'injecting_'
'indices_'
'ieft_'
'hype_'
'housewives_'
'housekeeping_'
'hormonal_'
'hopping_'
'homosexuality_'
'heterosexual_'
'hangar_'
'handbook_'
'hamid_'
'gutter_'
'gruesome_'
'grande_'
'gotcha_'
'glued_'
'gilbert_'
'gardner_'
'furnishings_'
'fragmented_'
'forging_'
'fixation_'
'fingertips_'
'filters_'
'ferocious_'
'feb_'
'fasten_'
'fabrics_'
'eyeball_'
'exhaustion_'
'exhausting_'
'ette_'
'enrich_'
'endeavor_'
'edith_'
'edited_'
'earths_'
'dwellers_'
'downloading_'
'downgraded_'
'dormitory_'
'dixon_'
'diverted_'
'disgruntled_'
'directional_'
'digs_'
'dickens_'
'detonator_'
'deprivation_'
'depended_'
'demolition_'
'deli_'
'defiance_'
'decomposition_'
'dai_'
'curative_'
'cues_'
'cruiser_'
'creators_'
'contradictory_'
'contests_'
'conspicuous_'
'confirming_'
'confinement_'
'cliffs_'
'classrooms_'
'clap_'
'charcoal_'
'championships_'
'cater_'
'cashier_'
'casey_'
'carpenter_'
'carnegie_'
'caii_'
'cai_'
'bullied_'
'brightness_'
'branson_'
'boycott_'
'boob_'
'beckham_'
'bans_'
'autistic_'
'assessments_'
'arouse_'
'arabian_'
'apron_'
'ante_'
'align_'
'aiding_'
'adversary_'
'activation_'
'6000_'
'1972_'
'é_'
'yearning_'
'wrongdoing_'
'wormhole_'
'workshops_'
'whew_'
'wager_'
'voiced_'
'vineyard_'
'versatile_'
'versa_'
'utilizing_'
'untie_'
'unsafe_'
'unnatural_'
'und_'
'trustee_'
'trinity_'
'tightened_'
'thicker_'
'therein_'
'testified_'
'tesla_'
'terrestrial_'
'tepco_'
'tee_'
'tanning_'
'tailed_'
'suzhou_'
'starboard_'
'standoff_'
'stacks_'
'spectators_'
'somali_'
'smokes_'
'showtime_'
'shootings_'
'separatist_'
'sensational_'
'seizing_'
'schooi_'
'scaled_'
'sacramento_'
'rhino_'
'resurrection_'
'remedies_'
'regression_'
'refinery_'
'receptionist_'
'quotation_'
'qu_'
'py_'
'props_'
'proclaimed_'
'pricey_'
'premiere_'
'pow_'
'portions_'
'plutonium_'
'pigment_'
'picky_'
'parkinson_'
'ozawa_'
'oughta_'
'osaka_'
'organise_'
'orchard_'
'orbital_'
'oprah_'
'ood_'
'oily_'
'murderous_'
'mugabe_'
'motivate_'
'mocking_'
'miraculous_'
'militias_'
'mascot_'
'manually_'
'lymph_'
'lotion_'
'literacy_'
'ledge_'
'leasing_'
'laced_'
'kits_'
'kinetic_'
'jae_'
'ius_'
'itching_'
'involuntary_'
'invading_'
'interpersonal_'
'intellect_'
'intangible_'
'innate_'
'infinity_'
'infested_'
'iittle_'
'ifyou_'
'ht_'
'hoop_'
'herds_'
'helium_'
'havana_'
'hatched_'
'hardy_'
'handicap_'
'grin_'
'glitch_'
'gaius_'
'gadget_'
'funky_'
'forums_'
'filtering_'
'expires_'
'epilepsy_'
'enlisted_'
'electrode_'
'echoed_'
'eased_'
'drifted_'
'disposed_'
'discontent_'
'disagreements_'
'diminish_'
'derivative_'
'dea_'
'criticizing_'
'contestant_'
'constrained_'
'confronting_'
'confessor_'
'compressed_'
'complication_'
'complains_'
'compel_'
'chopping_'
'childbirth_'
'cheung_'
'checkpoints_'
'cds_'
'capsules_'
'canine_'
'camouflage_'
'cages_'
'budding_'
'browsing_'
'breadth_'
'benevolent_'
'bandwidth_'
'auxiliary_'
'aug_'
'auctions_'
'attendees_'
'applaud_'
'apiece_'
'altering_'
'algebra_'
'airspace_'
'adapting_'
'acquaintances_'
'abstinence_'
'abiding_'
'29th_'
'1974_'
'1971_'
' \u _'
'zipper_'
'withdrawing_'
'wiping_'
'watermelon_'
'warsaw_'
'walsh_'
'visionary_'
'vinyl_'
'vinci_'
'victorious_'
'vested_'
'valiant_'
'unequal_'
'undone_'
'tzu_'
'tyrant_'
'tug_'
'touchy_'
'toil_'
'ther_'
'teasing_'
'tavern_'
'tackled_'
'swarm_'
'stupidity_'
'stressing_'
'stockings_'
'stature_'
'stats_'
'stationary_'
'stashed_'
'starch_'
'stalls_'
'stagnation_'
'spurs_'
'spontaneously_'
'speculated_'
'spank_'
'somethin_'
'slices_'
'slew_'
'simulations_'
'shrubs_'
'sexist_'
'sermon_'
'secretion_'
'secretaries_'
'scripts_'
'scramble_'
'sci_'
'scented_'
'scatter_'
'saith_'
'rv_'
'ru_'
'roaring_'
'rn_'
'rightful_'
'reversing_'
'revered_'
'resumed_'
'restrained_'
'removes_'
'reminiscent_'
'reins_'
'reclaim_'
'rand_'
'rained_'
'rafael_'
'quirky_'
'psyche_'
'professions_'
'policing_'
'podium_'
'pinky_'
'piercing_'
'photosynthesis_'
'philanthropy_'
'peyton_'
'persuasion_'
'peppers_'
'pediatric_'
'pathogen_'
'panoramic_'
'painfully_'
'overrated_'
'outbreaks_'
'organizers_'
'org_'
'obedient_'
'nigerian_'
'negotiable_'
'nag_'
'msft_'
'meteorological_'
'meredith_'
'membranes_'
'mastery_'
'mastered_'
'martyrs_'
'manhood_'
'mango_'
'madagascar_'
'leveraged_'
'leslie_'
'knowledgeable_'
'kandahar_'
'julius_'
'javascript_'
'jams_'
'ized_'
'ities_'
'islamists_'
'invoices_'
'intrusion_'
'intruder_'
'intricate_'
'instrumental_'
'inorganic_'
'injunction_'
'initiating_'
'initials_'
'infarction_'
'illustration_'
'identifies_'
'huntington_'
'html_'
'hospitalized_'
'horseback_'
'hewlett_'
'hepatic_'
'hemingway_'
'heidi_'
'hastings_'
'hastily_'
'handshake_'
'hammered_'
'gunman_'
'gunfire_'
'guizhou_'
'grasping_'
'gibson_'
'geeks_'
'gansu_'
'gamers_'
'futile_'
'framing_'
'folklore_'
'flashy_'
'filth_'
'expressway_'
'explorers_'
'exceeds_'
'exceeding_'
'exaggerate_'
'evils_'
'esther_'
'essentials_'
'endanger_'
'emitting_'
'eminent_'
'elf_'
'duel_'
'dripping_'
'drains_'
'doyou_'
'doughnut_'
'doris_'
'donnie_'
'donating_'
'dominion_'
'dominic_'
'discovers_'
'dignified_'
'dicks_'
'detour_'
'detached_'
'delusional_'
'decorating_'
'cosmos_'
'consisting_'
'consisted_'
'conceive_'
'coloring_'
'clashes_'
'charismatic_'
'centralized_'
'centimeters_'
'ceasefire_'
'calvin_'
'busiest_'
'bowls_'
'bong_'
'binoculars_'
'binge_'
'bermuda_'
'benghazi_'
'beneficiaries_'
'beetles_'
'becky_'
'baskets_'
'basal_'
'bain_'
'awaited_'
'avert_'
'aversion_'
'attentive_'
'astray_'
'assassinated_'
'arsenic_'
'archbishop_'
'arcade_'
'appliance_'
'appalling_'
'apex_'
'apartheid_'
'announces_'
'anguish_'
'analysing_'
'alerted_'
'advertised_'
'achilles_'
'academia_'
'240_'
'20000_'
' , - _'
'wronged_'
'wiii_'
'wenzhou_'
'wasteful_'
'waltz_'
'versailles_'
'uphill_'
'unfold_'
'undergone_'
'typewriter_'
'tweet_'
'trophies_'
'treasuries_'
'translating_'
'translates_'
'transient_'
'thinker_'
'thickness_'
'tch_'
'tarp_'
'swimsuit_'
'sweeter_'
'sulfur_'
'subscriptions_'
'stripping_'
'strangest_'
'stockmarket_'
'stigma_'
'specialised_'
'sophistication_'
'sol_'
'snore_'
'snatched_'
'smuggled_'
'slum_'
'sloane_'
'shuffle_'
'shredded_'
'sheds_'
'shameful_'
'sham_'
'shah_'
'scotty_'
'salvador_'
'rosemary_'
'richie_'
'ric_'
'revolutionaries_'
'revisit_'
'renault_'
'remainder_'
'relish_'
'referee_'
'ration_'
'rags_'
'raccoon_'
'provisional_'
'proponents_'
'prevalence_'
'prevailed_'
'pioneering_'
'pinpoint_'
'pines_'
'philips_'
'pessimistic_'
'persona_'
'penn_'
'paypal_'
'pathways_'
'pandas_'
'overreacting_'
'otis_'
'oslo_'
'orient_'
'opec_'
'occupying_'
'oakland_'
'nothin_'
'nostalgia_'
'nightly_'
'nestled_'
'natives_'
'morrison_'
'monarch_'
'modules_'
'mocked_'
'microbial_'
'mg_'
'mash_'
'mas_'
'manned_'
'mandated_'
'malignant_'
'lorraine_'
'lola_'
'limousine_'
'latino_'
'lasagna_'
'lam_'
'kittens_'
'kathy_'
'jia_'
'jackpot_'
'iraqis_'
'insurgency_'
'innovators_'
'individuality_'
'incompetence_'
'iet_'
'icons_'
'ich_'
'hurricanes_'
'humid_'
'hopper_'
'hoops_'
'holiness_'
'holed_'
'highlighting_'
'haunting_'
'harriet_'
'harbin_'
'grazing_'
'gran_'
'goggles_'
'gears_'
'garrison_'
'fran_'
'forfeit_'
'flourished_'
'flaming_'
'fishery_'
'fiona_'
'finch_'
'filial_'
'fiji_'
'fifa_'
'fag_'
'exxon_'
'extracts_'
'experimentation_'
'expenditures_'
'excesses_'
'ernie_'
'environmentalists_'
'entertained_'
'enrichment_'
'englishman_'
'doughnuts_'
'dos_'
'distrust_'
'discretionary_'
'dipping_'
'deteriorating_'
'dependency_'
'delaying_'
'definitive_'
'defeating_'
'dee_'
'dashed_'
'cylons_'
'cutie_'
'cultured_'
'ctu_'
'critique_'
'contradict_'
'consul_'
'clicks_'
'chops_'
'chimpanzees_'
'charleston_'
'cellphones_'
'carte_'
'campuses_'
'cambodian_'
'budge_'
'broaden_'
'bolted_'
'bollocks_'
'bolivia_'
'boasting_'
'bloc_'
'blinds_'
'blasts_'
'blanche_'
'bert_'
'bearded_'
'barricade_'
'auspicious_'
'ascending_'
'antiques_'
'antibiotic_'
'alexandria_'
'aired_'
'agile_'
'afar_'
'acquitted_'
'@ _'
'50000_'
' ? $ _'
'y0u_'
'wrongly_'
'wii_'
'wick_'
'whitman_'
'vocals_'
'vile_'
'ves_'
'vc_'
'usher_'
'unnamed_'
'unfit_'
'tux_'
'truthful_'
'tinker_'
'tiffany_'
'thomson_'
'thk_'
'therapies_'
't0_'
'suckers_'
'straightened_'
'storey_'
'stench_'
'startling_'
'specialties_'
'specials_'
'sonic_'
'shu_'
'shaolin_'
'severity_'
'sever_'
'sentencing_'
'saxon_'
'savannah_'
'sausages_'
'sails_'
'rumored_'
'rosie_'
'rodent_'
'rites_'
'rink_'
'rican_'
'revision_'
'reunited_'
'reunification_'
'retribution_'
'restraints_'
'renegade_'
'remarried_'
'reindeer_'
'recordings_'
'recessions_'
'raven_'
'rationally_'
'propulsion_'
'procession_'
'proceeded_'
'presentations_'
'pp_'
'potion_'
'plugs_'
'playoffs_'
'plaster_'
'paws_'
'overheating_'
'ousted_'
'ornamental_'
'ology_'
'nominee_'
'nineteenth_'
'nebula_'
'nationally_'
'nas_'
'mortals_'
'mobilize_'
'mixer_'
'misty_'
'millie_'
'midway_'
'menopause_'
'median_'
'martian_'
'mandy_'
'mai_'
'lorry_'
'lon_'
'livelihood_'
'lity_'
'leeds_'
'latvia_'
'larvae_'
'kidnapper_'
'joyce_'
'joker_'
'jihad_'
'jellyfish_'
'janet_'
'ize_'
'intruders_'
'interpretations_'
'intentional_'
'installations_'
'insignificant_'
'insecurity_'
'inhabited_'
'impulses_'
'implant_'
'illuminated_'
'ick_'
'hyde_'
'hq_'
'housed_'
'hongkong_'
'honduras_'
'hawks_'
'hassle_'
'harlem_'
'hao_'
'groundwater_'
'gibbs_'
'georgian_'
'geopolitical_'
'garth_'
'gals_'
'funerals_'
'fundraising_'
'fumes_'
'freelance_'
'fong_'
'firefighter_'
'fetched_'
'festive_'
'faction_'
'explodes_'
'existential_'
'exiled_'
'excessively_'
'estonia_'
'emptied_'
'elliptical_'
'edgy_'
'ecosystems_'
'duo_'
'dpj_'
'downloads_'
'doth_'
'domino_'
'doctoral_'
'ditched_'
'distinguishing_'
'dialysis_'
'detonated_'
'derby_'
'debacle_'
'davos_'
'darfur_'
'daniels_'
'cyprus_'
'coughing_'
'correspond_'
'cork_'
'contributes_'
'contemplate_'
'constituents_'
'cloudy_'
'clara_'
'cic_'
'chute_'
'christina_'
'cheesy_'
'cc_'
'carbohydrates_'
'captains_'
'canopy_'
'cadre_'
'cache_'
'burgeoning_'
'buckets_'
'bracelets_'
'bowed_'
'bordeaux_'
'booby_'
'bondage_'
'bland_'
'bitching_'
'biochemical_'
'bilingual_'
'barbed_'
'baptist_'
'balkans_'
'bailing_'
'avoidance_'
'automakers_'
'authoritative_'
'attendants_'
'ating_'
'assessed_'
'assassins_'
'archaeologists_'
'apparel_'
'angered_'
'ancestral_'
'amuse_'
'ambiguous_'
'affinity_'
'adversity_'
'admirer_'
'addictive_'
'aches_'
'accessing_'
'abyss_'
'abs_'
'24th_'
'1973_'
'1947_'
'1200_'
'04_'
' . ! _'
'zes_'
'yorkshire_'
'xbox_'
'wink_'
'wield_'
'widows_'
'whim_'
'welsh_'
'weirdo_'
'violates_'
'vineyards_'
'vernon_'
'vaginal_'
'vaccination_'
'updating_'
'unused_'
'unresolved_'
'unorthodox_'
'unjust_'
'universally_'
'ung_'
'unfairly_'
'unesco_'
'unavoidable_'
'twain_'
'tummy_'
'tucson_'
'trickle_'
'treacherous_'
'tolerated_'
'toddler_'
'ters_'
'telly_'
'telephones_'
'tamil_'
'syphilis_'
'symmetrical_'
'swamped_'
'surpass_'
'stump_'
'stringent_'
'strategically_'
'staffed_'
'spotting_'
'speedy_'
'specs_'
'sod_'
'socket_'
'snapping_'
'smear_'
'slab_'
'skulls_'
'skepticism_'
'sinks_'
'simplify_'
'seriousness_'
'scrapped_'
'scraping_'
'scanners_'
'sandals_'
'sacks_'
'rumour_'
'robotics_'
'revoked_'
'resumes_'
'replica_'
'repercussions_'
'repent_'
'repayment_'
'reno_'
'reiterated_'
'reds_'
'rattle_'
'rascal_'
'pup_'
'protracted_'
'projector_'
'profiling_'
'productions_'
'probing_'
'proactive_'
'presumed_'
'preschool_'
'preferential_'
'praises_'
'pragmatism_'
'pouch_'
'pleading_'
'plaintiff_'
'pip_'
'phenomenal_'
'pew_'
'persecution_'
'perilous_'
'perfecting_'
'pegasus_'
'pedophile_'
'paired_'
'painters_'
'paces_'
'overrun_'
'observes_'
'obligated_'
'nodded_'
'ngos_'
'neuro_'
'nests_'
'negatively_'
'nashville_'
'myspace_'
'mutiny_'
'muammar_'
'mosaic_'
'mitigate_'
'minivan_'
'mileage_'
'mikey_'
'metaphors_'
'mayan_'
'massively_'
'mans_'
'manipulative_'
'mammoth_'
'malpractice_'
'mali_'
'lydia_'
'lumbar_'
'lula_'
'lonesome_'
'liter_'
'lis_'
'legions_'
'kenyan_'
'joyous_'
'journeys_'
'jonah_'
'janeiro_'
'itinerary_'
'interpreter_'
'interpol_'
'intercepted_'
'infringement_'
'indulgence_'
'indifference_'
'inadvertently_'
'immersed_'
'ically_'
'honorary_'
'holocaust_'
'hedging_'
'heathrow_'
'hardworking_'
'greenspan_'
'grassland_'
'goodies_'
'gladiator_'
'geared_'
'gamblers_'
'fraught_'
'frail_'
'fostering_'
'forrest_'
'foreplay_'
'fixes_'
'fidelity_'
'expectancy_'
'evelyn_'
'ets_'
'estrogen_'
'entice_'
'emulate_'
'emptiness_'
'embargo_'
'edwards_'
'dunes_'
'dues_'
'drastically_'
'downstream_'
'downright_'
'dont_'
'domination_'
'dmitry_'
'dizziness_'
'disliked_'
'disgusted_'
'discard_'
'disabilities_'
'diffusion_'
'destruct_'
'depleted_'
'deforestation_'
'cushions_'
'cum_'
'criticisms_'
'creed_'
'credited_'
'councils_'
'councilman_'
'corrosive_'
'continuity_'
'communal_'
'commonplace_'
'commercially_'
'commemorate_'
'colourful_'
'colombian_'
'coarse_'
'cincinnati_'
'chromatography_'
'chernobyl_'
'chauffeur_'
'cello_'
'caucasian_'
'cation_'
'catcher_'
'casts_'
'carmaker_'
'candid_'
'campaigners_'
'burgundy_'
'bumpy_'
'builder_'
'boils_'
'blockbuster_'
'blender_'
'blended_'
'bitterness_'
'bile_'
'benny_'
'belgrade_'
'bearings_'
'baton_'
'barley_'
'bahamas_'
'badass_'
'bacterium_'
'automobiles_'
'automaker_'
'authenticity_'
'appetizer_'
'anonymity_'
'amendments_'
'alpine_'
'agh_'
'afterlife_'
'afloat_'
'adultery_'
'accommodating_'
'abaxially_'
'a1_'
'1976_'
'1929_'
''_'
' . -_'
' " " _'
'zo_'
'wizards_'
'wherein_'
'watchdog_'
'warships_'
'wares_'
'vultures_'
'vp_'
'villas_'
'videotape_'
'vantage_'
'ust_'
'urn_'
'uo_'
'unruly_'
'underpants_'
'twitch_'
'tubs_'
'trout_'
'trenches_'
'tram_'
'trailing_'
'tonne_'
'thingy_'
'tencent_'
'televised_'
'taxis_'
'sunscreen_'
'successors_'
'strips_'
'stricter_'
'strasse_'
'strained_'
'stimulates_'
'stevie_'
'stadiums_'
'spatter_'
'sorrows_'
'snoring_'
'smallville_'
'skyscrapers_'
'skinner_'
'simmons_'
'shrinks_'
'sharpen_'
'sentiments_'
'sanchez_'
'rubbed_'
'routed_'
'rollaway_'
'respectfully_'
'resolving_'
'relic_'
'reconstruct_'
'rebellious_'
'reacts_'
'raced_'
'qiao_'
'punches_'
'psyched_'
'providence_'
'programmers_'
'possum_'
'poisons_'
'pioneered_'
'pessimism_'
'peruvian_'
'pertinent_'
'perjury_'
'pegged_'
'parallels_'
'pancreatic_'
'outweigh_'
'outraged_'
'otto_'
'orbits_'
'ola_'
'okinawa_'
'offences_'
'oceanic_'
'nutritious_'
'nuns_'
'nos_'
'naples_'
'monti_'
'misuse_'
'metrics_'
'merging_'
'medically_'
'mantra_'
'manning_'
'lyon_'
'lowly_'
'lingerie_'
'leung_'
'leakage_'
'lair_'
'knuckles_'
'knob_'
'kidnappers_'
'kerry_'
'kernel_'
'kenneth_'
'ked_'
'juvie_'
'japs_'
'jaguar_'
'interruption_'
'intensify_'
'insulated_'
'inspected_'
'inhabit_'
'inauguration_'
'improvise_'
'ial_'
'hugged_'
'htc_'
'hind_'
'hectares_'
'heavyweight_'
'haze_'
'harassed_'
'gums_'
'guinness_'
'grail_'
'geology_'
'geo_'
'galactic_'
'fudge_'
'forwards_'
'forgery_'
'foreseeable_'
'foliage_'
'floats_'
'fickle_'
'faire_'
'existent_'
'executing_'
'exchanging_'
'escalate_'
'erik_'
'erection_'
'entrances_'
'enlist_'
'engraved_'
'emirates_'
'ees_'
'dysfunctional_'
'draining_'
'downing_'
'downgrade_'
'doubtless_'
'donny_'
'divides_'
'discrepancy_'
'disadvantaged_'
'detergent_'
'destroyer_'
'deserving_'
'dandy_'
'damon_'
'cranky_'
'crank_'
'cowardly_'
'corrections_'
'conducive_'
'concession_'
'compromising_'
'collide_'
'cocky_'
'clockwork_'
'clinging_'
'cleanse_'
'classify_'
'citadel_'
'chronicle_'
'chromosome_'
'chipped_'
'chimps_'
'checkpoint_'
'celsius_'
'caste_'
'carla_'
'bullish_'
'budgetary_'
'brutality_'
'brody_'
'bravely_'
'bosnian_'
'booklet_'
'blueprints_'
'blockade_'
'blasting_'
'bezos_'
'begs_'
'basing_'
'basil_'
'babes_'
'avoids_'
'aroma_'
'announcements_'
'anchored_'
'anarchy_'
'alison_'
'alberta_'
'airway_'
'advent_'
'adolf_'
'abusing_'
'30000_'
'07_'
' . $ _'
'winged_'
'windy_'
'wilt_'
'whispers_'
'warmly_'
'walled_'
'viktor_'
'vigilant_'
'vector_'
'variant_'
'usly_'
'usable_'
'unofficial_'
'ungrateful_'
'unearthed_'
'unborn_'
'unanimous_'
'umm_'
'tuning_'
'triumphant_'
'trembling_'
'transcripts_'
'toxicity_'
'touted_'
'tinto_'
'tights_'
'thor_'
'terra_'
'tanzania_'
'symposium_'
'swallowing_'
'superstitious_'
'stinky_'
'stasis_'
'sq_'
'speciality_'
'socialists_'
'snot_'
'sneeze_'
'slumber_'
'slid_'
'sleepover_'
'slay_'
'simplest_'
'similarity_'
'shifu_'
'sheeting_'
'senor_'
'satin_'
'saab_'
'rupture_'
'rudd_'
'routing_'
'roofs_'
'ripper_'
'retains_'
'respiration_'
'resides_'
'reschedule_'
'rentals_'
'regretted_'
'rebalancing_'
'raiser_'
'pwc_'
'punishments_'
'pseudo_'
'prescribe_'
'powdered_'
'postmortem_'
'polio_'
'pilgrim_'
'pharmaceuticals_'
'pervasive_'
'paramount_'
'pao_'
'pakistanis_'
'overview_'
'overturned_'
'overtake_'
'outspoken_'
'outlaw_'
'orion_'
'openings_'
'obnoxious_'
'oblige_'
'nora_'
'nominees_'
'mugged_'
'moustache_'
'mourinho_'
'mound_'
'motorists_'
'moor_'
'monterey_'
'modelling_'
'mitzvah_'
'miscarriage_'
'minibar_'
'midfielder_'
'mercenaries_'
'medicaid_'
'marketed_'
'mapped_'
'manuel_'
'mania_'
'loathe_'
'lessen_'
'leaps_'
'laurie_'
'lags_'
'kraft_'
'judy_'
'jerks_'
'infusion_'
'infancy_'
'indicative_'
'inclusive_'
'inclusion_'
'inclination_'
'imperialist_'
'immensely_'
'ills_'
'ida_'
'hypothetically_'
'hydropower_'
'humming_'
'homer_'
'heath_'
'hawking_'
'hague_'
'habitats_'
'gunmen_'
'grimm_'
'grieve_'
'gravel_'
'graders_'
'gov_'
'gorbachev_'
'gale_'
'fundraiser_'
'frenchman_'
'freeing_'
'forwarding_'
'formalities_'
'formaldehyde_'
'forgave_'
'foreclosure_'
'foley_'
'fo_'
'flagged_'
'fitch_'
'fins_'
'fairies_'
'exorcism_'
'escalating_'
'entourage_'
'enormously_'
'enlarge_'
'endemic_'
'empress_'
'eds_'
'eagerly_'
'droid_'
'dissatisfaction_'
'digger_'
'diffuse_'
'depressive_'
'deficiencies_'
'decreases_'
'cures_'
'creams_'
'cowards_'
'countess_'
'counters_'
'countermeasure_'
'corny_'
'considerate_'
'condemnation_'
'comprise_'
'compose_'
'companionship_'
'commandments_'
'collisions_'
'clutter_'
'climatic_'
'cleanup_'
'chlorine_'
'chestnut_'
'cheater_'
'chanting_'
'cfo_'
'centred_'
'casings_'
'carton_'
'canister_'
'canceling_'
'camels_'
'bumping_'
'bulletproof_'
'buildup_'
'buff_'
'browsers_'
'brothel_'
'brittany_'
'boxers_'
'bows_'
'bottoms_'
'bot_'
'bossy_'
'boon_'
'blooms_'
'blooming_'
'bisexual_'
'bipartisan_'
'billionaires_'
'billboard_'
'bernstein_'
'benitez_'
'benefiting_'
'baxter_'
'baroque_'
'ballmer_'
'audrey_'
'atlas_'
'angrily_'
'ambushed_'
'airs_'
'ahmed_'
'acknowledging_'
'ack_'
'acclaimed_'
'abolished_'
'27th_'
'170_'
'105_'
' , ,_'
' % -_'
'zynga_'
'wont_'
'willow_'
'wharf_'
'volkswagen_'
'vigilante_'
'vibrations_'
'vera_'
'unheard_'
'tz_'
'twelfth_'
'turbo_'
'tournaments_'
'throats_'
'talkin_'
'taj_'
'surfaced_'
'suns_'
'sulphur_'
'suffice_'
'stun_'
'stormy_'
'stiii_'
'statistic_'
'spraying_'
'spook_'
'spoils_'
'spelled_'
'sparrow_'
'souvenirs_'
'snag_'
'simplified_'
'shreds_'
'seung_'
'selections_'
'sect_'
'secluded_'
'scraps_'
'scaling_'
'safeguards_'
'rodney_'
'rigging_'
'rhymes_'
'retro_'
'retrieval_'
'retreated_'
'relates_'
'regimen_'
'referenced_'
'reboot_'
'ravaged_'
'rattled_'
'ral_'
'radiant_'
'pubescent_'
'pt_'
'psychiatrists_'
'prolong_'
'programmer_'
'preventive_'
'practised_'
'potty_'
'portray_'
'pointer_'
'plato_'
'pinnacle_'
'persia_'
'perk_'
'pei_'
'peacock_'
'paused_'
'patiently_'
'partition_'
'ould_'
'optimized_'
'optimize_'
'onerous_'
'nurturing_'
'nook_'
'ningbo_'
'negotiators_'
'nascar_'
'nal_'
'mythical_'
'muster_'
'moratorium_'
'montgomery_'
'monstrous_'
'molten_'
'mojo_'
'moaning_'
'moan_'
'misunderstand_'
'ministries_'
'milligrams_'
'mikhail_'
'midget_'
'meng_'
'medallion_'
'meadow_'
'maxim_'
'maurice_'
'manic_'
'managerial_'
'mammal_'
'makeshift_'
'mainframe_'
'magically_'
'madonna_'
'madeleine_'
'mack_'
'lordship_'
'loosened_'
'logically_'
'lineage_'
'lifeline_'
'licences_'
'latent_'
'ku_'
'kneel_'
'kilos_'
'kiii_'
'junta_'
'judgmental_'
'jiangxi_'
'jell_'
'intimidation_'
'intervals_'
'indexes_'
'inconvenient_'
'icing_'
'hypocrisy_'
'hydro_'
'humanities_'
'hsin_'
'hs_'
'howdy_'
'hinted_'
'hikes_'
'hesitant_'
'henceforth_'
'heater_'
'hawaiian_'
'harvested_'
'hara_'
'hae_'
'gui_'
'grasped_'
'goofy_'
'ginseng_'
'gingrich_'
'ging_'
'geothermal_'
'galapagos_'
'fung_'
'francois_'
'foes_'
'fixture_'
'fend_'
'faraway_'
'fabricated_'
'extradition_'
'ese_'
'eroded_'
'endings_'
'empires_'
'elevate_'
'edie_'
'dwindling_'
'duh_'
'drawbacks_'
'drafting_'
'diversify_'
'distributors_'
'dismissal_'
'discriminate_'
'disarm_'
'devise_'
'desolate_'
'deputies_'
'depicted_'
'delights_'
'deficient_'
'defective_'
'decreasing_'
'decipher_'
'deceit_'
'cultivating_'
'crimson_'
'crafts_'
'cpr_'
'coop_'
'contested_'
'connectivity_'
'congenital_'
'collagen_'
'cloned_'
'clientele_'
'clicked_'
'clarke_'
'characterization_'
'chaps_'
'cautiously_'
'cashed_'
'canadians_'
'buick_'
'brisk_'
'brilliantly_'
'bridesmaid_'
'bribed_'
'brent_'
'breakthroughs_'
'bowels_'
'bolton_'
'bluetooth_'
'biomedical_'
'bins_'
'binary_'
'berger_'
'bends_'
'bel_'
'bearer_'
'avery_'
'attained_'
'ates_'
'assertion_'
'assange_'
'aspiration_'
'articulate_'
'arches_'
'anxieties_'
'ambient_'
'alternatively_'
'ahold_'
'aggravated_'
'affectionate_'
'advocating_'
'aching_'
'50s_'
'4400_'
'2500_'
'1962_'
'1957_'
'1950_'
'' _'
' ? ? _'
' ! ._'
'yun_'
'yorkers_'
'yoo_'
'yay_'
'yat_'
'wrongs_'
'whiz_'
'whatnot_'
'wallpaper_'
'wacky_'
'vents_'
'vans_'
'uploaded_'
'untrue_'
'unilateral_'
'underdog_'
'twists_'
'truman_'
'transmitting_'
'traffickers_'
'timers_'
'teeny_'
'tanya_'
'takers_'
'sympathize_'
'syd_'
'swearing_'
'surfer_'
'supernova_'
'substantive_'
'sturdy_'
'stung_'
'stronghold_'
'striped_'
'stitched_'
'stings_'
'steroid_'
'stepmother_'
'stat_'
'stagnant_'
'stables_'
'squirt_'
'spooky_'
'spawn_'
'spanning_'
'spanking_'
'sorority_'
'solves_'
'solicitor_'
'smugglers_'
'sleepless_'
'sissy_'
'sinclair_'
'sidney_'
'shred_'
'shrapnel_'
'shits_'
'savers_'
'sanctioned_'
'sal_'
'sahara_'
'rooney_'
'roadblocks_'
'ripples_'
'rhetorical_'
'repeats_'
'reinforcing_'
'regroup_'
'reflections_'
'recognizes_'
'rake_'
'rajoy_'
'quadrant_'
'punjab_'
'prohibit_'
'progressing_'
'professionalism_'
'prius_'
'predominantly_'
'pms_'
'piping_'
'penetrating_'
'pelvic_'
'ped_'
'pasture_'
'parsons_'
'paparazzi_'
'pang_'
'palaces_'
'packets_'
'overseeing_'
'outpost_'
'oswald_'
'orn_'
'optimists_'
'ominous_'
'ollie_'
'nordic_'
'nighttime_'
'nietzsche_'
'nicked_'
'neville_'
'mystic_'
'mysteriously_'
'muse_'
'muller_'
'mont_'
'monoxide_'
'miliband_'
'mildly_'
'meningitis_'
'matty_'
'mantle_'
'mannered_'
'magnets_'
'lymphoma_'
'lovable_'
'loops_'
'loom_'
'locating_'
'lite_'
'lima_'
'liberalism_'
'leveled_'
'lester_'
'lends_'
'leigh_'
'leagues_'
'lash_'
'langley_'
'kodak_'
'kitchens_'
'jamming_'
'itis_'
'itchy_'
'irritation_'
'intolerable_'
'inthe_'
'instruct_'
'inscription_'
'inputs_'
'inaccurate_'
'illiterate_'
'iest_'
'idiotic_'
'hy_'
'hwa_'
'humanistic_'
'hosni_'
'honoring_'
'hiro_'
'hippie_'
'hindi_'
'heroine_'
'herman_'
'have'
'harp_'
'gy_'
'growers_'
'golfing_'
'gloss_'
'glide_'
'geologists_'
'generously_'
'gaga_'
'fro_'
'frantic_'
'forsaken_'
'formations_'
'formality_'
'forks_'
'forecasters_'
'forbids_'
'folding_'
'flyer_'
'flair_'
'fb_'
'fanny_'
'falsely_'
'eyelids_'
'eyebrow_'
'exwife_'
'extremist_'
'extremism_'
'exposes_'
'escorted_'
'ert_'
'err_'
'equipments_'
'equator_'
'empowered_'
'embarked_'
'editions_'
'drugstore_'
'droughts_'
'drinkers_'
'doorman_'
'dominates_'
'domestically_'
'diversification_'
'dismantle_'
'diligently_'
'devour_'
'derail_'
'depicts_'
'demo_'
'delusions_'
'deferred_'
'deepwater_'
'declares_'
'cyclone_'
'cubicle_'
'crows_'
'cranes_'
'coveted_'
'counselors_'
'cosmopolitan_'
'comprises_'
'commented_'
'commencement_'
'cockroaches_'
'cockroach_'
'clones_'
'cleansing_'
'civilisation_'
'cites_'
'circled_'
'cider_'
'cher_'
'cheerleading_'
'chanel_'
'brushing_'
'boulder_'
'botched_'
'booster_'
'bling_'
'billing_'
'bigfoot_'
'believable_'
'beginners_'
'bea_'
'bashar_'
'baseline_'
'bangs_'
'babysit_'
'avenues_'
'auditor_'
'aromatic_'
'appreciates_'
'anton_'
'alto_'
'allowances_'
'allocate_'
'algeria_'
'adulthood_'
'accuses_'
'270_'
'2016_'
'zebra_'
'zardari_'
'your'
'yorker_'
'wrought_'
'wrecking_'
'wheeled_'
'waive_'
'wagner_'
'vaughn_'
'vapor_'
'valuables_'
'utilized_'
'unleash_'
'unlawful_'
'unhappiness_'
'unfaithful_'
'uneven_'
'uncles_'
'unattractive_'
'tutorial_'
'tropics_'
'trashed_'
'towering_'
'toppled_'
'throttle_'
'thorns_'
'teamed_'
'tacky_'
'tac_'
'syndicate_'
'suspense_'
'surrogate_'
'superintendent_'
'sugars_'
'submarines_'
'strengthens_'
'stanton_'
'standardization_'
'splits_'
'spheres_'
'spawned_'
'spaced_'
'sp_'
'sowing_'
'soothe_'
'slapping_'
'siren_'
'sipping_'
'sion_'
'simpson_'
'shirley_'
'shedding_'
'scant_'
'santos_'
'rupees_'
'roth_'
'rodeo_'
'riskier_'
'rev_'
'resembled_'
'rescuers_'
'reminders_'
'remarked_'
'reinvent_'
'reeling_'
'ranged_'
'quilt_'
'qualifying_'
'pushy_'
'progressed_'
'prognosis_'
'prized_'
'primate_'
'prettiest_'
'prematurely_'
'poly_'
'pods_'
'pizzas_'
'piety_'
'photocopy_'
'phosphate_'
'payouts_'
'pandora_'
'painless_'
'padded_'
'oxidation_'
'olympus_'
'oc_'
'necessities_'
'myung_'
'moods_'
'monuments_'
'monaco_'
'missy_'
'malaysian_'
'makeover_'
'maggots_'
'macedonia_'
'lumber_'
'looms_'
'loner_'
'liquids_'
'lighthouse_'
'lenny_'
'ldp_'
'layoffs_'
'lao_'
'knack_'
'kilo_'
'johannesburg_'
'jock_'
'jigsaw_'
'ith_'
'irreversible_'
'intra_'
'intimidated_'
'insides_'
'inhibit_'
'incremental_'
'imaginable_'
'hs'
'horizons_'
'hoarding_'
'hitched_'
'herpes_'
'heave_'
'hazy_'
'harley_'
'harass_'
'handkerchief_'
'hamburgers_'
'glare_'
'giraffe_'
'gerry_'
'funk_'
'freshen_'
'flowed_'
'floss_'
'finer_'
'finder_'
'filmmaker_'
'fifths_'
'extraterrestrials_'
'expressive_'
'exposures_'
'excused_'
'ernest_'
'encyclopedia_'
'enchanted_'
'dwarfs_'
'dracula_'
'doyle_'
'doorbell_'
'dominique_'
'domains_'
'disturbances_'
'disproportionately_'
'disorderly_'
'dialog_'
'dialing_'
'deviation_'
'despicable_'
'denny_'
'delicacy_'
'decks_'
'dammit_'
'cyrus_'
'cuz_'
'crotch_'
'croatia_'
'cove_'
'countrymen_'
'cornered_'
'convicts_'
'contrasts_'
'cones_'
'completes_'
'commits_'
'clogged_'
'clipped_'
'cleans_'
'cindy_'
'chubby_'
'ceremonial_'
'cartels_'
'carotid_'
'carbonate_'
'cafes_'
'bullies_'
'brunette_'
'brownies_'
'bros_'
'brides_'
'bree_'
'breaths_'
'booms_'
'billed_'
'bennet_'
'authorised_'
'auditors_'
'antioxidant_'
'anticipating_'
'annoy_'
'angola_'
'analytic_'
'anal_'
'allison_'
'allan_'
'alias_'
'abandonment_'
'750_'
'26th_'
'1977_'
'zuma_'
'zack_'
'yuri_'
'yummy_'
'witnessing_'
'witchcraft_'
'wills_'
'whopping_'
'wastes_'
'wards_'
'vouchers_'
'volt_'
'vial_'
'vanessa_'
'uther_'
'usb_'
'urinary_'
'upstate_'
'upscale_'
'uproar_'
'unsolved_'
'unprotected_'
'unicorn_'
'unforeseen_'
'unbelievably_'
'trendy_'
'transmissions_'
'tossing_'
'torches_'
'thong_'
'therapists_'
'teas_'
'tattooed_'
'synchronized_'
'swirling_'
'swab_'
'suv_'
'surveying_'
'summons_'
'sultan_'
'sulfate_'
'strippers_'
'stretcher_'
'strategists_'
'stomping_'
'steakhouse_'
'stair_'
'stabilizing_'
'squirrels_'
'squadron_'
'springfield_'
'spores_'
'sparkle_'
'sown_'
'southeastern_'
'sms_'
'smog_'
'sloan_'
'slain_'
'sinai_'
'siemens_'
'sibling_'
'showdown_'
'shortest_'
'seo_'
'semantic_'
'sediments_'
'scriptures_'
'scoundrel_'
'scholarships_'
'sceptics_'
'scalpel_'
'runoff_'
'rooting_'
'romanian_'
'roberto_'
'rife_'
'revert_'
'remodeled_'
'relapse_'
'reinstated_'
'reformers_'
'reborn_'
'raphael_'
'quarry_'
'qualifies_'
'qiu_'
'purge_'
'prudence_'
'proton_'
'propagation_'
'pristine_'
'presided_'
'prehistoric_'
'predatory_'
'precarious_'
'powerhouse_'
'posterior_'
'pompeii_'
'polygraph_'
'plunging_'
'photons_'
'persuading_'
'perched_'
'perch_'
'peeing_'
'pauline_'
'patrolling_'
'paso_'
'paramedic_'
'pamela_'
'ort_'
'organizer_'
'optimist_'
'oppressed_'
'onshore_'
'omitted_'
'omen_'
'ois_'
'nudge_'
'nottingham_'
'normandy_'
'nightfall_'
'neurotic_'
'nds_'
'nc_'
'nathaniel_'
'muck_'
'mindful_'
'milestone_'
'midtown_'
'midday_'
'messiah_'
'mesa_'
'memoir_'
'meats_'
'md_'
'maturing_'
'marcel_'
'malware_'
'malnutrition_'
'maliki_'
'mal_'
'luncheon_'
'lowers_'
'loophole_'
'lookin_'
'lng_'
'likeness_'
'laurel_'
'landmarks_'
'kisser_'
'justifiable_'
'jenna_'
'jargon_'
'ix_'
'israelites_'
'irritated_'
'iris_'
'intravenous_'
'ingested_'
'infiltrate_'
'imaginative_'
'illegitimate_'
'ight_'
'idealism_'
'housework_'
'hopelessly_'
'honoured_'
'hoist_'
'hoc_'
'hoax_'
'higgins_'
'herring_'
'herod_'
'heng_'
'hectic_'
'heartache_'
'header_'
'havens_'
'hateful_'
'handlers_'
'hamper_'
'halo_'
'h1n1_'
'gunpowder_'
'grievous_'
'grappling_'
'glabrous_'
'geely_'
'garde_'
'fs_'
'fricking_'
'freestyle_'
'formulation_'
'formulas_'
'forceful_'
'fluctuation_'
'flooring_'
'flocks_'
'flattery_'
'flashed_'
'flapping_'
'fischer_'
'firemen_'
'fated_'
'fasting_'
'fargo_'
'falcon_'
'faithfully_'
'failings_'
'expel_'
'exaggerating_'
'europa_'
'espn_'
'envelopes_'
'enrollment_'
'enlighten_'
'enlargement_'
'emphasizing_'
'educators_'
'dyed_'
'dwight_'
'duvet_'
'dprk_'
'donovan_'
'dominating_'
'disruptions_'
'disgraced_'
'diseased_'
'directs_'
'diners_'
'dictionaries_'
'dictators_'
'dictated_'
'dickhead_'
'diaries_'
'detrimental_'
'deity_'
'dashing_'
'dart_'
'dane_'
'cursing_'
'cupid_'
'cruising_'
'crooks_'
'crates_'
'cramped_'
'cores_'
'convent_'
'confessing_'
'comprised_'
'complacent_'
'columnist_'
'citrus_'
'citation_'
'cinderella_'
'checkbook_'
'cheats_'
'charisma_'
'centric_'
'cellulose_'
'ceases_'
'caviar_'
'catfish_'
'carver_'
'carefree_'
'cantonese_'
'cannons_'
'canisters_'
'cabs_'
'burdened_'
'buoyant_'
'buckingham_'
'buchanan_'
'brutus_'
'brochures_'
'brittle_'
'bourne_'
'bourgeoisie_'
'borderline_'
'bookie_'
'bodied_'
'birdie_'
'biomass_'
'bickering_'
'benedict_'
'beggars_'
'bathed_'
'barrett_'
'baptism_'
'bagel_'
'backside_'
'awoke_'
'awakened_'
'aviv_'
'averaged_'
'attire_'
'assertive_'
'aspiring_'
'ascent_'
'arithmetic_'
'anointed_'
'ano_'
'anesthetic_'
'amend_'
'afflicted_'
'aerobics_'
'adolescents_'
'ade_'
'additives_'
'activating_'
'2000s_'
'175_'
'104_'
'" _'
' " ; _'
'zhen_'
'wishful_'
'wineries_'
'wellington_'
'welding_'
'washes_'
'wannabe_'
'ving_'
'venerable_'
'unwise_'
'understatement_'
'unconstitutional_'
'ular_'
'typed_'
'tus_'
'tsinghua_'
'trooper_'
'tribune_'
'treaties_'
'towed_'
'topping_'
'tiring_'
'thoracic_'
'tasked_'
'tampering_'
'tacos_'
'tabloids_'
'swipe_'
'sweatshirt_'
'sundown_'
'sunbathing_'
'subsidised_'
'strides_'
'straps_'
'stewardess_'
'steaming_'
'starred_'
'sprinkle_'
'sped_'
'spaniards_'
'sophomore_'
'sofia_'
'skipper_'
'simulator_'
'shuts_'
'shorten_'
'shitting_'
'sesame_'
'scuba_'
'sb_'
'sation_'
'santorum_'
'salads_'
'saharan_'
'rung_'
'roland_'
'renamed_'
'relocated_'
'reliably_'
'recurring_'
'recommending_'
'recital_'
'ras_'
'ramadan_'
'quieter_'
'qe_'
'pulses_'
'provocation_'
'proverb_'
'protectionist_'
'projecting_'
'pressured_'
'prepaid_'
'prada_'
'postoperative_'
'postcards_'
'postage_'
'polyester_'
'poachers_'
'pitches_'
'pickles_'
'phosphorus_'
'philistines_'
'peugeot_'
'palate_'
'painkillers_'
'oversees_'
'overlooks_'
'outing_'
'oscars_'
'olives_'
'ogre_'
'offending_'
'obeyed_'
'oaks_'
'nexus_'
'negativity_'
'movers_'
'morsi_'
'morons_'
'morgana_'
'monumental_'
'misled_'
'milady_'
'migraine_'
'mast_'
'maids_'
'madly_'
'longitudinal_'
'liner_'
'lighted_'
'lexington_'
'latch_'
'lanterns_'
'lagarde_'
'kyung_'
'kilograms_'
'juror_'
'jab_'
'isabelle_'
'invests_'
'intermediary_'
'inhibition_'
'ingenuity_'
'inexpensive_'
'incurable_'
'imposes_'
'impetus_'
'impairment_'
'ily_'
'illumination_'
'icu_'
'hydrocarbons_'
'hostel_'
'hinges_'
'herbert_'
'henri_'
'helper_'
'hed_'
'harming_'
'hanoi_'
'gunshots_'
'gracefully_'
'geometric_'
'genie_'
'fulness_'
'fulfillment_'
'freshmen_'
'fodder_'
'flurry_'
'firewood_'
'fertiliser_'
'feld_'
'extras_'
'expressly_'
'ernst_'
'eradicate_'
'enhances_'
'eiffel_'
'edly_'
'earring_'
'dramas_'
'dodgy_'
'dodged_'
'docs_'
'dmv_'
'disrupting_'
'disdain_'
'deng_'
'deceptive_'
'cynthia_'
'cutters_'
'cubes_'
'crumbs_'
'countdown_'
'cosy_'
'contenders_'
'constituent_'
'constable_'
'conditional_'
'commence_'
'coined_'
'cobb_'
'cnooc_'
'climber_'
'cleopatra_'
'clam_'
'clad_'
'circumstantial_'
'chai_'
'ceilings_'
'cdc_'
'carp_'
'canoe_'
'busts_'
'bummed_'
'bt_'
'brodie_'
'booths_'
'boldly_'
'biochemistry_'
'bian_'
'bestowed_'
'ber_'
'barring_'
'bandage_'
'bailiff_'
'bagged_'
'backfire_'
'averages_'
'austen_'
'assurances_'
'assortment_'
'antony_'
'antibody_'
'anonymously_'
'anemia_'
'alloy_'
'afghans_'
'adversaries_'
'actresses_'
'accelerator_'
'aaa_'
'550_'
'260_'
'1965_'
'1948_'
'1933_'
'1900_'
'09_'
'. ,_'
' . ) _'
'yoon_'
'yer_'
'xue_'
'wyatt_'
'worsened_'
'workload_'
'woodland_'
'wonderland_'
'withhold_'
'wielding_'
'wharton_'
'wer_'
'wedded_'
'weber_'
'watershed_'
'warship_'
'warms_'
'warheads_'
'walkers_'
'vortex_'
'verses_'
'validation_'
'urs_'
'uptown_'
'upheld_'
'upbringing_'
'unstoppable_'
'unfolding_'
'underwriter_'
'undermines_'
'uc_'
'tyranny_'
'tti_'
'trough_'
'trent_'
'transformer_'
'totem_'
'torres_'
'thornton_'
'thermometer_'
'theology_'
'thaw_'
'testicles_'
'taxing_'
'taxed_'
'taps_'
'tanner_'
'tandem_'
'takeout_'
'tak_'
'synonymous_'
'syllabus_'
'suture_'
'summed_'
'stoke_'
'stave_'
'starring_'
'stares_'
'staked_'
'stabilise_'
'spills_'
'speechless_'
'sparking_'
'snail_'
'slutty_'
'slashing_'
'sizeable_'
'sinus_'
'sinner_'
'singled_'
'simplistic_'
'sidekick_'
'shroud_'
'shrewd_'
'showered_'
'shortened_'
'shoo_'
'serenity_'
'sequel_'
'seniority_'
'selfless_'
'seeming_'
'sculptor_'
'scraped_'
'scholarly_'
'scattering_'
'sars_'
'sanction_'
'rudder_'
'rosenberg_'
'rong_'
'rocker_'
'rm_'
'ribbons_'
'reverence_'
'resolute_'
'reside_'
'reservoirs_'
'repository_'
'repetitive_'
'repetition_'
'renovations_'
'refine_'
'reckoned_'
'reassigned_'
'railing_'
'puzzling_'
'pursuant_'
'psychotherapy_'
'prominence_'
'privatisation_'
'preston_'
'prerequisite_'
'prepped_'
'preferable_'
'portsmouth_'
'ponzi_'
'pointy_'
'plummeted_'
'photon_'
'phelps_'
'perv_'
'perspiration_'
'persists_'
'persisted_'
'perseverance_'
'perishables_'
'pdf_'
'pathogens_'
'parity_'
'parasitic_'
'ovary_'
'outcry_'
'organisers_'
'ordinated_'
'ordained_'
'ord_'
'oblivion_'
'nitrate_'
'nipple_'
'nbc_'
'mouthed_'
'moo_'
'momentous_'
'modestly_'
'mitsubishi_'
'milo_'
'melissa_'
'meg_'
'marius_'
'mackerel_'
'mackenzie_'
'luthor_'
'luckiest_'
'lockers_'
'loathing_'
'lli_'
'liquidation_'
'libor_'
'lemons_'
'leah_'
'labyrinth_'
'kurt_'
'kov_'
'keenly_'
'kaiser_'
'ita_'
'isabella_'
'iphones_'
'ional_'
'inspirational_'
'ino_'
'inexperienced_'
'implication_'
'implements_'
'ides_'
'hurtful_'
'huddled_'
'housewife_'
'hooray_'
'homey_'
'hiccup_'
'hesitated_'
'hereditary_'
'heirs_'
'hauling_'
'hauled_'
'hallucination_'
'gurney_'
'guo'
'groundwork_'
'grids_'
'greenpeace_'
'goalkeeper_'
'glaring_'
'gill_'
'gents_'
'gazing_'
'fueling_'
'fritz_'
'fragility_'
'foreground_'
'flips_'
'flares_'
'fittings_'
'financiers_'
'fiasco_'
'fahrenheit_'
'fad_'
'exhibited_'
'examiner_'
'exacerbated_'
'everett_'
'euphoria_'
'estimating_'
'erin_'
'epileptic_'
'enthusiastically_'
'emptying_'
'ellison_'
'educating_'
'ecstatic_'
'eavesdropping_'
'ducts_'
'drummer_'
'drills_'
'dole_'
'doggy_'
'disks_'
'discs_'
'disciple_'
'departing_'
'deodorant_'
'delectable_'
'darts_'
'dares_'
'curing_'
'crusade_'
'crawford_'
'cox_'
'correcting_'
'cords_'
'contractions_'
'conjure_'
'conceivable_'
'compilation_'
'compatriots_'
'clerical_'
'claudia_'
'chevrolet_'
'chemist_'
'cayman_'
'catwalk_'
'canon_'
'canary_'
'canals_'
'calves_'
'cadet_'
'buyout_'
'bustling_'
'burrows_'
'broccoli_'
'broadcaster_'
'boyle_'
'boyd_'
'bordering_'
'bolts_'
'boar_'
'blinking_'
'birthplace_'
'beak_'
'bathrobes_'
'barrage_'
'barbarians_'
'bandages_'
'babbling_'
'avon_'
'av_'
'autoimmune_'
'aung_'
'augustus_'
'astronomer_'
'archipelago_'
'ara_'
'angus_'
'alterations_'
'almonds_'
'adopts_'
'administering_'
'adjectives_'
'31st_'
'220_'
'1959_'
'1800_'
' ? '_'
' ... !_'
'zoning_'
'writ_'
'wildest_'
'wealthiest_'
'watered_'
'wah_'
'waged_'
'wad_'
'visualize_'
'virgins_'
'vines_'
'viewer_'
'verb_'
'ventricular_'
'vanishing_'
'unspoken_'
'unexplained_'
'unethical_'
'undesirable_'
'unbalanced_'
'ubuntu_'
'transgenic_'
'titus_'
'thrived_'
'thorny_'
'theodore_'
'tesco_'
'termed_'
'tending_'
'synagogue_'
'symbolism_'
'susie_'
'surcharge_'
'sur_'
'suppressing_'
'supporter_'
'subdued_'
'stumbling_'
'stuffy_'
'stereotypes_'
'stationery_'
'standstill_'
'stag_'
'spec_'
'spartan_'
'sonar_'
'snowball_'
'snaps_'
'slime_'
'siri_'
'sian_'
'shudder_'
'shortfall_'
'shortcuts_'
'shenyang_'
'shelling_'
'shag_'
'sergei_'
'senseless_'
'seeding_'
'scrubbing_'
'scrubbed_'
'schultz_'
'schoolchildren_'
'schmuck_'
'scheming_'
'sch_'
'scarred_'
'sanitary_'
'saddled_'
'rustic_'
'ruptured_'
'rna_'
'rickshaw_'
'ricardo_'
'rhodes_'
'rethinking_'
'remuneration_'
'remittances_'
'regent_'
'redirect_'
'recruiters_'
'recovers_'
'recliner_'
'realms_'
'rations_'
'rarity_'
'racking_'
'quickest_'
'queuing_'
'quell_'
'puddle_'
'prudential_'
'proclaim_'
'predictably_'
'pratt_'
'pluto_'
'plucked_'
'plotted_'
'platter_'
'pinched_'
'phillip_'
'perpetrator_'
'pepperoni_'
'pearson_'
'papandreou_'
'pantry_'
'oxen_'
'overturn_'
'overcame_'
'outset_'
'ornaments_'
'originality_'
'opposes_'
'opel_'
'onward_'
'occupies_'
'nudity_'
'norfolk_'
'nonexistent_'
'nightlife_'
'neuroscience_'
'ncy_'
'nationalities_'
'muzzle_'
'mould_'
'mormon_'
'misunderstandings_'
'missionaries_'
'minors_'
'midterm_'
'microorganisms_'
'microblogging_'
'meyer_'
'messes_'
'memoirs_'
'meditate_'
'manicure_'
'macho_'
'lucid_'
'lt'
'lore_'
'loopholes_'
'lobbyists_'
'lifeless_'
'lifeguard_'
'licked_'
'lesbians_'
'leased_'
'latex_'
'landslide_'
'lambs_'
'kyrgyzstan_'
'kwan_'
'kowloon_'
'jurors_'
'judas_'
'jfk_'
'jars_'
'investigates_'
'intervening_'
'instinctively_'
'insolvency_'
'inhibitor_'
'inaugural_'
'impractical_'
'impacted_'
'illuminate_'
'iive_'
'ig_'
'hysteria_'
'hypnotized_'
'horrid_'
'hizbullah_'
'hiroshima_'
'hicks_'
'hershey_'
'heartland_'
'head'
'harshly_'
'handmade_'
'gunther_'
'grunt_'
'grub_'
'grouping_'
'greener_'
'goody_'
'gogh_'
'goddamned_'
'gobble_'
'glitter_'
'giddy_'
'gerard_'
'gallup_'
'funnier_'
'fresno_'
'floyd_'
'fleshy_'
'firsthand_'
'fireball_'
'finalists_'
'fication_'
'fermented_'
'feisty_'
'feces_'
'exited_'
'evicted_'
'evaporated_'
'evaluations_'
'ethiopian_'
'escalation_'
'erode_'
'enraged_'
'embraces_'
'eleventh_'
'ein_'
'ead_'
'dunno_'
'dotcom_'
'diva_'
'disqualified_'
'disarmament_'
'dirk_'
'dialed_'
'desserts_'
'deem_'
'decaying_'
'deadlines_'
'dae_'
'cutest_'
'curls_'
'crammed_'
'coupling_'
'countenance_'
'cornerstone_'
'coordinating_'
'controllers_'
'constituency_'
'conspiring_'
'consensual_'
'confetti_'
'confessions_'
'complexion_'
'compensated_'
'commend_'
'coincided_'
'coincide_'
'cohort_'
'coercion_'
'clueless_'
'clegg_'
'cleanliness_'
'chromosomes_'
'christie_'
'chord_'
'chopsticks_'
'chester_'
'cheney_'
'characterize_'
'celtic_'
'carroll_'
'campaigned_'
'calgary_'
'brunt_'
'brics_'
'breakers_'
'breaches_'
'bracket_'
'botanical_'
'bonfire_'
'bombay_'
'blaine_'
'blackmailed_'
'bcause_'
'batting_'
'bashing_'
'banter_'
'axle_'
'avant_'
'autobiography_'
'auditioned_'
'audible_'
'aston_'
'asserted_'
'arlington_'
'applauded_'
'amd_'
'ambiguity_'
'ambassadors_'
'ama_'
'allure_'
'alimony_'
'airfield_'
'ado_'
'abolish_'
'abetting_'
'abbott_'
'8000_'
'401_'
'1600_'
' : $ _'
' ! ?_'
'xiamen_'
'worid_'
'woe_'
'windsor_'
'willed_'
'widened_'
'weaponry_'
'waiters_'
'vo_'
'vividly_'
'vely_'
'variability_'
'vale_'
'urg_'
'unworthy_'
'unreal_'
'unravel_'
'unimaginable_'
'trojan_'
'transporter_'
'transplanted_'
'trance_'
'tortoise_'
'torment_'
'titans_'
'tilted_'
'tics_'
'thrift_'
'thermostat_'
'tessa_'
'tenderness_'
'talker_'
'tal_'
'tagging_'
'supplementary_'
'sublime_'
'stingy_'
'stereotype_'
'stakeout_'
'squire_'
'sprouts_'
'sponsorship_'
'splashing_'
'speculating_'
'sonia_'
'sociable_'
'smoky_'
'sightings_'
'sidewalks_'
'shrank_'
'shoving_'
'sewers_'
'serbian_'
'senile_'
'segregation_'
'seamless_'
'scepticism_'
'savor_'
'savages_'
'salesmen_'
'rye_'
'royalties_'
'rockefeller_'
'ridiculously_'
'richards_'
'revoke_'
'retrieved_'
'retainer_'
'republics_'
'replicated_'
'remedial_'
'relocation_'
'relieving_'
'reinforces_'
'reigned_'
'redo_'
'recognizable_'
'reckoning_'
'rationing_'
'radiator_'
'queries_'
'puppets_'
'pubs_'
'propensity_'
'prometheus_'
'prolific_'
'progresses_'
'prevails_'
'precursor_'
'prc_'
'ponds_'
'pondering_'
'poaching_'
'ple_'
'pivotal_'
'pious_'
'phobia_'
'philippe_'
'pharisees_'
'peroxide_'
'pedigree_'
'pebble_'
'patented_'
'paragraphs_'
'papi_'
'pane_'
'pagoda_'
'outlawed_'
'originating_'
'originals_'
'optimizing_'
'optics_'
'opportunistic_'
'nurtured_'
'nourishment_'
'notre_'
'nosed_'
'nimble_'
'newport_'
'nerds_'
'navigating_'
'nascent_'
'narrowing_'
'nairobi_'
'mutilated_'
'mussolini_'
'munitions_'
'multiplication_'
'morbid_'
'modernism_'
'minimise_'
'millet_'
'mercer_'
'memorandum_'
'melinda_'
'mcgee_'
'mater_'
'masturbation_'
'malt_'
'logistical_'
'lithuania_'
'lifespan_'
'librarian_'
'leapt_'
'laos_'
'kun_'
'knowingly_'
'knickers_'
'keepers_'
'juggle_'
'jessie_'
'jenkins_'
'jasper_'
'issuer_'
'intrude_'
'intrinsic_'
[...]
