'<pad>_'
'<EOS>_'
' 。_'
'的_'
' ， _'
'我_'
'你_'
'了_'
'是_'
'在_'
' ？_'
'他_'
' 。 _'
'我们_'
'不_'
'和_'
'她_'
'有_'
'就_'
'吗_'
'好_'
'说_'
'都_'
'知道_'
'他们_'
' ，_'
'什么_'
'这_'
'会_'
'对_'
'一个_'
'很_'
'吧_'
' ！_'
'也_'
'人_'
' ？ _'
'把_'
'去_'
'想_'
'但_'
'要_'
'如果_'
'上_'
'让_'
'做_'
' 、 _'
'来_'
'不是_'
'没有_'
'给_'
'那_'
'可以_'
'到_'
'啊_'
'能_'
'你们_'
'这个_'
'被_'
'还_'
'个_'
'因为_'
'着_'
'它_'
'中_'
'得_'
'现在_'
'没_'
'自己_'
' ！ _'
'过_'
'可能_'
'但是_'
'为_'
'_'
'已经_'
'从_'
'就是_'
'里_'
'将_'
'呢_'
'告诉_'
'这样_'
'不会_'
'   _'
'怎么_'
'需要_'
'而_'
'觉得_'
'与_'
' ..._'
'这些_'
'所以_'
'不能_'
'像_'
'时候_'
'跟_'
'只是_'
'事_'
'当_'
'看_'
'听_'
'多_'
'这里_'
' “ _'
'时_'
'为什么_'
'更_'
'问题_'
'再_'
'并_'
'走_'
'别_'
'又_'
'喜欢_'
'哦_'
' （ _'
'这么_'
'工作_'
'应该_'
'们_'
'那个_'
'孩子_'
'开始_'
' …_'
'可_'
'东西_'
'认为_'
'用_'
'谁_'
' ： _'
'我要_'
' … …_'
'一些_'
'真的_'
'找_'
'年_'
'还是_'
'先生_'
'一起_'
'所有_'
'公司_'
'一样_'
'当然_'
'下_'
'地_'
'希望_'
'还有_'
'嗯_'
'中国_'
'那么_'
'等_'
'看到_'
'最_'
'后_'
' ） _'
'美国_'
'那些_'
'该_'
'不过_'
'或_'
'只_'
'时间_'
'发现_'
'嘿_'
' · _'
'的话_'
'新_'
'找到_'
'一直_'
'地方_'
' ” _'
'叫_'
'才_'
'死_'
'不想_'
'为了_'
'前_'
'帮_'
'点_'
'这种_'
'发生_'
' , _'
'大_'
'向_'
'今天_'
'事情_'
'一下_'
'以_'
'准备_'
'朋友_'
'其他_'
'比_'
'带_'
'起来_'
'快_'
'所_'
'我会_'
'一定_'
'相信_'
'必须_'
'吃_'
'任何_'
'这是_'
'一_'
'它们_'
'不要_'
'想要_'
'或者_'
'呃_'
'很多_'
'太_'
'然后_'
'一切_'
'离开_'
'么_'
'提供_'
'妈妈_'
'噢_'
'您_'
'研究_'
'有人_'
'其_'
'进行_'
'非常_'
' ...   _'
'国家_'
'拿_'
'生活_'
'钱_'
'一次_'
'出来_'
'月_'
'之前_'
' 。 — _'
'却_'
'爱_'
'而且_'
'哪_'
'这儿_'
'世界_'
' - _'
'两个_'
'小_'
'明白_'
'于_'
'看看_'
'一种_'
'只有_'
'一点_'
'回来_'
'谢谢_'
'真_'
'感觉_'
'正在_'
'打_'
'出_'
'请_'
'重要_'
'抱歉_'
'也许_'
'那里_'
'成为_'
'以为_'
'以及_'
'使_'
'人们_'
'得到_'
'杀_'
' … … _'
'担心_'
'计划_'
'最后_'
'天_'
'通过_'
'政府_'
'有点_'
'那样_'
'情况_'
'意思_'
'过去_'
'来说_'
'女人_'
'电话_'
'之后_'
'如何_'
'见_'
'经济_'
'帮助_'
'伙计_'
'问_'
'肯定_'
'已_'
'以前_'
'医生_'
'我能_'
'关于_'
' ； _'
'作为_'
'可是_'
'决定_'
'最好_'
'不错_'
'包括_'
'使用_'
'及_'
'住_'
'之_'
' ._'
'父亲_'
'由_'
'完全_'
' … _'
'出现_'
'爸爸_'
'继续_'
' ？ — _'
'认识_'
'内_'
'怎么样_'
'嗨_'
'影响_'
'听到_'
'记得_'
'小时_'
'对于_'
'干_'
'选择_'
'过来_'
'当时_'
'酒店_'
'别人_'
'安全_'
'男人_'
'买_'
'了解_'
'不用_'
'是不是_'
'名字_'
'儿子_'
'5_'
'有些_'
'关系_'
'没事_'
'等等_'
'机会_'
'先_'
'市场_'
'写_'
'无法_'
'出去_'
' 。 -   _'
'真是_'
'好像_'
'看起来_'
'啦_'
'总是_'
'不同_'
'许多_'
'高兴_'
' -   _'
'者_'
'大家_'
'几个_'
' "   _'
'车_'
'警察_'
'表示_'
'哪里_'
'是否_'
'今晚_'
'原因_'
'我来_'
'另_'
'1_'
'要求_'
'2_'
'看见_'
' ” 。_'
'甚至_'
'3_'
'接受_'
'能够_'
'其中_'
'正_'
'多少_'
'唯一_'
'她们_'
'发展_'
'或许_'
'结果_'
'方式_'
'号_'
'之间_'
'上帝_'
'岁_'
'家_'
'你好_'
'方法_'
'同时_'
'改变_'
'不管_'
'如此_'
'站_'
'10_'
'每个_'
'总统_'
'因此_'
'女孩_'
'学校_'
'并且_'
'确定_'
'高_'
'些_'
'穿_'
'哪儿_'
'系统_'
'整个_'
'保护_'
'开_'
' -_'
'明天_'
'回家_'
'是因为_'
'清楚_'
'结束_'
'说话_'
'调查_'
'一位_'
'曾_'
'一天_'
'技术_'
'存在_'
'处理_'
'不到_'
'房间_'
'愿意_'
'怎样_'
'只要_'
' 。 — — _'
'信息_'
'   -_'
'银行_'
'参加_'
'服务_'
'那儿_'
'听说_'
'方面_'
'快点_'
'打电话_'
'组织_'
' — — _'
'要是_'
'呀_'
'成_'
'注意_'
'对不起_'
'成功_'
'跑_'
'尽管_'
'企业_'
'马上_'
'感到_'
'永远_'
'真正_'
'主要_'
'控制_'
' . _'
'支持_'
'里面_'
'努力_'
'带来_'
'宝贝_'
'城市_'
'拥有_'
'晚上_'
'特别_'
'兄弟_'
'6_'
'弄_'
'4_'
'妈_'
'最近_'
'来自_'
'行_'
'保证_'
'枪_'
'到底_'
'女儿_'
'._'
' ？ -   _'
'英国_'
'没错_'
'起_'
'家伙_'
'地区_'
'错_'
'拜托_'
'几乎_'
'身上_'
'房子_'
'获得_'
'好好_'
'有关_'
'报告_'
'亲爱_'
'大学_'
'进入_'
'根本_'
'办法_'
'则_'
'其实_'
'性_'
'以后_'
'行动_'
'见到_'
'比赛_'
'像是_'
'分析_'
'失去_'
'照片_'
'活动_'
'妻子_'
'送_'
'回_'
'至少_'
'社会_'
'20_'
'日_'
'放_'
'考虑_'
'即使_'
'解决_'
'证明_'
'行为_'
'有没有_'
'设计_'
'完成_'
'变得_'
'似乎_'
'目标_'
' — _'
'玩_'
'免费_'
'刚刚_'
'个人_'
'解释_'
'干嘛_'
'嘛_'
'喝_'
'下来_'
'实际上_'
'每_'
'能力_'
'母亲_'
'学生_'
'只能_'
'这次_'
'容易_'
' 《 _'
'家庭_'
'回到_'
'日本_'
'干什么_'
'之一_'
'看着_'
'投资_'
'表现_'
'变成_'
'才能_'
'确实_'
'生命_'
'危险_'
'联系_'
'由于_'
'衣服_'
'每天_'
'回去_'
'就要_'
'目前_'
'最大_'
'故事_'
'那种_'
'部分_'
'全球_'
'本_'
' 。 ”_'
'不行_'
'中心_'
'手_'
'谈谈_'
'电影_'
'一家_'
'虽然_'
'未来_'
'打算_'
'律师_'
'花_'
'没什么_'
'受到_'
'麻烦_'
'办公室_'
'刚才_'
'丈夫_'
'证据_'
'直接_'
'医院_'
'坐_'
'很快_'
'政治_'
'利用_'
'7_'
'理解_'
'忙_'
'保持_'
'人类_'
'从来_'
'建议_'
'同样_'
'咱们_'
'简单_'
'曾经_'
'完_'
'父母_'
'一名_'
'进_'
'仍然_'
'产生_'
'俩_'
'重新_'
'挺_'
'仍_'
'更好_'
'别的_'
'管理_'
'显示_'
'8_'
' " _'
'法律_'
'然而_'
'刚_'
'结婚_'
'害怕_'
'称_'
'斯_'
'同意_'
'三个_'
'治疗_'
'不了_'
'交易_'
'还要_'
'任务_'
'如_'
'国际_'
'一份_'
'放在_'
'欧洲_'
' 》 _'
'不再_'
'导致_'
'造成_'
'有个_'
'呆_'
'消息_'
'话_'
'因_'
'一张_'
'一件_'
'小心_'
'有时_'
'产品_'
'另外_'
'最终_'
'女士_'
'提出_'
'其他人_'
'严重_'
'美元_'
'过程_'
'头_'
'数据_'
'意味着_'
'尸体_'
'根据_'
'历史_'
'其它_'
'小姐_'
'突然_'
'上面_'
'承认_'
'记录_'
'检查_'
'早上_'
'增长_'
'声音_'
'死亡_'
'% _'
'掉_'
'间_'
'抓_'
'讲_'
'进来_'
'这件_'
'离_'
'恩_'
'一场_'
'去年_'
' ： “ _'
'搞_'
'看上去_'
'喂_'
'案子_'
'路_'
' ， “ _'
'附近_'
'飞机_'
'通常_'
' • _'
'人员_'
'项目_'
'伤害_'
'想法_'
'进去_'
'够_'
'一条_'
'9_'
'明显_'
'不好_'
'增加_'
'而已_'
'30_'
'身体_'
' ？ — — _'
'具有_'
'经常_'
'一旦_'
'啥_'
'建立_'
'自由_'
'所有人_'
'这一_'
'政策_'
'12_'
'负责_'
'机构_'
' ” ， _'
'开心_'
'尤其_'
'谈_'
'老_'
'怎么办_'
'今年_'
'漂亮_'
'坐在_'
'长官_'
'待_'
'环境_'
'战争_'
'留下_'
'约会_'
'学习_'
'作用_'
'秘密_'
'昨晚_'
'或是_'
'一只_'
'游戏_'
'比较_'
'奇怪_'
'分钟_'
'更加_'
'价值_'
'放弃_'
'手机_'
'汽车_'
'年轻_'
'至_'
'狗_'
'他妈的_'
'合作_'
'我刚_'
'代表_'
'水_'
'打开_'
'睡_'
'教育_'
'派_'
'比如_'
'家里_'
'显然_'
'咖啡_'
'连_'
'“ _'
'享受_'
'除了_'
'有趣_'
'眼睛_'
'事实_'
'价格_'
'经历_'
'一年_'
'拉_'
'懂_'
'健康_'
'受_'
'长_'
'再见_'
'食物_'
'卖_'
'外面_'
'家人_'
'第一次_'
'拒绝_'
'约_'
'纽约_'
'文件_'
'允许_'
'每次_'
'那边_'
'运动_'
'超过_'
'此_'
'错误_'
'他会_'
'救_'
' ?_'
'样子_'
'事件_'
'全部_'
'文化_'
'帮忙_'
'直到_'
'名_'
'印度_'
'从没_'
'威胁_'
'道_'
'客房_'
'书_'
'讨论_'
'传统_'
'早餐_'
'动物_'
'地球_'
'加入_'
'拿到_'
'一项_'
'讨厌_'
'还好_'
'绝对_'
'意识_'
'有时候_'
'压力_'
'达_'
'不断_'
'网络_'
'该死_'
'监狱_'
'凶手_'
'任何人_'
'区_'
'早_'
'收到_'
'音乐_'
'将会_'
'门_'
'必要_'
'后面_'
'女性_'
'试图_'
'紧张_'
'安排_'
'阻止_'
'客户_'
'位置_'
'不得不_'
'足够_'
'意义_'
'卡_'
'风险_'
'忘_'
'处_'
'下去_'
'后来_'
'特_'
'赢_'
'会议_'
' / _'
' ） ， _'
'想象_'
'理论_'
'回答_'
'完美_'
'混蛋_'
'位于_'
'病人_'
'很大_'
'糟糕_'
'心_'
'范围_'
'武器_'
'正常_'
'太好了_'
'倒_'
'疯_'
'越来越_'
'夫人_'
'做出_'
'大量_'
'不好意思_'
'以来_'
'不该_'
'聪明_'
'德_'
'15_'
'客人_'
'非_'
'坚持_'
'否则_'
'约翰_'
'做到_'
'提高_'
'一般_'
'大多数_'
'员工_'
'电视_'
'实现_'
'接下来_'
'活着_'
'看来_'
'电脑_'
'抓住_'
'相关_'
'报道_'
'力量_'
'新闻_'
'这位_'
'按_'
'主意_'
'本来_'
'寻找_'
'应_'
'表明_'
'怎么回事_'
'随着_'
'目的_'
'停_'
'事实上_'
'痛苦_'
'照顾_'
'昨天_'
'想到_'
'怀疑_'
'停止_'
'反应_'
'开玩笑_'
'的确_'
'派对_'
'指_'
'法国_'
'网站_'
'表演_'
'总_'
'可爱_'
'各种_'
'精神_'
'关心_'
'发誓_'
'变化_'
'多久_'
'反对_'
'引起_'
'理由_'
'当地_'
'巨大_'
'远_'
'感谢_'
'博士_'
'测试_'
'生产_'
'一部分_'
'想想_'
'委员会_'
'规定_'
' ... _'
'无_'
'猜_'
' : _'
'设备_'
'外_'
'法_'
'一'
'偷_'
'英里_'
'德国_'
'几天_'
'11_'
'杰克_'
'令_'
'再次_'
'脸_'
'而是_'
'专家_'
'酒_'
'小孩_'
'开枪_'
'正确_'
'拍_'
'便_'
'马_'
'老板_'
'无论_'
'参与_'
'50_'
'靠_'
'世纪_'
'私人_'
'生_'
'减少_'
'手术_'
'同_'
'官员_'
'快乐_'
'奥巴马_'
'应用_'
'小'
'式_'
'达到_'
'第_'
'笑_'
'酒吧_'
'休息_'
'空间_'
' ） 。_'
'面前_'
'令人_'
'失败_'
'消失_'
'哪个_'
'喔_'
'出口_'
'大'
'跳_'
'标准_'
'值得_'
'伦敦_'
'关注_'
'遇到_'
'经过_'
'神_'
'队_'
'某些_'
'创造_'
'谋杀_'
'自_'
'资金_'
'开车_'
'媒体_'
'内容_'
'科学_'
'作_'
'制造_'
'持续_'
'属于_'
'身份_'
'训练_'
'尝试_'
'大概_'
'再说_'
'面对_'
'接_'
's_'
'身边_'
'放松_'
'十分_'
'区域_'
'投资者_'
'据_'
'男孩_'
'疯狂_'
'相当_'
'低_'
'哈_'
'… … _'
'有效_'
'基金_'
'较_'
'来到_'
'不然_'
'军队_'
'正是_'
'子_'
'大部分_'
'信_'
'留在_'
'第一个_'
'晚餐_'
'不够_'
'类似_'
'部门_'
'信任_'
'介绍_'
'终于_'
'协议_'
'说明_'
'俄罗斯_'
'不'
'成员_'
'即_'
'求_'
'餐厅_'
'自然_'
'到达_'
'来看_'
'韦斯特_'
'条_'
'市_'
'攻击_'
'床_'
'加_'
'指出_'
'穿着_'
'宣布_'
'袭击_'
'权利_'
'受害者_'
'用来_'
'不仅_'
'领域_'
'女_'
'哇_'
'100_'
'学_'
'难_'
'方向_'
'丢_'
'既然_'
'坏_'
'需求_'
'欢迎_'
'适合_'
'条件_'
'往_'
'头发_'
'教授_'
'日子_'
'少_'
'再也_'
'关键_'
'公园_'
'吸引_'
' ......_'
'那天_'
'船_'
'集团_'
'期间_'
'变_'
'首先_'
'听见_'
'藏_'
'危机_'
'下面_'
'且_'
'星期_'
'贝斯特_'
'睡觉_'
'而言_'
'种_'
'忘记_'
'业务_'
'探员_'
'答案_'
'确保_'
'很棒_'
'破坏_'
'如今_'
'分_'
'换_'
'药_'
'距离_'
'教_'
'面临_'
'画_'
'越_'
'实在_'
'几年_'
'例如_'
'老师_'
'水平_'
'程度_'
'血_'
'受伤_'
'看过_'
'及其_'
'用户_'
'语言_'
'病_'
'通知_'
'艺术_'
'设施_'
'恢复_'
'生气_'
'是从_'
'上去_'
'太太_'
'可不_'
'责任_'
'某个_'
'基础_'
'公寓_'
'子弹_'
'充满_'
'观点_'
'除非_'
'原来_'
'人生_'
'幸运_'
'米_'
'食品_'
'婚礼_'
'伟大_'
'未_'
'因素_'
'简直_'
'撒谎_'
'那时_'
'冷静_'
'命令_'
'老婆_'
'状态_'
'从未_'
'使得_'
'没关系_'
'尔_'
'形成_'
'大约_'
'别说_'
'人民_'
'改革_'
'节目_'
'时代_'
'为何_'
'礼物_'
'行业_'
'一半_'
'次_'
'仅仅_'
'机场_'
'程序_'
'真实_'
'克_'
'感受_'
'人士_'
'线索_'
'真相_'
'管_'
'旅行_'
'接近_'
'儿童_'
'   -   _'
'警告_'
'法庭_'
'执行_'
'差不多_'
'可怕_'
'收入_'
'资料_'
'承诺_'
'爸_'
' ：_'
'意见_'
'现场_'
'困难_'
'没法_'
'钥匙_'
'仅_'
'每年_'
'生意_'
'团队_'
'科学家_'
'数字_'
'互联网_'
'热_'
'模式_'
'早就_'
'销售_'
'可不是_'
'查_'
'独立_'
'用于_'
'这项_'
'扔_'
'建筑_'
'基本_'
'意大利_'
'速度_'
'这事_'
'到处_'
'搞定_'
'替_'
'俱乐部_'
'哥哥_'
'型_'
'结构_'
'这边_'
'工具_'
'兴趣_'
'一会儿_'
'杀死_'
'购买_'
'妹妹_'
'% 。_'
'大脑_'
'冰箱_'
'稳定_'
'活_'
'唱_'
'复杂_'
'角色_'
'可怜_'
'多么_'
'00_'
'40_'
'美丽_'
'路上_'
'时期_'
'实验室_'
'化_'
'若_'
'放下_'
'经验_'
'线_'
'举行_'
'苹果_'
'法官_'
'答应_'
'姑娘_'
'难道_'
'有'
'剩下_'
'观察_'
'状况_'
'资产_'
'挑战_'
'成本_'
'措施_'
'思想_'
'北京_'
'周围_'
'街_'
'毒品_'
'香港_'
'采取_'
'犯罪_'
'报纸_'
'州_'
'邀请_'
'戴_'
'年代_'
'商业_'
'专业_'
'赢得_'
'功能_'
'球_'
'道歉_'
'需_'
'作品_'
'贷款_'
'处于_'
'限制_'
'采用_'
'移动_'
'记者_'
'额_'
'坐下_'
'闭嘴_'
'国内_'
'跟着_'
'万_'
'现代_'
'亚洲_'
'下午_'
'小子_'
'长期_'
'腿_'
'一块_'
'效果_'
'亿美元_'
'西方_'
'确认_'
'梦想_'
'中'
'一边_'
'各位_'
'交给_'
'算_'
'舒适_'
'生物_'
'开发_'
'不可_'
'认真_'
'杀人_'
'下降_'
'多'
'申请_'
'广告_'
'块_'
'竞争_'
'对此_'
'久_'
'态度_'
'多年_'
'鱼_'
'上次_'
'提到_'
'刺激_'
'带走_'
'件_'
'近_'
'有着_'
'自杀_'
'哭_'
'爆炸_'
'在于_'
'a_'
'领导_'
'以色列_'
'特殊_'
'选_'
'教堂_'
'习惯_'
'针对_'
'弟弟_'
'读_'
'土地_'
'婚姻_'
'洛杉矶_'
'这家_'
'实验_'
'打扰_'
'失望_'
'药物_'
'华盛顿_'
'乔治_'
'装_'
'现实_'
'一步_'
'只会_'
'原谅_'
'自我_'
'25_'
'国王_'
'选举_'
'全_'
'依然_'
'怕_'
'我爱你_'
'气_'
'人'
'内部_'
'这场_'
'安静_'
'山_'
'石油_'
'之中_'
'科_'
'估计_'
'避免_'
'同事_'
'器_'
'金_'
'信号_'
'记忆_'
'制度_'
'不必_'
'资源_'
'我'
'灵魂_'
'展示_'
'感情_'
'实施_'
'警方_'
'我家_'
'光_'
'心脏_'
'普通_'
'美_'
'第一_'
'意外_'
'地点_'
'发_'
'出发_'
'一遍_'
'挂_'
'很难_'
'债务_'
'降低_'
'逼_'
'失踪_'
'幸福_'
'见面_'
'杂志_'
'找个_'
'跟踪_'
'满足_'
'试试_'
'描述_'
'位_'
'提醒_'
' - - _'
'应当_'
'取得_'
'只不过_'
'英语_'
'迅速_'
'垃圾_'
'形式_'
'时刻_'
'占_'
'数量_'
'太阳_'
'一把_'
'脚_'
'英雄_'
'类_'
'进一步_'
'正式_'
'名单_'
'好多_'
'年轻人_'
'太棒了_'
'跳舞_'
'张_'
'一辆_'
'e_'
'配有_'
'事儿_'
'公开_'
'支付_'
'炸弹_'
'午餐_'
'包_'
'公平_'
'晚_'
'家族_'
'24_'
'0_'
'副_'
'发表_'
'女朋友_'
'既_'
'留_'
'有所_'
'方案_'
'并非_'
'吃饭_'
'陪_'
'取消_'
'记住_'
'合适_'
'动_'
'吓_'
'骗_'
'岛_'
'各_'
'舒服_'
'利_'
'敌人_'
'情绪_'
'小组_'
'发布_'
'不少_'
'不如_'
'疾病_'
'费用_'
'很少_'
'逮捕_'
'对方_'
'什么样_'
'共同_'
'那'
'要么_'
'消费者_'
'所说_'
'屁股_'
'旁边_'
'士兵_'
'贸易_'
'大型_'
'两年_'
'呼吸_'
'之'
'不敢相信_'
'梦_'
'怪_'
'一周_'
'指控_'
'城_'
'出生_'
'两_'
'穿过_'
'啤酒_'
'三_'
' 。 - _'
'首席_'
'随便_'
'阿_'
' !_'
'周末_'
'做好_'
'课程_'
'杀手_'
'地'
'工厂_'
'提_'
'好处_'
'象_'
'一生_'
'词_'
'表达_'
'细胞_'
'建设_'
'差点_'
'就算_'
'猫_'
'策略_'
'房_'
'关_'
'全国_'
'快速_'
'地址_'
' ！ — _'
'联邦_'
'假_'
'于是_'
'不知_'
'恐怕_'
'公众_'
'等待_'
'干净_'
'学会_'
'不让_'
'地位_'
'商店_'
'停下_'
'损失_'
'美好_'
'干吗_'
'文章_'
'接触_'
'基于_'
'老兄_'
'部_'
'权力_'
'称为_'
'前面_'
'职业_'
'不介意_'
'国_'
'上班_'
'投票_'
'在家_'
'塔_'
'套房_'
'度_'
'可'
'愚蠢_'
'能量_'
'撞_'
'从而_'
'这'
'不幸_'
'面_'
'立刻_'
'植物_'
'强大_'
'长大_'
'谈话_'
'离婚_'
'最新_'
'居然_'
'儿_'
'细节_'
'字_'
'厉害_'
'毁_'
'欠_'
'室_'
'思考_'
'规则_'
'上升_'
'某种_'
'最高_'
'发出_'
'搬_'
'加油_'
'尊重_'
'老爸_'
' ？ ！_'
'西_'
'利益_'
'人口_'
'均_'
'带到_'
'医疗_'
'强_'
'行驶_'
'男_'
'姐姐_'
'四个_'
'似的_'
'预测_'
'进展_'
'中间_'
'经营_'
'躺_'
'顿_'
' ( _'
'感染_'
'棒_'
'愤怒_'
'白痴_'
'引发_'
'要说_'
'刀_'
'单独_'
'实际_'
'喝酒_'
'按照_'
'彼此_'
'风格_'
'一会_'
'恨_'
'现象_'
'机器_'
'本文_'
'场_'
'竞选_'
'关闭_'
'份_'
'所谓_'
'怀孕_'
'兴奋_'
'恐惧_'
'假设_'
'联盟_'
'不仅仅_'
'超级_'
'工人_'
'车里_'
'18_'
'这份_'
'机_'
'事业_'
'体系_'
'他人_'
'拿走_'
'即将_'
'犯_'
'鬼_'
'哥们_'
'公路_'
'请求_'
'之类_'
'材料_'
'案件_'
'宗教_'
'找出_'
'常常_'
'布_'
'一句_'
'颜色_'
'资本_'
'反_'
'心里_'
'分享_'
'高速_'
'警官_'
'制作_'
'上'
'男性_'
'主_'
'究竟_'
'禁止_'
'一群_'
'一段_'
'动作_'
'黑_'
'非洲_'
'庆祝_'
'16_'
'转移_'
'寻求_'
'拯救_'
'店_'
'厨房_'
'上周_'
'靠近_'
'大卫_'
'办_'
'基因_'
'期待_'
'领导人_'
'量_'
'接到_'
'全都_'
'探讨_'
'和平_'
'乔_'
'金融_'
'无'
'正如_'
'床上_'
'知识_'
'伤_'
'相对_'
'想起_'
'味道_'
'视频_'
'本书_'
'调整_'
'愉快_'
'格_'
'肉_'
'合同_'
'人物_'
'票_'
'命_'
'… _'
'最佳_'
'巴黎_'
'60_'
'黑暗_'
'性感_'
'有意思_'
'战斗_'
'现金_'
'% ， _'
'病毒_'
'证人_'
'软件_'
'没'
'患者_'
'恶心_'
'反正_'
'质量_'
'谈论_'
'地上_'
'看法_'
'没人_'
'森_'
'追踪_'
' … 。_'
'错过_'
'婴儿_'
'原则_'
'冒险_'
'爱情_'
'即便_'
'这点_'
'对付_'
'之外_'
'两次_'
' ！ -   _'
'监视_'
'浪费_'
'曼_'
'释放_'
'桌子_'
'有用_'
'男朋友_'
'全世界_'
'还会_'
'照_'
'希腊_'
'学院_'
'工程_'
'力_'
'飞_'
'相同_'
'聚会_'
'科技_'
'朝_'
'说法_'
'假装_'
'品牌_'
'从不_'
'亚_'
'旧_'
'英寸_'
'马'
'图_'
'模型_'
'本身_'
'於_'
'指纹_'
'彻底_'
'尼_'
'空气_'
'谷歌_'
'债券_'
' ；_'
'往往_'
'妇女_'
'我国_'
'集中_'
'西班牙_'
'高'
'边_'
'角度_'
'开放_'
'高级_'
'带上_'
'高中_'
'假如_'
'罗马_'
'抱怨_'
'评估_'
'第二_'
'打击_'
'对象_'
'三'
'一系列_'
'说服_'
'会'
'货币_'
'搜索_'
'脑袋_'
'盯_'
'战略_'
'物质_'
'安_'
'能源_'
'股票_'
'伊朗_'
'一杯_'
'迟到_'
'主席_'
'检测_'
'金'
'蛋糕_'
'瞧_'
'社区_'
'财富_'
'去过_'
'结论_'
'缺乏_'
'吻_'
'欧盟_'
'抱_'
'一段时间_'
'自从_'
'竟然_'
'物_'
'收购_'
'轻松_'
'新鲜_'
'手上_'
'掌握_'
'作出_'
'14_'
'说谎_'
'期_'
'类型_'
'声_'
'司机_'
'出售_'
'尽快_'
'经理_'
'左右_'
'遗憾_'
'卡车_'
'保险_'
'随时_'
'墨西哥_'
'以上_'
'对待_'
'同性恋_'
'更为_'
'组_'
'监管_'
'鼓励_'
'课_'
'方便_'
'水果_'
'手段_'
'强烈_'
'著名_'
'送到_'
'林_'
'迈克尔_'
'对'
'绑架_'
'火车_'
'接着_'
'投入_'
'命运_'
'台湾_'
'数_'
'不敢_'
'分子_'
'为此_'
'神秘_'
'宇宙_'
'不见_'
'重大_'
'公共_'
'不在乎_'
'水'
'我该_'
'鸟_'
'积极_'
'惊讶_'
'过'
'顾客_'
'证实_'
'死去_'
'工业_'
'相比_'
'计算_'
'算是_'
'员_'
'付_'
'不管怎样_'
'一片_'
'事故_'
'韩国_'
'结合_'
'生日_'
'茶_'
'定_'
'史_'
'2008_'
'商品_'
'号码_'
'体验_'
'道路_'
'年前_'
'优势_'
'维持_'
'阿'
'汤姆_'
'博物馆_'
'达成_'
'歌_'
'不停_'
'祈祷_'
'加拿大_'
'树_'
'心理_'
'基地_'
'雷_'
'自身_'
'黑人_'
'窗户_'
'加上_'
'皮肤_'
'多谢_'
'一座_'
'阿富汗_'
'碰_'
'好人_'
'女士们_'
'外国_'
'不久_'
'胜利_'
'可能性_'
'阶段_'
' ' _'
'包含_'
'演出_'
'推动_'
'居民_'
'转_'
'一套_'
'良好_'
'傻_'
'印象_'
'组成_'
'创新_'
'暂时_'
'叫做_'
'率_'
'谢_'
'将军_'
'官方_'
'网上_'
'某人_'
'比'
'旅游_'
'声称_'
'上床_'
'放到_'
'批准_'
'尽_'
'上海_'
'惩罚_'
'借_'
'预计_'
'试验_'
'特征_'
'明确_'
'伤口_'
'暴力_'
'   -     _'
'罪_'
'广泛_'
'耶_'
'17_'
'搞砸_'
'交流_'
'评价_'
'森林_'
'叔叔_'
'收拾_'
'风_'
'谈判_'
'电子_'
'拉'
'连接_'
'符合_'
'没用_'
'饿_'
'特大_'
'弗兰克_'
'还给_'
'长时间_'
'2010_'
'联合_'
'死者_'
'制定_'
'信心_'
'唔_'
'问问_'
'我本_'
'移民_'
'改善_'
'感兴趣_'
'乐意_'
'难过_'
'运行_'
'对手_'
'人会_'
'13_'
'傻瓜_'
'当'
'费_'
'规模_'
'做法_'
'巧克力_'
'安装_'
'优秀_'
'背后_'
't_'
'麦克_'
'地狱_'
'80_'
'纳_'
'伊拉克_'
'一致_'
'讲话_'
'别动_'
'起诉_'
'微波炉_'
'立即_'
'慢慢_'
'浴缸_'
'旅馆_'
'表_'
'朝鲜_'
'具体_'
'没见_'
'宝宝_'
'两天_'
'基_'
'教练_'
'高速公路_'
'当中_'
'建造_'
'密码_'
'好消息_'
'难以_'
'好事_'
'双方_'
'相反_'
'拍摄_'
'做些_'
'夫_'
'天气_'
'彼得_'
'做爱_'
'迈克_'
'多数_'
'河_'
'分手_'
'你家_'
'下次_'
'这会_'
'度过_'
'尽力_'
'欣赏_'
'赚_'
'血液_'
'民主_'
'娜_'
'天'
'停下来_'
'装置_'
'自动_'
'一部_'
'国会_'
'重点_'
'能否_'
'背景_'
'邻居_'
'演员_'
'部队_'
'玛丽_'
'地图_'
'表面_'
'给予_'
'点儿_'
'满意_'
'嘴_'
'就让_'
'惊喜_'
'y_'
'骄傲_'
'神经_'
'年龄_'
'信仰_'
'收集_'
'好极了_'
'利润_'
'冲_'
'一间_'
'非法_'
'搭档_'
'访问_'
'有事_'
'局_'
'台_'
'仔细_'
'混乱_'
'牺牲_'
'一支_'
'抢_'
'19_'
'清理_'
'面包_'
'档案_'
'军事_'
'手指_'
'以'
'评论_'
'观众_'
'激动_'
'声明_'
'加强_'
'去世_'
'陷入_'
'熟悉_'
'毫无_'
'提升_'
'合理_'
'90_'
'片_'
'判断_'
'出色_'
'产业_'
'倾向_'
'亲自_'
'重_'
'特'
'显得_'
'邮件_'
' ? _'
'西'
'练习_'
'别'
'当前_'
'王_'
'新'
'语_'
'涉及_'
'批评_'
'嫌犯_'
'协会_'
'削减_'
'正好_'
'概念_'
'奶奶_'
'供应_'
'心情_'
'就行了_'
'别管_'
'法院_'
'录像_'
'在乎_'
'消费_'
'不算_'
'社交_'
'月份_'
'无烟_'
'从来不_'
'疯子_'
'手里_'
'公布_'
'埃及_'
'不愿_'
'理想_'
'潜在_'
'停车_'
'三年_'
'脸上_'
'紧急_'
'平衡_'
'几周_'
'两种_'
'生存_'
'有钱_'
'报警_'
'大街_'
'体_'
'马克_'
'赶紧_'
'o_'
'癌症_'
'小说_'
'摆脱_'
'冲突_'
'症状_'
'全'
'主人_'
'红色_'
'早晨_'
'卡尔_'
'上来_'
'躲_'
'逐渐_'
'老'
'红_'
'n_'
'很漂亮_'
'迪_'
'回报_'
'两位_'
'火_'
'到来_'
'几分钟_'
'飞行_'
'经_'
'无聊_'
'预期_'
'皮_'
'报_'
'200_'
'期望_'
'明星_'
'代价_'
'班_'
'操作_'
'启动_'
'分开_'
'事物_'
'早期_'
'感激_'
'姆_'
'更大_'
'巴西_'
'罪犯_'
'白'
'推出_'
'受害人_'
'严格_'
'权_'
'适应_'
'尼克_'
'卡'
'单位_'
'冷_'
'根_'
'以下_'
'退出_'
'洗_'
'承担_'
'顺利_'
'标志_'
'承受_'
'干得_'
'取_'
'卧室_'
'无辜_'
'一个月_'
'舞会_'
'澳大利亚_'
'抢劫_'
'开门_'
'从'
'渴望_'
'指望_'
'鞋_'
'大人_'
'吸血鬼_'
'口_'
'道德_'
'监控_'
'海军_'
'把手_'
'准确_'
'万美元_'
'市长_'
'前往_'
'在场_'
'听听_'
'碰到_'
'艰难_'
'成立_'
'巴基斯坦_'
'遭到_'
'头上_'
'预算_'
'却是_'
'停车场_'
'做过_'
'迹象_'
'指责_'
'下'
'联合国_'
'制造商_'
'作者_'
'锁_'
'网_'
'审判_'
'地震_'
'差_'
'成熟_'
'婊子_'
'加'
'逃跑_'
'财政_'
'扩大_'
'好了吗_'
'咱_'
'疼_'
'相_'
'折磨_'
'托_'
'想着_'
'保罗_'
'议员_'
'开'
'应对_'
'带有_'
'受欢迎_'
'情报_'
'队伍_'
'破_'
'杯_'
'全面_'
'痕迹_'
'恐怖_'
'500_'
'镇_'
'世上_'
'将来_'
'转变_'
'演讲_'
'提议_'
'区别_'
'空_'
'我妈_'
'合法_'
'绿色_'
'总之_'
'欧元_'
'担忧_'
'形象_'
' ”_'
'过度_'
'半_'
'上校_'
'天堂_'
'和'
'来'
'方_'
'值_'
'主题_'
'白人_'
'浴室_'
'成长_'
'付出_'
'顾问_'
'视为_'
'杀害_'
'戒指_'
'英尺_'
'护士_'
'这座_'
'某_'
'丰富_'
'街上_'
'椅子_'
'作家_'
'机制_'
'敢_'
'二_'
'职位_'
'耶和华_'
'看不到_'
'公里_'
'一颗_'
'算了_'
'流行_'
'它会_'
'首次_'
'运用_'
'耶稣_'
'级_'
'天使_'
'农场_'
'海滩_'
'基本上_'
'你别_'
'计算机_'
'惹_'
'利率_'
'牌_'
'强调_'
'老大_'
'促进_'
'笨蛋_'
'确信_'
'2009_'
'海'
'走进_'
'追求_'
'菜_'
'法案_'
'话题_'
'最初_'
'后果_'
'卫星_'
'元_'
'中有_'
'两人_'
'浪漫_'
'可惜_'
'天才_'
'南_'
'出于_'
'石头_'
'罗_'
'爆发_'
'满_'
'正'
'保留_'
'例子_'
'互相_'
'选手_'
'发射_'
'他'
'太多_'
'时光_'
'据说_'
'几次_'
'入住_'
'猪_'
'抗议_'
'注意力_'
'板_'
'厕所_'
'十年_'
'饮料_'
'遭受_'
'哪些_'
'r_'
'德'
'发'
'配备_'
'油_'
'房地产_'
'勇敢_'
'额外_'
'金属_'
'特定_'
'毕业_'
'干掉_'
'咬_'
'21_'
'脖子_'
'趋势_'
'财产_'
'核心_'
'采访_'
'见过_'
'自'
'70_'
'生长_'
'时'
'好'
'制_'
'餐馆_'
'一对_'
'重复_'
'手下_'
'否认_'
'公民_'
'集_'
'洞_'
'搜查_'
'帽子_'
'内'
'沿着_'
'论_'
'反映_'
'奥_'
'孤独_'
'一面_'
'车上_'
'谈过_'
'诺_'
'乐队_'
'省_'
'没想到_'
'醒来_'
'统治_'
'擅长_'
'一本_'
'克拉克_'
'障碍_'
'好看_'
'身_'
'玩笑_'
'星球_'
'表情_'
' ; _'
'赛_'
'平均_'
'圣诞节_'
'团体_'
'饼_'
'无论如何_'
' 。 。 。_'
'长'
'说真的_'
'工资_'
'介意_'
'透露_'
'案_'
'夜晚_'
'比尔_'
'总理_'
'回忆_'
'亲_'
'追_'
'热情_'
'楼_'
'一台_'
'以外_'
'不太_'
'无关_'
'头儿_'
'咖啡机_'
'人群_'
'愿_'
'好奇_'
'候选人_'
'上学_'
'神父_'
'诊断_'
'污染_'
'兰_'
'专门_'
'不得_'
'防止_'
'有助于_'
'前'
'以便_'
'说得对_'
'此外_'
'入_'
'住手_'
'一点点_'
'冠军_'
'教师_'
'海洋_'
'崩溃_'
'隐藏_'
'警局_'
'能'
'等到_'
'别忘了_'
'出'
'室内_'
'党_'
'便宜_'
'机器人_'
'有权_'
'特点_'
'担任_'
'游客_'
'波_'
'收_'
'丹尼_'
'老鼠_'
'那家伙_'
'用'
'大楼_'
'做点_'
'成就_'
'恭喜_'
'师_'
'i_'
'黑'
'那位_'
'说出_'
'伤心_'
'领袖_'
'牛奶_'
'成人_'
'夏天_'
'做个_'
'仪式_'
'被捕_'
'罢了_'
'完整_'
'奇迹_'
'牧师_'
'富有_'
'分别_'
'将要_'
'宠物_'
'解雇_'
'当局_'
'短_'
'暗示_'
'想过_'
'加州_'
'小时候_'
'嫁给_'
'兹_'
'之内_'
'间谍_'
'邪恶_'
'爬_'
'好玩_'
'回应_'
'高度_'
'抛弃_'
' ) _'
'心'
'固定_'
'版_'
'咨询_'
'不肯_'
'退休_'
'警探_'
'展开_'
'魅力_'
'账户_'
'睡着_'
'斯'
'图书馆_'
'亨利_'
'泰勒_'
'魔法_'
'奇_'
'内心_'
'阅读_'
'这张_'
'背叛_'
'万一_'
'玻璃_'
'安'
'多次_'
'之下_'
'船上_'
'经济学家_'
'登记_'
'冒_'
'阳光_'
'晚安_'
'偶尔_'
'后悔_'
'此事_'
'先'
'从事_'
'营业_'
'独特_'
'南部_'
'输_'
'信用卡_'
'两'
'不像_'
'太空_'
'设置_'
'尴尬_'
'指数_'
'不止_'
'荣幸_'
'白色_'
'流_'
'注射_'
'提前_'
'城里_'
'克里斯_'
'供_'
'蒂_'
'美'
'留下来_'
'打'
'对话_'
'不准_'
'裤子_'
'有限公司_'
'感_'
'一辈子_'
'鼻子_'
'革命_'
'比例_'
'尽量_'
'丹_'
'男子_'
'糖_'
'故意_'
'扮演_'
'踢_'
'智慧_'
'灯_'
'剩_'
'举办_'
'游泳池_'
'本周_'
'天空_'
'图片_'
'唱歌_'
'人家_'
'总部_'
'动力_'
'公主_'
'幻想_'
'平台_'
'定义_'
'伙伴_'
'争论_'
'纸_'
'行政_'
'打赌_'
'远离_'
'玩具_'
'特工_'
'考试_'
'相似_'
'地下_'
'牛_'
'激烈_'
'敏感_'
'而'
'查理_'
'传播_'
'普遍_'
'凭_'
'詹姆斯_'
'本地_'
'收益_'
'墙_'
'检察官_'
'桥_'
'教会_'
'指导_'
'年纪_'
'花费_'
'罗斯_'
'在我看来_'
'整天_'
'客气_'
'友好_'
'农民_'
'做事_'
'遭遇_'
'李'
'探索_'
'总会_'
'一分钟_'
'大陆_'
'队长_'
'怪物_'
'太'
'秒_'
'海外_'
'执行官_'
'大规模_'
'主义_'
'民众_'
'放开_'
'异常_'
'燃料_'
' ？ ？_'
'段_'
'共和党_'
'依赖_'
'他来_'
'相处_'
'巴_'
'体内_'
'两张_'
'试着_'
'县_'
'动机_'
'情感_'
'在线_'
'如'
'分'
'《 _'
'每周_'
'技巧_'
'当事人_'
'培养_'
'四'
'一人_'
'真'
'盖_'
'毛_'
'剂_'
'芝加哥_'
'塞_'
'发明_'
'发挥_'
'自行车_'
'手中_'
'天呐_'
'上述_'
'蓝色_'
'伊_'
'妓女_'
' ？ - _'
'距_'
'资格_'
'明年_'
'同一个_'
'违反_'
'进步_'
'聊_'
'打破_'
'黑色_'
'小伙子_'
'白_'
'游泳_'
'我敢_'
'外'
'业_'
'便利_'
'灾难_'
'创建_'
'走开_'
'艺术家_'
'当作_'
'交_'
'要'
'上涨_'
'笑话_'
'丝_'
'人数_'
'中央_'
'相互_'
'新兴_'
'海_'
'湖_'
'勒_'
'质疑_'
'培训_'
'主管_'
'午饭_'
'与此同时_'
'一根_'
'一堆_'
'居住_'
'微笑_'
'哪怕_'
'd_'
'诉讼_'
'拖_'
'小镇_'
'尊敬_'
'舞_'
'眼_'
'参议员_'
'来源_'
'明_'
'耳朵_'
'美味_'
'依靠_'
'交换_'
'不去_'
'节_'
'打个_'
'坏人_'
'圈_'
' ？ ”_'
'董事会_'
'民族_'
'人民币_'
'重'
'论文_'
'充分_'
'谎言_'
'临时_'
'谋杀案_'
'沙发_'
'数学_'
'好吃_'
'协助_'
'地面_'
'老天_'
'直升机_'
'嫉妒_'
'规矩_'
'推_'
'医学_'
'摧毁_'
'威尔_'
'关掉_'
'c_'
'货_'
'箱子_'
'街道_'
'支出_'
'指定_'
'全是_'
'随后_'
'签_'
'饼干_'
'广场_'
'但'
'组合_'
'安娜_'
'什_'
'五个_'
'人来_'
'乱_'
'糟_'
'烧_'
'教学_'
'妮_'
'罗'
'卷_'
'成'
'一笔_'
'人才_'
'主任_'
'色_'
'原本_'
'议会_'
'当成_'
'享用_'
'龙_'
'比利_'
'2007_'
'详细_'
'穆斯林_'
'争取_'
'2011_'
'勇气_'
'盒子_'
'按摩_'
'打败_'
'圣_'
'参观_'
'前进_'
'辞职_'
'球员_'
'楼上_'
'排除_'
'收费_'
'上市_'
'娶_'
'临床_'
'构成_'
'损害_'
'争议_'
'如同_'
'交通_'
'这条_'
'古老_'
'连'
'著_'
'获取_'
'教训_'
'农业_'
'倍_'
'接入_'
'鸡蛋_'
'超_'
'布朗_'
'骑_'
'常_'
'吹_'
'部长_'
'迷人_'
'税_'
'王子_'
'所在_'
'当初_'
'五年_'
'欧元区_'
'本'
'运动员_'
'神'
'选民_'
'记_'
'大声_'
'补充_'
'维护_'
'好莱坞_'
'为'
'过于_'
'花园_'
'典型_'
'32_'
'黄金_'
'立场_'
'别碰_'
'凯特_'
'保存_'
'运作_'
'精彩_'
'实践_'
'试_'
'累_'
'山姆_'
'行李_'
'生'
'忍受_'
'舞台_'
'l_'
'文_'
'宣传_'
'中国政府_'
'45_'
'骗子_'
'系_'
'山'
'大道_'
'地板_'
'国外_'
'说实话_'
'裙子_'
'爱'
'气候_'
'手'
'双'
'乐观_'
'街区_'
'清醒_'
'对抗_'
'埋_'
'厂_'
'000_'
'出租车_'
'再'
' ...... _'
'骨头_'
'法'
'技能_'
'我查_'
'得'
'一声_'
'22_'
'那条_'
'肌肉_'
'欺骗_'
'恐怖分子_'
'保安_'
'落_'
'波士顿_'
'干活_'
'属_'
'嘘_'
'三天_'
'第二个_'
'聊天_'
'王'
'周_'
'飞船_'
'肯_'
'此次_'
'本人_'
'授权_'
'层_'
'自信_'
'断_'
'恶魔_'
'那晚_'
'耍_'
'破产_'
'擦_'
'刚好_'
'贡献_'
'致命_'
'红'
'独自_'
'想念_'
'车子_'
'摘要_'
'实行_'
'可靠_'
'边缘_'
'物品_'
'常见_'
'宽敞_'
'巴'
'四_'
'咱俩_'
'发行_'
'出版_'
'笔_'
'安妮_'
'购物_'
'更糟_'
'整理_'
'哥_'
'职责_'
'归_'
'夫妇_'
'男友_'
'查看_'
'时尚_'
'引擎_'
'各国_'
'日'
'援助_'
'陪审团_'
'女生_'
'豪华_'
'深刻_'
'沙'
'持有_'
'成绩_'
'周一_'
'赌_'
'葬礼_'
'签名_'
'化学_'
'光'
'钱包_'
'脑子_'
'暴露_'
'想'
'版本_'
'度假_'
'家长_'
'博客_'
'现有_'
'娱乐_'
'单身_'
'亿_'
'受不了_'
'军_'
'养_'
'导弹_'
'动手_'
'鞋子_'
'运气_'
'舞蹈_'
'留给_'
'球队_'
'每人_'
'借口_'
'不足_'
'一篇_'
'隐瞒_'
'女王_'
'斗争_'
'工_'
'保密_'
'上尉_'
'第三_'
'操_'
'心中_'
'口袋_'
'赶_'
'温度_'
'民主党_'
'我试_'
'头脑_'
'失业_'
'及时_'
'影响力_'
'复苏_'
'圣诞_'
'税收_'
'列_'
'全新_'
'正要_'
'众多_'
'二'
' ！ — — _'
'签署_'
'监督_'
'没想_'
'修_'
'乘客_'
'尽可能_'
'2000_'
'神奇_'
'痛_'
'增强_'
'坚强_'
'单_'
'路线_'
'混合_'
'深_'
'北部_'
'抽_'
'同一_'
'礼貌_'
'款_'
'花'
'保守_'
'驾驶_'
'首都_'
'分离_'
'不安_'
'沙漠_'
'同'
'被迫_'
'症_'
'房屋_'
'微软_'
'应付_'
'市中心_'
'有限_'
'分析师_'
'付钱_'
'上车_'
'观看_'
'雇_'
'镜头_'
'忠诚_'
'一路_'
'服装_'
'主'
'适用_'
'犹太人_'
'急_'
'在内_'
'那次_'
'简_'
'咯_'
'切_'
'谨慎_'
'有过_'
'埃_'
'喝一杯_'
'部落_'
'编辑_'
'日期_'
'搭_'
'指挥_'
'悲伤_'
'女友_'
'哼_'
'信贷_'
'不许_'
'电梯_'
'推荐_'
'心脏病_'
'罗伯特_'
'后'
'装饰_'
'苏联_'
'基'
'吐_'
'陛下_'
'耐心_'
'注册_'
'回'
'开口_'
'四处_'
'克'
'无线_'
'其'
'亚'
' 》 （ _'
'家'
'地下室_'
'制服_'
'今早_'
'除_'
'陌生人_'
'遵守_'
'喝点_'
'车辆_'
'货物_'
'状_'
'日益_'
'小型_'
'任_'
'送给_'
'弹_'
'莎拉_'
'美女_'
'利'
'贴_'
'得以_'
'女孩子_'
'云_'
'赶快_'
'想来_'
'图像_'
'前景_'
'航班_'
'特性_'
'东'
'统一_'
'带'
'小女孩_'
'铁路_'
'空中_'
'我见_'
'大小_'
'仓库_'
'三明治_'
'警长_'
'星_'
'吸烟_'
'克斯_'
'义务_'
'要死_'
'品_'
'取代_'
'一架_'
'船长_'
'撒_'
'惊人_'
'强迫_'
'官_'
'加速_'
'但愿_'
'道理_'
'变态_'
'发言人_'
'车'
'老人_'
'之所以_'
'遇见_'
'连续_'
'综合_'
'负担_'
'模特_'
'所'
'布'
'宝贝儿_'
'五'
'规划_'
'洛_'
'甜心_'
'圣'
'两周_'
' ）_'
'石_'
'检验_'
'助理_'
'风'
'沮丧_'
'宁愿_'
'提交_'
'支票_'
'狼_'
'下跌_'
'有罪_'
'队员_'
'西部_'
'睡眠_'
'文'
'数据库_'
'屋_'
'何时_'
'走出_'
'赚钱_'
'秀_'
'生病_'
'思维_'
'吹风机_'
'看不见_'
'消除_'
'23_'
' 。   _'
'烟_'
'排_'
'托尼_'
'带你去_'
'厌倦_'
'运输_'
'架_'
'整体_'
'困扰_'
'含量_'
'途径_'
'海岸_'
'吉姆_'
'并未_'
'对面_'
'为啥_'
'一顿_'
'艾伦_'
'无论是_'
'小小的_'
'在意_'
'麽_'
'里'
'读者_'
'礼拜_'
'重建_'
'诚实_'
'犯罪现场_'
'威廉_'
'演_'
'每位_'
'南方_'
'难以置信_'
'300_'
'股东_'
'群体_'
'库_'
'女子_'
'交谈_'
'上午_'
'竞争对手_'
'太久_'
'进口_'
'经济体_'
'留言_'
'愿望_'
'很长_'
'一员_'
'真想_'
'白宫_'
'事务_'
'随_'
'科'
'下周_'
'提起_'
'拿来_'
'莫_'
'平静_'
'哈利_'
' 「 _'
'毕竟_'
'条款_'
'审查_'
'过得_'
'爱尔兰_'
'沟通_'
'普_'
'手臂_'
'差异_'
'始终_'
'屋子_'
'同情_'
'魔鬼_'
'足以_'
'调_'
'神圣_'
'打架_'
'开支_'
'尼'
'这部_'
'滚_'
'文明_'
'拿出_'
'废话_'
'从前_'
'座_'
'屋里_'
'小孩子_'
'同志_'
'萨_'
'腐败_'
'投_'
'鸡_'
'该国_'
'电池_'
'毁掉_'
'建_'
'尚未_'
'一整天_'
'金钱_'
'装备_'
'翻译_'
'平板电视_'
'天赋_'
'以此_'
'2012_'
'早上好_'
'体育_'
'页_'
'通_'
'有种_'
'得知_'
'm_'
'远远_'
'蛇_'
'绝不_'
'情形_'
'修改_'
'35_'
'黄'
'诗_'
'报复_'
'懂得_'
'x_'
'转向_'
'效应_'
'工作人员_'
'屋顶_'
'博_'
'辩护_'
'大床_'
'雷'
'自豪_'
'商人_'
'分配_'
'六个月_'
'股市_'
'维'
'碎片_'
'沿_'
'工程师_'
' …   _'
'粉丝_'
'玩意_'
'热'
'点'
'得出_'
'城堡_'
'名叫_'
'不可思议_'
'损伤_'
'很小_'
'臭_'
'半'
'询问_'
'样本_'
'大麻_'
'大幅_'
'许可_'
'脱_'
'整晚_'
'砸_'
'疼痛_'
'牙齿_'
'返回_'
'轨道_'
'联邦调查局_'
'提'
'好运_'
'钻石_'
'泡沫_'
'顺便_'
'战士_'
'尿_'
'学者_'
'头'
'代码_'
'酸奶_'
'肿瘤_'
'第二次_'
'种族_'
'清晰_'
'果汁_'
'掌控_'
'伊'
'雇员_'
'聊聊_'
'毁灭_'
'莉_'
'码头_'
'定位_'
'门口_'
'走向_'
'般_'
'传说_'
'烂_'
'显著_'
'原_'
'宣称_'
'先进_'
'般的_'
'老公_'
'更新_'
'出席_'
'座位_'
'左_'
'奖_'
'创作_'
'上个月_'
'走廊_'
'揍_'
'带给_'
'矛盾_'
'收音机_'
'辆_'
'索_'
'亦_'
'背_'
'翻_'
'哈'
'味_'
'含有_'
'阁下_'
'元素_'
'达'
'利比亚_'
'多个_'
'古'
'单'
'作业_'
' ， ” _'
'吸收_'
'就业_'
'双手_'
'例_'
'万'
'脆弱_'
'磅_'
'爷爷_'
'激情_'
'扩张_'
'帝国_'
'央行_'
'天然气_'
'喝醉_'
'周二_'
'具_'
'丹尼尔_'
'一瓶_'
'稍微_'
'改_'
'学到_'
'地说_'
'er_'
'逃走_'
'效率_'
'大众_'
'墙上_'
'关联_'
'草_'
'苏格兰_'
'浪费时间_'
'射击_'
'波'
'改进_'
'拥抱_'
'器官_'
'两名_'
'辩论_'
'血迹_'
'胳膊_'
'术_'
'合_'
'深入_'
'乐趣_'
'这笔_'
'聚集_'
'极端_'
'[ _'
'饭_'
'负责人_'
'丰盛_'
'观念_'
'补偿_'
'维_'
'旁_'
'摄像头_'
'升级_'
'纳'
'旨在_'
'打扮_'
'害_'
'东_'
'纪念_'
'真是太_'
'电_'
'推进_'
'扫描_'
'剑_'
'青少年_'
'闻_'
'明'
'吸引力_'
'发动_'
'村_'
'摩根_'
'抵达_'
'当年_'
'吉米_'
'财务_'
'姐妹_'
'圣经_'
'配合_'
'股份_'
'绝不会_'
'清洁_'
'梅_'
'外套_'
'团_'
'告知_'
'亲密_'
'进'
'这有_'
'绝望_'
'称之为_'
'每当_'
'抵押_'
'双_'
'冒犯_'
'不怎么_'
'镇上_'
'醒_'
'带我去_'
'反抗_'
'代替_'
'一眼_'
'适当_'
'开展_'
'吃惊_'
'稍_'
'抑制_'
'想见_'
'实话_'
'出发地_'
'一头_'
'Fi_'
' ” （ _'
'最为_'
'形势_'
' ” ？_'
'各个_'
'林'
'大厅_'
'五_'
'不满_'
'一切都是_'
'保险箱_'
'肚子_'
'结局_'
'总'
'农村_'
'不明_'
'转'
'支持者_'
'套_'
'大师_'
'A_'
'那会_'
'美联储_'
'坦白_'
'Wi_'
'雇佣_'
'艾'
'细菌_'
'登_'
'熊_'
'早点_'
'当心_'
'布什_'
'麦_'
'有空_'
'政客_'
'挖_'
'安慰_'
'呼吁_'
'合并_'
'史密斯_'
'公正_'
'融资_'
'素_'
'硬_'
'理念_'
'打断_'
'人质_'
'%   _'
'极_'
'必_'
'弥补_'
' ？   _'
'雨_'
'回头_'
'周五_'
'古怪_'
'缺陷_'
'炒_'
'喊_'
'这才_'
'葡萄酒_'
'时机_'
'指示_'
'传_'
'交往_'
'一刻_'
'凯尔_'
'托马斯_'
'心灵_'
'维尔_'
'标记_'
'国'
'嘲笑_'
' … — _'
'铁'
'测量_'
'宪法_'
'南'
'走路_'
'证券_'
'未能_'
'向前_'
'给出_'
'眼前_'
'政权_'
'奥'
'人人_'
'通讯_'
'设立_'
'艾_'
'冰_'
'饮食_'
'最'
'拜访_'
'平_'
'只好_'
'五分钟_'
'阻碍_'
'看出_'
'张'
'囚犯_'
'周六_'
'偷走_'
'依据_'
'一大_'
'早些时候_'
'场景_'
'商务_'
'叶_'
'分布_'
'面试_'
'无所谓_'
'打死_'
'完善_'
'几'
'其余_'
'通道_'
'进化_'
'进程_'
'成年人_'
'场所_'
'修复_'
'物种_'
'得了吧_'
'主动_'
'骨_'
'抽烟_'
'吉_'
'三次_'
'老实_'
'族_'
'健身_'
'of_'
'至今_'
'坏消息_'
'坏事_'
'哲学_'
'同学_'
'企图_'
'举_'
' .._'
'震惊_'
'航空_'
'多种_'
'各自_'
'凌晨_'
'锻炼_'
'短信_'
'入侵_'
'伯_'
'乡村_'
'乐_'
'频道_'
'瓦_'
'导演_'
'大会_'
'不怕_'
'想像_'
'情_'
'凯文_'
'体现_'
'项_'
'衰退_'
'清单_'
'查尔斯_'
'逃_'
'行事_'
'北_'
'保姆_'
'东部_'
'武装_'
'奴隶_'
'亚当_'
'k_'
'直觉_'
'没能_'
'尔'
'射_'
'吸毒_'
'判决_'
'顶_'
'快要_'
'半个_'
'保障_'
'行星_'
'繁荣_'
'空'
'叙利亚_'
'一道_'
'2006_'
'界_'
'样_'
'无意_'
'以往_'
'专注_'
'27_'
' ，   _'
'迫使_'
'说完_'
'认出_'
'美妙_'
'港_'
'开除_'
'六个_'
'英格兰_'
'紧_'
'温暖_'
'昂贵_'
'出卖_'
'非'
'穿越_'
'正义_'
'庞大_'
'年度_'
'金融危机_'
'轻易_'
'说'
'石'
'瑞士_'
'忽略_'
'甩_'
'华尔街_'
'郡_'
'见见_'
'福利_'
'持_'
'复制_'
'共_'
'1000_'
'造_'
'设计师_'
'相'
'段时间_'
'核_'
'无障碍_'
'嫌疑人_'
'取决于_'
'p_'
'足球_'
'设有_'
'服_'
'女'
'假期_'
'看'
'强奸_'
'卡特_'
'摸_'
'理_'
'放进_'
'两者_'
'上网_'
' ） 、 _'
'烤_'
'港口_'
'好几个_'
'好不好_'
'喜爱_'
'卖掉_'
'近期_'
'超越_'
'接电话_'
'创意_'
'祝_'
'洗澡_'
'他杀_'
'都行_'
'气体_'
'每晚_'
'无疑_'
'携带_'
'好笑_'
'东京_'
'高管_'
'被告_'
'唉_'
'只'
'华_'
'贵_'
'玉米_'
'尼尔_'
'奶酪_'
'嘴里_'
'逃避_'
'远点_'
'斯特_'
'战场_'
'我用_'
'促使_'
'谈到_'
'覆盖_'
'直_'
'戏_'
'形_'
'希尔_'
'任命_'
'一艘_'
'走运_'
'右_'
'角_'
'注定_'
'泡_'
'打来_'
'天生_'
'与其_'
'马丁_'
'迪'
'爵士_'
'反'
'原始_'
'助手_'
'这方面_'
'边境_'
'识别_'
'衬衫_'
'汤_'
'帮帮我_'
'子'
'奥运会_'
'吵架_'
'吵_'
'迈阿密_'
'象征_'
'眼神_'
'气'
'屏幕_'
'困境_'
'经典_'
'残忍_'
'掩护_'
'恋爱_'
'下班_'
'进攻_'
'轮_'
'空调_'
'混_'
'或'
'悲剧_'
'太晚_'
'精力_'
'棒球_'
'萨'
'理查德_'
'极了_'
'本该_'
'干扰_'
'学'
'外交_'
'处在_'
'风暴_'
'赌场_'
'缓慢_'
'每'
'松_'
'决策_'
'做梦_'
'运营_'
'晚饭_'
'恶化_'
'影片_'
'平等_'
'g_'
'诊所_'
'目前为止_'
'周日_'
'史蒂夫_'
'会面_'
'货车_'
'蔬菜_'
'合伙人_'
'严肃_'
'血管_'
'忽视_'
'念_'
'局面_'
'外部_'
'四年_'
'变'
'全身_'
'蠢_'
'添加_'
'了不起_'
'重视_'
'福_'
'洗手间_'
'帕_'
'关门_'
'on_'
'虫_'
'社会主义_'
'干杯_'
'名称_'
'下车_'
'饭店_'
'萨姆_'
'苏'
'楼下_'
'家具_'
'刺_'
'诅咒_'
'活力_'
'极其_'
'强壮_'
'协调_'
'酸_'
'特色_'
'没人会_'
'旋转_'
'警报_'
'排放_'
'岛上_'
'过分_'
'街头_'
'绑_'
'案例_'
'慢_'
'平民_'
'一番_'
'一处_'
'预定_'
'青年_'
'模拟_'
'政党_'
'指挥官_'
'干预_'
'州长_'
'对比_'
'吓坏_'
'华'
'通胀_'
'越南_'
'知不知道_'
'清'
'寄_'
'千万_'
'冲击_'
'骑士_'
'首相_'
'猜测_'
'挑_'
'友谊_'
'出门_'
'物理_'
'土耳其_'
'古代_'
'凶器_'
'为止_'
'说好_'
'有利_'
'首歌_'
'玛_'
'流血_'
'普'
'我俩_'
'形状_'
'外星人_'
'受够了_'
'写作_'
'偷偷_'
'上课_'
'26_'
' － _'
'设法_'
'老妈_'
'未'
'新加坡_'
'支撑_'
'少数_'
'围绕_'
'右边_'
'北方_'
'蛋_'
'审讯_'
'犯人_'
'昏迷_'
'尖叫_'
'宴会_'
'因'
'创始人_'
'作战_'
'中午_'
'阿拉伯_'
'群_'
'立_'
'瑞'
'叫'
'车祸_'
'规范_'
'所知_'
'州际公路_'
'模仿_'
'手套_'
'丑闻_'
'一枪_'
'极大_'
'改造_'
'决心_'
'具备_'
'代_'
'2005_'
'这话_'
'回归_'
'六'
'价_'
'经济学_'
'纹身_'
'瞧瞧_'
'电力_'
'电'
'商_'
'俄国_'
'不太好_'
'跟我来_'
'脱离_'
'罪行_'
'经纪人_'
'火'
'桌上_'
'服务器_'
'放'
'噩梦_'
'占据_'
'包裹_'
'包'
'之上_'
'自私_'
'平常_'
'大门_'
'塔'
'别跟我_'
'主张_'
'物体_'
'牙_'
'楼梯_'
'或者说_'
'发起_'
'供应商_'
'产量_'
'资助_'
'荒谬_'
'眼镜_'
'相机_'
'有力_'
'快'
'领先_'
'汉堡_'
'服用_'
'文学_'
'掩盖_'
'拜_'
'抵抗_'
'头部_'
'行'
'荣誉_'
'碳_'
'盘_'
'泰国_'
'杰夫_'
'最低_'
'堡_'
'另一方面_'
'前任_'
'人体_'
'讽刺_'
'见鬼_'
'有点儿_'
'操纵_'
'性格_'
'哈里_'
'作证_'
'联络_'
'油'
'支援_'
'尺寸_'
'害死_'
'右转_'
'凯瑟琳_'
'铁_'
'还'
'股价_'
'缺少_'
'兰'
'上司_'
'输入_'
'脑子里_'
'罪名_'
'源_'
'格雷_'
'实力_'
'大事_'
'冲动_'
'言_'
'猴子_'
'成果_'
'引导_'
'这块_'
'营销_'
'燃烧_'
'标签_'
'广播_'
'工会_'
'博'
'信用_'
' & _'
'统计_'
'环保_'
'烦_'
'左转_'
'可笑_'
'今日_'
'认可_'
'种子_'
'收回_'
'南非_'
'人权_'
' " 。_'
'酒精_'
'这句_'
'瓶_'
'现状_'
'本质_'
'性'
'娅_'
'吉'
'事要_'
'中学_'
'波兰_'
'发作_'
'下载_'
'疗法_'
'湾_'
'带回_'
'别无选择_'
'42_'
'飞行员_'
'这太_'
'研究所_'
'清_'
'处境_'
'吸_'
'下手_'
'28_'
'踩_'
'火箭_'
'杰_'
'引用_'
'已有_'
'击中_'
'减轻_'
'伴侣_'
'一无所知_'
'闻到_'
'演奏_'
'活跃_'
'树林_'
'春天_'
'因而_'
'逃脱_'
'杀掉_'
'伊斯兰_'
'代理_'
' - - - _'
'画面_'
'就行_'
'奇'
'致力于_'
'科尔_'
'护理_'
'低于_'
'举动_'
'这片_'
'读书_'
'歌曲_'
'星期五_'
'店里_'
'兵_'
'一口_'
'血'
'法官大人_'
'指标_'
'情人_'
'大多_'
'冬天_'
'你'
'镜子_'
'逻辑_'
'盐_'
'皇家_'
'此类_'
'新娘_'
'总有一天_'
'廉价_'
'少'
'周四_'
'事'
'辐射_'
'谴责_'
'薪水_'
'瑞_'
'熨斗_'
'摄像机_'
'扯_'
'很'
'印_'
'包装_'
'体重_'
'说些_'
'理智_'
'烦恼_'
'淋浴_'
'流动_'
'早已_'
'总有_'
'干'
'功夫_'
'买卖_'
'须_'
'箱_'
'查查_'
'扎_'
'守_'
'十分钟_'
'音_'
'重要性_'
'重组_'
'救护车_'
'平时_'
'小家伙_'
'基金会_'
'后退_'
'克莱尔_'
'赶到_'
'警察局_'
'莫'
'莎_'
'相应_'
'皮'
'月球_'
'侦探_'
'香肠_'
'死定了_'
'循环_'
'好点_'
'基督教_'
'名'
'切断_'
'侵犯_'
'个性_'
'算了吧_'
'歌手_'
'小丑_'
'名义_'
'赋予_'
'系列_'
'研究者_'
'格'
'文字_'
'平板_'
'奖励_'
'地铁_'
'各地_'
'以至于_'
'不利_'
'雪_'
'芯片_'
'和谐_'
'共享_'
'精确_'
'电子邮件_'
'无数_'
'放心_'
'我爸_'
'希'
'唱片_'
'剧本_'
'b_'
'非常感谢_'
'激励_'
'替代_'
'料_'
'第一天_'
'得不到_'
'威_'
'丧失_'
'飞'
'门'
'淘汰_'
'毒_'
'找'
'午夜_'
'入口_'
'莫斯科_'
'老朋友_'
'挣扎_'
'哟_'
'长得_'
'理性_'
'毫无疑问_'
'查克_'
'机械_'
'压_'
'边界_'
'规律_'
'租_'
'旅客_'
'成分_'
'很酷_'
'福'
'游_'
'木_'
'慈善_'
'展现_'
'传递_'
'汇率_'
'村庄_'
'换个_'
'性质_'
'回事_'
'前提_'
'刚'
'降落_'
'载_'
'谷_'
'整整_'
'弄清楚_'
'土壤_'
'只想_'
'阿里_'
'邦_'
'逃离_'
'补贴_'
'电视台_'
'构建_'
'恩'
'响_'
'鬼魂_'
'隐私_'
'缩小_'
'爱人_'
'焦虑_'
'洛'
'沙发床_'
'当天_'
'平'
'会见_'
'流'
'旧金山_'
'救援_'
'左边_'
'客厅_'
'商场_'
'香槟_'
'排名_'
'担保_'
'性能_'
'周三_'
'劳动_'
'也就是说_'
'节日_'
'少校_'
'北'
'先前_'
'该'
'瓦'
'提取_'
'崇拜_'
'取出_'
'过敏_'
'虐待_'
'福特_'
'百'
'必然_'
'奖金_'
'名人_'
'受过_'
'两家_'
'随意_'
'起'
'贝'
'看待_'
'气氛_'
'仿佛_'
'h_'
'遭_'
'泄露_'
'枪击_'
'战_'
'开着_'
'布莱尔_'
'富裕_'
'塞'
'之际_'
'移植_'
'直'
'沃尔特_'
'古_'
'分散_'
'英国人_'
'突破_'
'祝贺_'
'炸_'
'梅'
'做'
'龙'
'误会_'
'证词_'
'解除_'
'脑_'
'法规_'
'木'
'弗_'
'品质_'
'名为_'
'反而_'
'不信_'
'鉴于_'
'突出_'
'更'
'意_'
'开会_'
'骨折_'
'酷_'
'消灭_'
'沙_'
'曼哈顿_'
'妨碍_'
'夫妻_'
'佛_'
'那好_'
'迷你_'
'这辆_'
'起床_'
'皮特_'
'珠宝_'
'欲望_'
'卡拉_'
'不吃_'
'防御_'
'至于_'
'短期_'
'目击者_'
'男生_'
'拍照_'
'底_'
'巧合_'
'丽_'
'严厉_'
'google_'
'超'
'贝尔_'
'讲述_'
'股_'
'模糊_'
'集体_'
'阿曼_'
'菜单_'
'# _'
'陈'
'航空公司_'
'继承_'
'着手_'
'李_'
'散步_'
'意愿_'
'塑料_'
'别提_'
'再也不会_'
'一组_'
'荷兰_'
'玫瑰_'
'清除_'
'有意_'
'安迪_'
'呈_'
'占领_'
'信念_'
'不来_'
'肩膀_'
'洛克_'
'推迟_'
'幽灵_'
'市民_'
'召开_'
'修好_'
'会员_'
'面'
'超出_'
'确切_'
'热爱_'
'搞错_'
'搞笑_'
'应用程序_'
'封锁_'
'制造业_'
'买家_'
'中情局_'
'丁_'
'一副_'
'琳_'
'沙滩_'
'播放_'
'恐慌_'
'匹配_'
'准_'
'兔子_'
'一家人_'
'配_'
'解决方案_'
'现代化_'
'欢乐_'
'有点像_'
'护照_'
'懂吗_'
'尽情_'
'完毕_'
'作'
'难受_'
'设定_'
'肮脏_'
'灵感_'
'此'
'斯坦_'
'据我所知_'
'太阳能_'
'命名_'
'剧院_'
'会计_'
'主权_'
'facebook_'
'鲨鱼_'
'短暂_'
'疫苗_'
'电话号码_'
'气候变化_'
'军方_'
'37_'
' 」 _'
'通话_'
'祝福_'
'码_'
'琳娜_'
'接收_'
'嫌疑犯_'
'鲍勃_'
'风味_'
'针_'
'说不定_'
'海盗_'
'星星_'
'恒星_'
'包围_'
'事务所_'
'立法_'
'别想_'
'入'
'七'
'一首_'
'遗传_'
'资本主义_'
'诸如_'
'菲_'
'考验_'
'势力_'
'住宅_'
'辛苦_'
'外界_'
'回复_'
'创伤_'
'乖乖_'
'不管怎么_'
'一所_'
'月亮_'
'无需_'
'大胆_'
'设_'
'策划_'
'玩意儿_'
'格林_'
'扩展_'
'性爱_'
'大使_'
'地盘_'
'含_'
'后者_'
'乘_'
'黄色_'
'纤维_'
'真不错_'
'求求_'
'每日_'
'晚点_'
'帕'
'小男孩_'
'转换_'
'琼斯_'
'棒极了_'
'日常_'
'幻觉_'
'发现自己_'
'销量_'
'患_'
'底下_'
'他家_'
'一阵_'
'贱人_'
'角落_'
'管道_'
'旅程_'
'录_'
'古巴_'
'发动机_'
'初步_'
'体制_'
'价钱_'
'com_'
'预防_'
'煮_'
'泰'
'怪异_'
'几十年_'
'使命_'
'今后_'
'纯粹_'
'穷人_'
'无线电_'
'抓到_'
'心跳_'
'岩石_'
'坐牢_'
'步_'
'欧'
'所作所为_'
'巴士_'
'巨头_'
'司法_'
'受'
'企业家_'
'亮_'
'鲁'
'贫穷_'
'自愿_'
'无人_'
'土_'
'困惑_'
'列车_'
'八'
'克服_'
'银行家_'
'孤单_'
'出事_'
'闹钟_'
'舌头_'
'推测_'
'带领_'
'威士忌_'
'克林顿_'
'蓝_'
'膝盖_'
'胸部_'
'索'
'死刑_'
'太平洋_'
'地毯_'
'依旧_'
'一团糟_'
'茨_'
'秘书_'
'相当于_'
'尝尝_'
'太大_'
'城镇_'
'全套_'
'赌博_'
'贝_'
'诺'
'获胜_'
'缓解_'
'比如说_'
'明智_'
'大选_'
'咋_'
'升_'
'调'
'解决问题_'
'新型_'
'手表_'
'总结_'
'动物园_'
'删除_'
'几点_'
'之旅_'
'落后_'
'绳子_'
'治_'
'整'
'善良_'
'可疑_'
'劳动力_'
'一层_'
'一小_'
'这么久_'
'袋_'
'蓝'
'真理_'
'救命_'
'搞清楚_'
'履行_'
'分类_'
'军人_'
'争吵_'
'世界各地_'
'骂_'
'阴谋_'
'过后_'
'机关_'
'方'
'收'
'常'
'不住_'
'150_'
'贼_'
'精英_'
'白天_'
'瑟_'
'暂停_'
'拉斯维加斯_'
'手枪_'
'年'
'已'
'封_'
'基础设施_'
'真心_'
'形容_'
'宽_'
'伊丽莎白_'
'事先_'
'一款_'
'阳台_'
'通信_'
'编_'
'液晶电视_'
'杰西_'
'口气_'
'危害_'
'中尉_'
'问过_'
'走过_'
'营养_'
'色彩_'
'考_'
'纪录_'
'来讲_'
'妥协_'
'一共_'
'75_'
'400_'
' … … — — _'
'险_'
'至关重要_'
'求婚_'
'校长_'
'日记_'
'政治家_'
'收获_'
'失控_'
'原理_'
'劝_'
'会议室_'
'会儿_'
'丢下_'
'陷阱_'
'诱惑_'
'言论_'
'条约_'
'挑选_'
'尚_'
'封信_'
'分裂_'
'不对劲_'
' ， " _'
'费'
'药品_'
'牛排_'
'欧式_'
'伪造_'
'乔伊_'
'一趟_'
'轮胎_'
'玛'
'敲_'
'坚定_'
'吃晚饭_'
'优质_'
'驻_'
'谷类_'
'视觉_'
'开火_'
'姓_'
'冰'
'伴随_'
'零_'
'爆_'
'战胜_'
'希_'
'各'
'做生意_'
'从中_'
'一向_'
'起飞_'
'蛋白质_'
'肺_'
'眼中_'
'查出_'
'更是_'
'思'
'大不了_'
'晚会_'
'布莱恩_'
'偶然_'
'专利_'
'轻'
'紧缩_'
'此前_'
'敢肯定_'
'发疯_'
'侮辱_'
'雅'
'潜力_'
'星期一_'
'基督_'
'足_'
'手法_'
'开启_'
'延长_'
'埃里克_'
'喉咙_'
'半小时_'
'不论_'
'运转_'
'无效_'
'打过_'
'总裁_'
'好些_'
'土'
'合约_'
'一点儿_'
'订_'
'放过_'
'成千上万_'
'存_'
'击败_'
'仆人_'
'人能_'
'美食_'
'种类_'
'测定_'
'死'
'放手_'
'打扫_'
'加快_'
'个'
'f_'
' ......   _'
'齐_'
'粉_'
'种植_'
'普拉斯_'
'投降_'
'完蛋_'
'夜_'
'利亚_'
'那辆_'
'稍后_'
'教室_'
'呼叫_'
'修理_'
'买下_'
'一幅_'
'轻_'
'股权_'
'汤米_'
'损坏_'
'前来_'
'几小时_'
'香_'
'香'
'身后_'
'证_'
'结_'
'终止_'
'线路_'
'称呼_'
'有名_'
'提名_'
'家中_'
'名声_'
'发送_'
'关上_'
'优先_'
'预约_'
'解开_'
'肖恩_'
'治愈_'
'望_'
'拘留_'
'小狗_'
'好象_'
'原'
' ! _'
'起到_'
'艺术品_'
'生态_'
'滑雪_'
'游行_'
'温和_'
'欧_'
'机'
'戴尔_'
'出血_'
'公'
'下滑_'
'质_'
'英镑_'
'残酷_'
'挡_'
'分歧_'
'依_'
'住宿_'
'钓鱼_'
'这时_'
'蒙_'
'签字_'
'瑞典_'
'极度_'
'有机_'
'干涉_'
'对冲_'
'变革_'
'阐述_'
'路'
'美国政府_'
'快去_'
'嘴唇_'
'便是_'
'三分之一_'
' … …   _'
'贾_'
'珍妮_'
'王国_'
'汽油_'
'尼斯_'
'室友_'
'地带_'
'圣诞老人_'
'呈现_'
'储备_'
'身材_'
'秩序_'
'海上_'
'最多_'
'可行_'
'内裤_'
'亚马逊_'
'赞成_'
'贫困_'
'祖先_'
'硬币_'
'用力_'
'玩得_'
'接手_'
'卫生_'
'医师_'
'例外_'
'面具_'
'请问_'
'被困_'
'董事_'
'照看_'
'波特_'
'斯科特_'
'戴'
'带子_'
'低'
'预言_'
'隔离_'
'萨拉_'
'艘_'
'扔掉_'
'志愿者_'
'B_'
'那场_'
'衡量_'
'等于_'
'病例_'
'有何_'
'星系_'
'明早_'
'自助_'
'脾气_'
'整合_'
'士_'
'厨师_'
'住房_'
'退后_'
'莱'
'翅膀_'
'插_'
'太快_'
'碎_'
'熟_'
'性命_'
'很久_'
'介入_'
'一封_'
'29_'
'采购_'
'追查_'
'看吧_'
'焦点_'
'深'
'法语_'
'气味_'
'思_'
'山上_'
'告_'
'乔'
'订婚_'
'蛋白_'
'漫长_'
'温_'
'杰克逊_'
'星期六_'
'我花_'
'幽默_'
'高层_'
'车站_'
'超市_'
'打交道_'
'必'
'定'
'伯格_'
'雇主_'
'步行_'
'按钮_'
'托'
'废物_'
'场合_'
'DNA_'
'违法_'
'米'
'慷慨_'
'以防_'
'两倍_'
'骚扰_'
'频率_'
'诞生_'
'认同_'
'目击_'
'由'
'此时_'
'巡逻_'
'复仇_'
'动脉_'
'办公桌_'
'优雅_'
'认知_'
'见证_'
'盈利_'
'忘掉_'
'强制_'
'加大_'
'体'
'与众不同_'
'闯入_'
'袋子_'
'糖尿病_'
'然_'
'清白_'
'宽恕_'
'从此_'
' ‘ _'
'集会_'
'说起_'
'本国_'
'曼'
'心理学_'
'全体_'
'休闲_'
'最快_'
'故障_'
'很久以前_'
'密切_'
'夺走_'
'军官_'
' ...   -   _'
'绕_'
'练_'
'披萨_'
'建筑物_'
'小偷_'
'失陪_'
'卡扎菲_'
'于'
'通用_'
'说道_'
'注入_'
'指令_'
'我想_'
'佬_'
'难'
'避开_'
'研发_'
'救助_'
'指'
'戏剧_'
'屋子里_'
'大厦_'
'2004_'
'门票_'
'盘子_'
'国民_'
'六_'
' … … — _'
'通'
'赶上_'
'竞争力_'
'多长时间_'
'凯西_'
'充足_'
'这间_'
'绅士_'
'房里_'
'季节_'
'傻子_'
' … ..._'
'难题_'
'阴影_'
'管制_'
'皆_'
'毛病_'
'接'
'排队_'
'常规_'
'帮个_'
'吃掉_'
'加剧_'
'风景_'
'银行业_'
'选'
'这来_'
'跑步_'
'脂肪_'
'窗口_'
'监禁_'
'景观_'
'敬_'
'层面_'
'停留_'
'交'
'一同_'
'汉_'
'昨天晚上_'
'无限_'
'新人_'
'录音_'
'展览_'
'天天_'
'大学生_'
'千万别_'
'主持_'
'主义者_'
' ！ ！_'
'麦'
'食_'
'隧道_'
'苏珊_'
'看电视_'
'杜'
'报酬_'
'字母_'
'商量_'
'反复_'
'再有_'
'会谈_'
'亚历克斯_'
'温柔_'
'戴维_'
'战术_'
'可悲_'
'卧底_'
'业绩_'
'高于_'
'领土_'
'遍_'
'查'
'拍卖_'
'当做_'
'凯'
'亲戚_'
'酶_'
'看作_'
'报导_'
'坚信_'
'喝杯_'
'代'
'不用说_'
'一代_'
'选票_'
'辅助_'
'精神病_'
'犬_'
'火灾_'
'感冒_'
'史'
'兼_'
'伦_'
'专用_'
'一批_'
'没收_'
'条例_'
'意图_'
'很多年_'
'将近_'
'周期_'
'叶'
'一方_'
'雅_'
'认定_'
'新来_'
'审问_'
'定期_'
'图'
'口'
'预订_'
'糖果_'
'目的地_'
'犹太_'
'机密_'
'怎_'
'加工_'
'信'
'解_'
'西装_'
'结'
'灯光_'
'无比_'
'扭曲_'
'性别_'
'里斯_'
'营地_'
'眼'
'毕业生_'
'放缓_'
'幕后_'
'好孩子_'
'加以_'
'修女_'
'产_'
'狂_'
'牛仔_'
'沉默_'
'比起_'
'杀人犯_'
'开个_'
'康复_'
'威'
'委托人_'
'夏季_'
'埃'
'同伴_'
'车库_'
'赔偿_'
'脚'
'永久_'
'每月_'
'应'
'学术_'
'唐_'
'再来_'
'一时_'
'退_'
'过夜_'
'赞同_'
'检查一下_'
'未经_'
'找回_'
'患有_'
'当选_'
'佛罗里达_'
' ！ ”_'
'陷害_'
'融合_'
'笨_'
'数'
'岛屿_'
'小姑娘_'
'客_'
'匿名_'
'修'
'传送_'
'东方_'
'面积_'
'莱_'
'糕点_'
'登上_'
'狂热_'
'牛'
'极为_'
'收藏_'
'抛_'
'才行_'
'可恶_'
'做成_'
'享有_'
'重量_'
'这套_'
'胖_'
'祷告_'
'民_'
'杂种_'
'存款_'
'透过_'
'身'
'裁决_'
'甜点_'
'环_'
'特里_'
'泳池_'
'柏林_'
'总体_'
'尽管如此_'
'发达国家_'
'削弱_'
'偶像_'
'一流_'
'问'
'花钱_'
'破裂_'
'搜寻_'
'提示_'
'成员国_'
'戈_'
'吓人_'
'另一边_'
'千'
'做饭_'
'通往_'
'豪斯_'
'英'
'终结_'
'汇报_'
'果_'
'最小_'
'摇滚_'
'小屋_'
'奈特_'
'在'
'十'
'会为_'
'隔壁_'
'运_'
'装修_'
'渐渐_'
'活下去_'
'某种程度_'
'捡_'
'招_'
'回顾_'
'厌恶_'
'中东_'
'配置_'
'站住_'
'立'
'生产商_'
'撤销_'
'挽救_'
'夹_'
'哪'
'免疫_'
'伯'
' ？ ！ _'
'觉_'
'被判_'
'等不及_'
'市区_'
'安德鲁_'
'夸张_'
'前途_'
'内疚_'
'传达_'
'下令_'
'金发_'
'警卫_'
'胃_'
'管'
'看好_'
'波动_'
'昨日_'
'摩托车_'
'妈咪_'
'好转_'
'团结_'
'品种_'
'办理_'
'共和国_'
'举措_'
'酗酒_'
'酒'
'罪恶_'
'沃_'
'前台_'
'书籍_'
'为例_'
'48_'
'音乐会_'
'钢琴_'
'种种_'
'百万_'
'激发_'
'投诉_'
'巫师_'
'发型_'
'剧_'
'光明_'
'不起_'
'首_'
'这样的话_'
'船员_'
'船'
'罢工_'
'液_'
'拉里_'
'房产_'
'微'
'帐篷_'
'局长_'
'商学院_'
'储蓄_'
'何'
'2003_'
' ...._'
'遥远_'
'英_'
'罕见_'
'粒子_'
'知_'
'河流_'
'家乡_'
'呗_'
'也好_'
'不远_'
'雪'
'钟_'
'菲尔德_'
'生涯_'
'火山_'
'坦_'
'乐'
'丢失_'
'迪克_'
'越'
'脏_'
'第二天_'
'私下_'
'由此_'
'狮子_'
'学位_'
'卷入_'
'体会_'
'人选_'
'人去_'
'the_'
'驱动_'
'走走_'
'洪水_'
'总能_'
'引爆_'
'寻常_'
'宾馆_'
'姓名_'
'外表_'
'坏蛋_'
'哭泣_'
'赤字_'
'群岛_'
'第三个_'
'德国人_'
'国债_'
'合成_'
'切'
'冲浪_'
'盒_'
'智能手机_'
'掩饰_'
'少年_'
'天然_'
'吉他_'
'仇恨_'
'药'
'若'
'温'
'杯子_'
'文档_'
'想干什么_'
'强劲_'
'希特勒_'
'子女_'
'听过_'
'军'
'鸡尾酒_'
'验证_'
'警员_'
'湿_'
'根'
'普通人_'
'时会_'
'无视_'
'德里克_'
'得来_'
'强'
'台上_'
'别墅_'
'出名_'
'今天下午_'
'瞎_'
'最有_'
'意志_'
'列表_'
'凡_'
'全球化_'
'颗_'
'醉_'
'送来_'
'约翰逊_'
'端_'
'橄榄球_'
'打造_'
'局势_'
'完'
'太过_'
'传奇_'
'一大堆_'
'章_'
'点子_'
'星期天_'
'收取_'
'抹_'
'师父_'
'表'
'菲尔_'
'晓得_'
'摔_'
'噪音_'
'吃'
'一轮_'
'遗产_'
'枕头_'
'本土_'
'期限_'
'征服_'
'寂寞_'
'女巫_'
' 》 。_'
'荣耀_'
'糟透了_'
'疑问_'
'帕特里克_'
'勒'
'保'
'人工_'
'人为_'
' 》 ， _'
'防'
'那件事_'
'路易斯_'
'胡'
'童年_'
'疑犯_'
'强硬_'
'尽头_'
'大海_'
'参议院_'
'化'
'低估_'
'一级_'
'醒醒_'
'苏_'
'目光_'
'灵_'
'早'
'揭示_'
'惊奇_'
'室外_'
'反对派_'
'不但_'
'馆_'
'频繁_'
'迷_'
'连环_'
'诗人_'
'相爱_'
'现_'
'毛巾_'
'本能_'
'星'
'接管_'
'心理医生_'
'平安_'
'印尼_'
'下雨_'
'西雅图_'
'精'
'收养_'
'换句话说_'
'挖掘_'
'帕克_'
'富人_'
'前妻_'
'共和党人_'
'乘坐_'
'遵循_'
'缅甸_'
'礼服_'
'母_'
'感恩节_'
'情'
'透明_'
'森'
'易'
'孙子_'
'传'
'丢掉_'
'上演_'
' 。 。_'
'订单_'
'船只_'
'瘦_'
'男'
'爱上_'
'树'
'枪支_'
'待遇_'
'形态_'
'幸存者_'
'姿势_'
'发展中国家_'
'决议_'
'低调_'
'陈述_'
'解'
'蠢货_'
'英文_'
'球'
'爸妈_'
'深度_'
'林肯_'
'昆虫_'
'斯蒂芬_'
'推翻_'
'推广_'
'失业率_'
'哪来_'
'去'
'做不了_'
'一股_'
'项链_'
'这起_'
'身份证_'
'苦_'
'用品_'
'校园_'
'施_'
'招聘_'
'宝贵_'
'口味_'
'初_'
'一夜_'
'u_'
'馅饼_'
'里德_'
'液体_'
'新生_'
'捅_'
'打中_'
'戴夫_'
'康'
'干脆_'
'大臣_'
'亲人_'
'航行_'
'瓶子_'
'峰会_'
'写道_'
'911_'
'评级_'
'蜡烛_'
'考虑一下_'
'核武器_'
'景点_'
'工'
'堆_'
'善于_'
'减肥_'
'一辆车_'
'顶级_'
'赶走_'
'走'
'见'
'毛'
'扣_'
'帅哥_'
'周'
'仁慈_'
'人性_'
'九'
'丹'
'魔_'
'领_'
'负_'
'蒂'
'猜猜_'
'治理_'
'棘手_'
'得分_'
'床单_'
'就是说_'
'回避_'
'傲慢_'
'个体_'
'不太可能_'
'飓风_'
'鉴定_'
'这类_'
'血压_'
'薪酬_'
'获_'
'桶_'
'指甲_'
'当代_'
'厚_'
'华夫饼_'
'伪装_'
'七_'
'鱼'
'霍'
'闹_'
'透_'
'眼里_'
'盟友_'
'犯下_'
'永恒_'
'枪杀_'
'最早_'
'摄影_'
'接吻_'
'指着_'
'手术室_'
'恐吓_'
'差别_'
'场面_'
'力'
'保住_'
'今_'
'一枚_'
'澡_'
'泰_'
'没人能_'
'撤离_'
'把握_'
'帮派_'
'哈佛_'
'之地_'
'gdp_'
'31_'
'逐步_'
'观_'
'汀_'
'引入_'
'延伸_'
'布鲁克_'
'小队_'
'多大_'
'可卡因_'
'北美_'
'北约_'
'一类_'
'胡子_'
'提及_'
'换'
'感动_'
'外国人_'
'云'
'专心_'
'院_'
'部位_'
'误解_'
'米奇_'
'眼泪_'
'生成_'
'火星_'
'消耗_'
'杆_'
'打包_'
'复'
'塔克_'
'叛徒_'
'双人床_'
'参考_'
'凯_'
'使'
'位子_'
'亚瑟_'
'不爽_'
'视线_'
'群众_'
'缺点_'
'纷纷_'
'框架_'
'来过_'
'旧'
'整_'
'撞击_'
'感谢上帝_'
'坟墓_'
'及'
'迎接_'
'融入_'
'网页_'
'祖父_'
'支_'
'招待_'
'拆_'
'抗_'
'我先_'
'布置_'
'就此_'
'守卫_'
'失'
'冰淇淋_'
'假'
'传言_'
' ， "   _'
' #_'
'降_'
'追捕_'
'表格_'
'行程_'
'荒唐_'
'膜_'
'美金_'
'经'
'礼_'
'弱点_'
'单词_'
'准时_'
'写信_'
'粮食_'
'病'
'流感_'
'摄影师_'
'执政_'
'我点_'
'影子_'
'布鲁斯_'
'双胞胎_'
'单纯_'
'单一_'
'内在_'
'做手术_'
'亲近_'
'主流_'
'赫'
'许可证_'
'视_'
'篮球_'
'皇后_'
'永不_'
'永'
'正当_'
'挣_'
'扩散_'
'多人_'
'声'
'先知_'
'走上_'
'目录_'
'失误_'
'发育_'
'其次_'
'一具_'
'这人_'
'色'
'珍贵_'
'灰色_'
'执法_'
'帐户_'
'工艺_'
'局里_'
'发给_'
'以免_'
'不成_'
'铺_'
'野兽_'
'罗杰_'
'维多利亚_'
'符号_'
'玩家_'
'爽_'
'爱好者_'
'此刻_'
'更改_'
'无力_'
'恰当_'
'婚_'
'塔利班_'
'到时候_'
'几率_'
'全家_'
'乔布斯_'
'C_'
'迟_'
'贿赂_'
'经济衰退_'
'紧密_'
'笔记本_'
'田_'
'爱德华_'
'死因_'
'晕_'
'放大_'
'怀念_'
'和解_'
'露_'
'郊区_'
'流程_'
'总算_'
'夏威夷_'
'凯蒂_'
'羞辱_'
'海边_'
'有利于_'
'布鲁克林_'
'吻合_'
'一号_'
'36_'
'黑帮_'
'职业生涯_'
'打印_'
'建'
'喝咖啡_'
'储存_'
'保险公司_'
'不感兴趣_'
' ， — _'
'近来_'
'转身_'
'秋天_'
'沙拉_'
'步骤_'
'树木_'
'微型_'
'很糟_'
'夏'
'合'
'剥夺_'
'马特_'
'非得_'
'部署_'
'调节_'
'装'
'肝脏_'
'祖母_'
'探长_'
'挤_'
'指向_'
'总得_'
'帐_'
'吉布斯_'
'八个_'
'交叉_'
'黄_'
'银'
'萧条_'
'职务_'
'氧气_'
'本月_'
'易_'
'明晚_'
'手腕_'
'哥们儿_'
'中部_'
'两分钟_'
'违背_'
'边上_'
'貌似_'
'来临_'
'披露_'
'布莱克_'
'实'
'各种各样_'
'压'
'休_'
'井_'
'难堪_'
'路程_'
'职员_'
'署_'
'神话_'
'破'
'权威_'
'改'
'句_'
'动'
'制'
'决赛_'
'倒霉_'
'高效_'
'试'
'被'
'网'
'瞄准_'
'找点_'
'安保_'
'动荡_'
'初'
'保镖_'
'两国_'
'不可避免_'
'趟_'
'费城_'
'设想_'
'约瑟夫_'
'等级_'
'清洗_'
'活'
'江_'
'拼命_'
'抽屉_'
'弱_'
'党派_'
'书'
'中断_'
'院子_'
'采取行动_'
'趴下_'
'融化_'
'致_'
'签证_'
'班'
'屎_'
'存储_'
'含义_'
'伸出_'
'an_'
'赛'
'董事长_'
'膨胀_'
'美军_'
'成年_'
'库'
'困_'
'四分之一_'
'先是_'
'专'
'集合_'
'阿根廷_'
'诡异_'
'没来_'
'正面_'
'文本_'
'指引_'
'寒冷_'
'娃娃_'
'友善_'
'制裁_'
'八_'
'光线_'
'健身房_'
'侧_'
'上诉_'
'一队_'
'阿姨_'
'错'
'认得_'
'脱掉_'
'瞒_'
'睡不着_'
'滚开_'
'有毒_'
'卑鄙_'
'迷路_'
'路边_'
'贪婪_'
'激光_'
'海水_'
'来得_'
'最棒_'
'提过_'
'我错_'
'当晚_'
'帮帮_'
'告别_'
'办事_'
'列'
'决不_'
'付费_'
'世'
'七个_'
'D_'
'跟上_'
'赞美_'
'蜜蜂_'
'瀑布_'
'无能为力_'
'数目_'
'推'
'太小_'
'垫_'
'场地_'
'变暖_'
'偿还_'
'高盛_'
'零售_'
'这辈子_'
'论坛_'
'补'
'蜘蛛_'
'级别_'
'生理_'
'星期二_'
'新年_'
'控告_'
'帽_'
'帮不了_'
'头痛_'
'卡片_'
'付出代价_'
'仅此而已_'
'主导_'
'象征性_'
'蒙'
'菲律宾_'
'用不着_'
'滑_'
'洞穴_'
'松'
'望远镜_'
'戴上_'
'怀特_'
'如果说_'
'哥伦比亚_'
'参与者_'
'保_'
'随机_'
'超能力_'
'苹果公司_'
'羊_'
'留'
'画家_'
'散_'
'当地人_'
'展_'
'可用_'
'口音_'
'劳'
'从小_'
'两只_'
'齐'
'迷失_'
'运送_'
'试过_'
'特权_'
'排练_'
'巨额_'
'安置_'
'妞_'
'即可_'
'仪器_'
'下场_'
'遇上_'
'谎_'
'袜子_'
'祝你好运_'
'知名_'
'渠道_'
'智能_'
'探测_'
'巴勒斯坦_'
'尔斯_'
'到'
'刘'
'休假_'
'乖_'
'鲁_'
'青'
'轿车_'
'罐_'
'沃'
'少女_'
'尊严_'
'宝'
'大西洋_'
'图案_'
'协定_'
'偏见_'
' … … 。_'
'购物中心_'
'绿_'
'离'
'电视机_'
'注重_'
'无礼_'
'摆_'
'指南_'
'山谷_'
'回家吧_'
'雕像_'
'那一刻_'
'热华夫_'
'杰出_'
'曝光_'
'施'
'抚养_'
'上帝保佑_'
'S_'
'领导者_'
'页面_'
'甜蜜_'
'满'
'显而易见_'
'换成_'
'拿'
'把门_'
'富_'
'堂_'
'卢'
'升高_'
'出局_'
'几句_'
'修建_'
'交易所_'
'违约_'
'边'
'被害人_'
'草'
'纳粹_'
'约定_'
'杜_'
'最具_'
'恶劣_'
'希拉里_'
'大气_'
'处罚_'
'力气_'
'冬季_'
'Facebook_'
'预感_'
'金额_'
'衣_'
'绿'
'皇帝_'
'海湾_'
'植入_'
'报'
'布雷_'
'原以为_'
'剪_'
'佛'
'价值观_'
'评委_'
'细'
'留着_'
'电台_'
'爱好_'
'此举_'
'恶作剧_'
'恐龙_'
'对策_'
'害羞_'
'存活_'
'依'
'互动_'
'二氧化碳_'
'转化_'
'组建_'
'水中_'
'核电站_'
'手铐_'
'忧虑_'
'开来_'
'奇妙_'
'大伙_'
'堕落_'
'埃米_'
'后门_'
'内衣_'
'共产党_'
'面部_'
'西蒙_'
'更换_'
'供给_'
'中文_'
'万圣节_'
'2001_'
'较大_'
'虚拟_'
'节奏_'
'胜_'
'约束_'
'牢房_'
'水里_'
'毒'
'偷'
'信徒_'
'任期_'
'谣言_'
'苏丹_'
'空军_'
'着想_'
'教'
'效力_'
'拜拜_'
'打仗_'
'四周_'
'赛季_'
'直至_'
'登陆_'
'球场_'
'灵活_'
'深深_'
'氏_'
'服从_'
'晚宴_'
'搜_'
'捐赠_'
'回收_'
'可不可以_'
'发言_'
'仍旧_'
'亲'
'不是故意_'
'马车_'
'非凡_'
'过头_'
'计_'
'竞赛_'
'甚_'
'炸药_'
'有益_'
'授予_'
'当今_'
'宽松_'
'容纳_'
'容忍_'
'在外_'
'僵尸_'
'一方面_'
'一度_'
'领带_'
'雷达_'
'阿尔'
'过量_'
'软_'
'行走_'
'老虎_'
'男女_'
'烹饪_'
'汉'
'杰瑞_'
'暗'
'品尝_'
'之夜_'
'香烟_'
'饥饿_'
'镜_'
'通货膨胀_'
'营_'
'肥胖_'
'罗姆尼_'
'戴维斯_'
'嗑_'
'发布会_'
'写下_'
'保释_'
'会上_'
'贝克_'
'房价_'
'忏悔_'
'开关_'
'封闭_'
'受损_'
'劲_'
'关'
'丹麦_'
'黑鬼_'
'高达_'
'里克_'
'转过_'
'趁_'
'见识_'
'着迷_'
'狂欢_'
'末_'
'哪位_'
'听证会_'
'六年_'
'优点_'
'义_'
'一晚_'
' ..   _'
'鸡肉_'
'野蛮_'
'舱_'
'树上_'
'机票_'
'有史以来_'
'插手_'
'屠杀_'
'实习_'
'奶油_'
'乌'
'丛林_'
' – _'
'身处_'
'第四_'
'河'
'斗_'
'干过_'
'勉强_'
'几_'
'冷'
'依照_'
'优惠_'
'丝'
'那辆车_'
'莱特_'
'点心_'
'激进_'
'民'
'推销_'
'扎克_'
'忍不住_'
'左'
'定价_'
'城'
'右侧_'
'倒下_'
'付款_'
'蕾_'
'米勒_'
'猎人_'
'抵制_'
'念头_'
'嘴巴_'
' ]_'
' ] _'
'证书_'
'莉莉_'
'艾滋病_'
'舔_'
'第五_'
'瘫痪_'
'泄漏_'
'杀'
'朱_'
'录像带_'
'岗位_'
'小学_'
'审计_'
'听'
'同行_'
'他俩_'
'了结_'
'一双_'
'CEO_'
'跳'
'账单_'
'毒贩_'
'就'
'密'
'哎_'
'卫生间_'
'全力_'
'? _'
'33_'
'送'
'运营商_'
'解脱_'
'解放_'
'舰队_'
'狗屎_'
'服役_'
'延迟_'
'就象_'
'容_'
'夹克_'
'大人物_'
'凯莉_'
'一行_'
'600_'
'钉_'
'赛车_'
'纯_'
'竟_'
'砍_'
'涂_'
'注_'
'杰'
'村子_'
'未知_'
'巨'
'太迟_'
'零售商_'
'院长_'
'近年来_'
'起码_'
'老头_'
'真棒_'
'犯错_'
'氛围_'
'毒素_'
'殿下_'
'死后_'
'曲_'
'我读_'
'帅_'
'布拉德_'
'国务院_'
'同步_'
'传真_'
'z_'
' —_'
'铜_'
'里奇_'
'远程_'
'西亚_'
'肯尼迪_'
'耶路撒冷_'
'碗_'
'瞬间_'
'盖'
'留意_'
'点燃_'
'欲_'
'朝'
'景象_'
'手册_'
'强化_'
'原子_'
'准则_'
'仪_'
'买'
'丽'
'中毒_'
'不变_'
'雇用_'
'道'
'过时_'
'胡说_'
'短'
'瑞克_'
'毫不_'
'样品_'
'整件事_'
'拿下_'
'子宫_'
'周年_'
'后代_'
'合格_'
'厅_'
'制止_'
'创业_'
'共'
'95_'
'陌生_'
'节省_'
'特纳_'
'沉重_'
'朝着_'
'床垫_'
'席位_'
'寄给_'
'华丽_'
'利息_'
'出手_'
'信件_'
'会来_'
'什'
'55_'
' 。 “ _'
' )_'
'美的_'
'管理层_'
'监测_'
'执照_'
'影像_'
'异'
'失败者_'
'共识_'
'作案_'
'传感器_'
'众人_'
'上场_'
' ， 《 _'
' 。 。 。 _'
'腐烂_'
'美式_'
'浏览_'
'泽_'
'旅途_'
'搬走_'
'描绘_'
'护'
'投'
'怪人_'
'客观_'
'不当_'
'这名_'
'过世_'
'蛮_'
'葡萄_'
'肥_'
'积累_'
'画'
'牢_'
'欺负_'
'提案_'
'承包商_'
'房租_'
'战'
'宫_'
'季_'
'大自然_'
'列出_'
'内地_'
'人有_'
'争夺_'
'这段_'
'请'
'虫子_'
'点击_'
'机遇_'
'康_'
'尾_'
'好友_'
'头疼_'
'基督徒_'
'块钱_'
'坐'
'出价_'
'共事_'
'中产阶级_'
'鸡'
'那段_'
'解释一下_'
'要点_'
'精灵_'
'租赁_'
'理'
'木头_'
'搬进_'
'排'
'抗'
'怪兽_'
'富'
'实习生_'
'安东尼_'
'奋斗_'
'向'
'吃点_'
'凯利_'
'面向_'
'远'
'近'
'迄今为止_'
'贵族_'
'管理员_'
'真该_'
'流动性_'
'才刚_'
'悲惨_'
'宁静_'
'夜'
'国有_'
'分数_'
'分为_'
'克拉_'
'会想_'
'予以_'
'不足以_'
'99_'
'驱逐_'
'谱_'
'认罪_'
'蒂姆_'
'置_'
'组'
'管理局_'
'窒息_'
'硬'
'玩玩_'
'旗下_'
'惹麻烦_'
'怎么着_'
'差劲_'
'外出_'
'地步_'
'品味_'
'台'
'印第安人_'
'卢_'
'人手_'
'乱'
'不出_'
'上楼_'
'上台_'
'追'
'病房_'
'甘'
'暗杀_'
'应得_'
'对外_'
'头骨_'
'传输_'
'三种_'
'丁'
'罗伊_'
'给你个_'
'火车站_'
'注视_'
'握_'
'小费_'
'学费_'
'大宗_'
'坦克_'
'听从_'
'后院_'
'去死吧_'
'动态_'
'别看_'
'切除_'
'下个_'
'钱'
'落'
'脱'
'肉'
'欺诈_'
'户_'
'懦夫_'
'想得到_'
'小麦_'
'奖学金_'
'决不会_'
'债_'
'亲手_'
'鸽子_'
'高潮_'
'露西_'
'誓言_'
'终身_'
'繁殖_'
'粘_'
'火鸡_'
'断'
'抬起_'
'手续_'
'天上_'
'大城市_'
'声誉_'
'填_'
'召唤_'
'卡洛斯_'
'共有_'
'书面_'
'中期_'
'货币政策_'
'芙_'
'等候_'
'标牌_'
'春'
'无情_'
'折扣_'
'小事_'
'宰_'
'大象_'
'园_'
'双眼_'
'加利福尼亚_'
'副作用_'
'别闹_'
'余生_'
'锁定_'
'配'
'途中_'
'贝蒂_'
'语音_'
'神经病_'
'碰巧_'
'汽车旅馆_'
'水面_'
'棺材_'
'报仇_'
'战役_'
'必需_'
'小妞_'
'家园_'
'创立_'
'养'
'世人_'
'38_'
' ？ 。_'
'香水_'
'金融机构_'
'这能_'
'红酒_'
'简'
'滋味_'
'每件事_'
'无知_'
'教皇_'
'情景_'
'左侧_'
'崛起_'
'小鸟_'
'向上_'
'只用_'
'印'
'别急_'
'一圈_'
'  _'
'首'
'除掉_'
'链接_'
'耳'
'普京_'
'拖延_'
'宁_'
'反击_'
'剂量_'
'老是_'
'缺_'
'维修_'
'相遇_'
'犹豫_'
'滥用_'
'师傅_'
'境内_'
'圆_'
'反恐_'
'刻_'
'判_'
'一门_'
'赌注_'
'生于_'
'甜_'
'服务员_'
'推行_'
'慢点_'
'年间_'
'女孩儿_'
'升值_'
'医学院_'
'加密_'
'别处_'
'中国'
'鼠_'
'驾车_'
'顺序_'
'运'
'菲'
'眼下_'
'用途_'
'热门_'
'导师_'
'喽_'
'发放_'
'厌烦_'
'入睡_'
'两条_'
'高校_'
'靴子_'
'轻微_'
'路过_'
'跟随_'
'越过_'
'用作_'
'现任_'
'滚出去_'
'源于_'
'本事_'
'朗_'
'有钱人_'
'有件事_'
'星际_'
'弗'
'召集_'
'取'
'卖'
'高尔夫球_'
'骑马_'
'选项_'
'跟'
'独'
'村民_'
'星期四_'
'抓狂_'
'引诱_'
'外婆_'
'原料_'
'十足_'
'区分_'
'办公_'
'倾听_'
'魔术_'
'霍华德_'
'降临_'
'钻_'
'赫_'
'押_'
'户外_'
'处置_'
'变为_'
'分成_'
'免得_'
'世界杯_'
'al_'
'高清_'
'起初_'
'谢'
'试试看_'
'肯'
'考'
'激活_'
'游说_'
'毫无意义_'
'比利时_'
'把戏_'
'吩咐_'
'可可_'
'双重_'
'半夜_'
'一身_'
'高科技_'
'难看_'
'陪伴_'
'猎物_'
'炫耀_'
'活儿_'
'撤退_'
'已婚_'
'屁_'
'实_'
'发达_'
'伦'
'他用_'
'九_'
'钞票_'
'赶来_'
'眼光_'
'牙'
'敞开_'
'撑_'
'扔进_'
'微_'
'强度_'
'封面_'
'呐_'
'合作伙伴_'
'受益_'
'传染_'
'仔_'
'丹尼斯_'
'es_'
'2002_'
'餐_'
'翻'
'笼子_'
'法则_'
'格斯_'
'权限_'
'总共_'
'德尔_'
'多样性_'
'埋葬_'
'北极_'
'出路_'
'再度_'
'麦克斯_'
'鸟类_'
'路径_'
'管理者_'
'禁令_'
'真不知道_'
'叫醒_'
'协商_'
'再谈_'
'中士_'
'隆_'
'造'
'较为_'
'躲避_'
'认证_'
'西藏_'
'疗效_'
'激怒_'
'海里_'
'急性_'
'实体_'
'奥利弗_'
'加油站_'
'刷_'
'划_'
'传给_'
'七年_'
'一丝_'
'iphone_'
'那有_'
'纳税人_'
'知情_'
'真诚_'
'热水_'
'法医_'
'拖车_'
'拉斯_'
'忽然_'
'山脉_'
'射杀_'
'学科_'
'夫'
'大哥_'
'多余_'
'坚决_'
'勒索_'
'主教_'
'这行_'
'著作_'
'组成部分_'
'球迷_'
'父_'
'汁_'
'早饭_'
'戒_'
'并'
'她家_'
'吨_'
'出院_'
'冷静下来_'
'倒'
'乐子_'
' · · ·_'
'键_'
'诗歌_'
'蔓延_'
'舞者_'
'管用_'
'离去_'
'生效_'
'治安_'
'欧文_'
'横'
'明亮_'
'戴着_'
'忠实_'
'当着_'
'干细胞_'
'就够_'
'嘉'
'喜剧_'
'同伙_'
'口径_'
'十字架_'
'一手_'
'魔力_'
'雅虎_'
'阶层_'
'责怪_'
'责备_'
'证件_'
'艾米_'
'笑容_'
'男士_'
'物'
'术语_'
'敲门_'
'搬家_'
'探测器_'
'墓地_'
'占有_'
'前方_'
'净_'
'住处_'
'优化_'
'食用_'
'零件_'
'除'
'虽_'
'病情_'
'电源_'
'牙医_'
'桑'
'插入_'
'慢慢来_'
'想不到_'
'巴克_'
'升起_'
'十个_'
'不妙_'
'骨'
'过会_'
'苦'
'考察_'
'环'
'狗屁_'
'狗'
'法国人_'
'水管_'
'气球_'
'极'
'最坏_'
'接待_'
'弄错_'
'并不知道_'
'属性_'
'圆'
'公爵_'
'– _'
'65_'
'钢铁_'
'遗忘_'
'资讯_'
'纹_'
'糊涂_'
'抓紧_'
'恶_'
'帮'
'峡谷_'
'复活_'
'亲吻_'
'中枪_'
'高尔夫_'
'骗人_'
'赠送_'
'船舶_'
'着陆_'
'真有_'
'环节_'
'有害_'
'景色_'
'无家可归_'
'孔_'
'奥斯卡_'
'制成_'
'迷惑_'
'这本_'
'让步_'
'让开_'
'裔_'
'节'
'胸_'
'缠_'
'答复_'
'破解_'
'看不出_'
'疏散_'
'烧烤_'
'游'
'打球_'
'弯_'
'图表_'
'吼_'
'假定_'
'佩'
'丢脸_'
'万人_'
'一模一样_'
'那人_'
'紧紧_'
'玩'
'灵'
'火焰_'
'游艇_'
'没听说过_'
'杀戮_'
'抽'
'情人节_'
'工作室_'
'头盔_'
'听众_'
'吃药_'
'化石_'
'借贷_'
'事后_'
'一到_'
'w_'
'800_'
'西班牙语_'
'祖国_'
'汉娜_'
'柜子_'
'某处_'
'慢性_'
'意'
'恐怖主义_'
'待会儿_'
'当下_'
'已知_'
'尝_'
'哈哈_'
'变动_'
'发觉_'
'出租_'
'丑_'
'5000_'
'野生_'
'那样的话_'
'读过_'
'菌_'
'沾_'
'支配_'
'掉下来_'
'很久没_'
'开头_'
'届_'
'宝_'
'夜总会_'
'包里_'
'高手_'
'谢天谢地_'
'葡萄牙_'
'绝大多数_'
'绘画_'
'米歇尔_'
'狗狗_'
'牛肉_'
'潮_'
'浓度_'
'活性_'
'柯'
'拥挤_'
'惨_'
'天主教_'
'变异_'
'丝毫_'
'领养_'
'遗嘱_'
'软弱_'
'议案_'
'言语_'
'言'
'缝_'
'纠纷_'
'种'
'登'
'滑稽_'
'测验_'
'有线电视_'
'放置_'
'揭露_'
'奶_'
'充斥_'
'保守党_'
'亏损_'
'中风_'
'twitter_'
'饿死_'
'采'
'肾_'
'牵扯_'
'淹死_'
'无罪_'
'数百万_'
'数年_'
'打猎_'
'吵醒_'
'听不见_'
'兰斯_'
'一阵子_'
'de_'
'and_'
'黑客_'
'首要_'
'闯进_'
'门外_'
'销售额_'
'裸体_'
'漏洞_'
'歧视_'
'歌唱_'
'桑_'
'有线_'
'暴风雨_'
'教导_'
'收益率_'
'操心_'
'情侣_'
'开采_'
'宇航员_'
'嫌疑_'
'大大_'
'土豆_'
'劳拉_'
'况且_'
'下巴_'
'3000_'
'过多_'
'辆车_'
'视角_'
'舰长_'
'枪手_'
'招'
'我求_'
'年底_'
'尤'
'宫殿_'
'奢华_'
'夜间_'
'唤醒_'
'周边_'
'否定_'
'友_'
'亚历山大_'
'in_'
'高端_'
'露出_'
'酒鬼_'
'那家_'
'送回_'
'身为_'
'调情_'
'联邦政府_'
'耶'
'电视节目_'
'海关_'
'欢呼_'
'未婚夫_'
'星期三_'
'撒'
'抬_'
'恩斯_'
'引'
'官'
'台词_'
'利物浦_'
'共产主义_'
'催眠_'
'驾照_'
'部件_'
'那份_'
'蹲_'
'贝丝_'
'说服力_'
'蝴蝶_'
'热狗_'
'消化_'
'正直_'
'恶'
'德州_'
'建筑师_'
'底特律_'
'巴里_'
'差距_'
'尸_'
'小岛_'
'安全带_'
'卢卡斯_'
'前夫_'
'一幕_'
'一下子_'
'250_'
'2013_'
' " ， _'
'赞助_'
'贝拉_'
'装满_'
'背'
'米兰_'
'穿'
'柜_'
'晚些时候_'
'快到_'
'壳_'
'出差_'
'保佑_'
'何处_'
'传来_'
'买点_'
'   - _'
'诸多_'
'草坪_'
'联'
'盗窃_'
'柔软_'
'捉_'
'扶_'
'所作_'
'憎恨_'
'委托_'
'天下_'
'反弹_'
'刑事_'
'养老金_'
'作弊_'
'何不_'
'两边_'
'议题_'
'篇文章_'
'穆'
'派出_'
'武'
'情节_'
'布里_'
'居_'
'契约_'
'国防_'
'停'
'信封_'
'义'
'韦恩_'
'那件_'
'色情_'
'背上_'
'看清_'
'盖茨_'
'瘾君子_'
'没到_'
'杨'
'条子_'
'怀_'
'引_'
'小朋友_'
'威利_'
'太远_'
'唐'
'冻结_'
'侵入_'
'伍德_'
'互'
'为主_'
'骗局_'
'说来_'
'论述_'
'艾比_'
'美分_'
'目睹_'
'瑞斯_'
'流入_'
'毒药_'
'步伐_'
'收缩_'
'提问_'
'抗生素_'
'开发商_'
'废除_'
'官司_'
'大使馆_'
'商'
'咒语_'
'吸'
'可见_'
'再生_'
'丰田_'
'上级_'
'陆地_'
'闪电_'
'讯息_'
'薄_'
'良心_'
'胎儿_'
'粗鲁_'
'移_'
'租金_'
'硬件_'
'研究员_'
'直说_'
'漫画_'
'毯子_'
'时髦_'
'挪威_'
'持久_'
'废弃_'
'幅_'
'布拉_'
'尖_'
'宿舍_'
'名誉_'
'司_'
'勇士_'
'加热_'
'内阁_'
'修正_'
'保卫_'
'举起_'
'业主_'
' .   _'
'难民_'
'车道_'
'虎_'
'漏_'
'日志_'
'换衣服_'
'年来_'
'只管_'
'刮_'
'为期_'
'T_'
'颇_'
'金子_'
'酱_'
'说了算_'
'裁判_'
'生育_'
'炮_'
'滑'
'水手_'
'柱_'
'效劳_'
'女神_'
'坦'
'发光_'
'勒斯_'
'别问_'
'依赖于_'
'伯爵_'
'不顾_'
'上方_'
'课堂_'
'范_'
'胃口_'
'职_'
'罚款_'
'纸'
'纪念日_'
'画廊_'
'料到_'
'操作系统_'
'季度_'
'喜悦_'
'印刷_'
'传闻_'
'争执_'
'一次性_'
'1999_'
'那事_'
'要来_'
'英俊_'
'看成_'
'电信_'
'激素_'
'沃尔玛_'
'概率_'
'束缚_'
'摩尔_'
'房'
'床房_'
'巨人_'
'将'
'全美_'
'入狱_'
'不小_'
'辉煌_'
'致死_'
'精子_'
'窗外_'
'烧'
'气息_'
'拳击_'
'庆幸_'
'它'
'好几年_'
'反应堆_'
'分解_'
'出台_'
'信托_'
'题_'
'通电话_'
'货'
'视野_'
'藏'
'窝_'
'直播_'
'油价_'
'没说_'
'池_'
'庄园_'
'巨型_'
'头绪_'
'听懂_'
'变形_'
'保管_'
'上路_'
'X_'
'金字塔_'
'造型_'
'资深_'
'语气_'
'访客_'
'献给_'
'热带_'
'洗'
'更具_'
'无关紧要_'
'抓'
'建成_'
'反馈_'
'反射_'
'切尔西_'
'作物_'
'银_'
'负面_'
'触发_'
'脑海_'
'肝_'
'而战_'
'群'
'罩_'
'第二'
'第一位_'
'滴_'
'每隔_'
'标题_'
'奥运_'
'夏_'
'处'
'圣地亚哥_'
'哪种_'
'势_'
'剩余_'
'住所_'
'伍_'
'链_'
'醒过来_'
'谢谢你们_'
'篇_'
'狠狠_'
'朱'
'封'
'善_'
'伊斯兰教_'
'上天_'
'FBI_'
'选中_'
'薇_'
'落下_'
'脑部_'
'胖子_'
'背着_'
'联赛_'
'粗'
'真话_'
'温室_'
'泰德_'
'拨_'
'德里_'
'微生物_'
'征收_'
'弄出来_'
'容器_'
'定制_'
'宁可_'
'孤儿_'
'在此之前_'
'几位_'
'产'
'九个_'
'不通_'
'马桶_'
'食'
'防_'
'进而_'
'观测_'
'虚弱_'
'胜过_'
'看似_'
'用到_'
'生物学_'
'海底_'
'每天晚上_'
'智力_'
'施工_'
'往常_'
'密_'
'好戏_'
'备受_'
'壁炉_'
'厂商_'
'卢克_'
'中世纪_'
'34_'
'麻醉_'
'高尔夫球场_'
'香蕉_'
'静脉_'
'腰_'
'肖_'
'美洲_'
'纽约时报_'
'珍惜_'
'条'
'权'
'时常_'
'情愿_'
'引人注目_'
'延续_'
'年里_'
'学期_'
'墙壁_'
'埃迪_'
'喷_'
'伴_'
'一栋_'
'闪_'
'艾迪_'
'硬盘_'
'短缺_'
'灭_'
'潜艇_'
'毫米_'
'桌_'
'松饼_'
'打发_'
'归'
'工党_'
'尾巴_'
'呕吐_'
'叶子_'
'划分_'
'众议院_'
'专辑_'
'雨'
'问好_'
'激起_'
'演示_'
'混球_'
'海啸_'
'殖民地_'
'欧洲央行_'
'明明_'
'播_'
'急救_'
'开设_'
'底部_'
'右手_'
'发泄_'
'卖出_'
'割_'
'共同点_'
'八卦_'
'住在一起_'
'主体_'
'上下_'
'三名_'
'鲍尔_'
'除此之外_'
'走私_'
'要花_'
'约翰尼_'
'签订_'
'玩游戏_'
'猜想_'
'片子_'
'烟草_'
'杯酒_'
'来电_'
'悬崖_'
'尤_'
'委员_'
'哈特_'
'千_'
'凉_'
'假释_'
'不已_'
'附加_'
'防守_'
'逊_'
'虚假_'
'莱恩_'
'第一步_'
'笔记_'
'窃听_'
'祈求_'
'没带_'
'挡住_'
'恶意_'
'发烧_'
'克莱_'
'众所周知_'
'产物_'
'不赖_'
'队友_'
'金融市场_'
'金色_'
'邻国_'
'热量_'
'江'
'梦里_'
'果'
'枚_'
'才华_'
'扇_'
'微小_'
'吓唬_'
'劳工_'
'人格_'
'上空_'
'一匹_'
'鹿_'
'预备_'
'隐形_'
'野餐_'
'跟我走_'
'警_'
'虔诚_'
'经济危机_'
'敦促_'
'思路_'
'心思_'
'宝藏_'
'威尔逊_'
'境地_'
'塞进_'
'地理_'
'嚼_'
'哪有_'
'内战_'
'倒闭_'
'佛教_'
'份额_'
'产出_'
'两点_'
'一块儿_'
'重返_'
'那张_'
'综合症_'
'电影院_'
'潮流_'
'海报_'
'死人_'
'抑郁_'
'手头_'
'常用_'
'固执_'
'各类_'
'单子_'
'再也不能_'
'六月_'
'兑现_'
'一伙_'
' ” 。 _'
'长久_'
'野_'
'退'
'老年人_'
'绝_'
'社_'
'碰撞_'
'着火_'
'核弹_'
'掌管_'
'抨击_'
'戈'
'德拉_'
'席_'
'复合_'
'含'
'加西亚_'
'加班_'
'争端_'
'临近_'
'下个月_'
'雪茄_'
'追逐_'
'超大_'
'艾莉森_'
'背包_'
'网球_'
'立马_'
'海域_'
'毒气_'
'次'
'拔_'
'扇门_'
'性生活_'
'急'
'尽'
'大夫_'
'外科医生_'
'哈维_'
'化学物质_'
'领'
'选出_'
'谢谢您_'
'维加斯_'
'演说_'
'混'
'标_'
'救救_'
'带回家_'
'坦诚_'
'国土_'
'冲'
'公共汽车_'
'余'
'伏特加_'
'举止_'
'上瘾_'
' _'
'骚乱_'
'首领_'
'飙升_'
'隔_'
'随'
'轮椅_'
'角'
'自主_'
'能干_'
'纠缠_'
'爱丽丝_'
'标'
'新泽西_'
'怎样才能_'
'幼稚_'
'名片_'
'单元_'
'十_'
'加里_'
'分辨_'
'击_'
'克里_'
'企鹅_'
'不说_'
'120_'
' '
'难度_'
'进出_'
'脚步_'
'能行_'
'线'
'照'
'流氓_'
'操控_'
'扎'
'心理学家_'
'形'
'就位_'
'姿态_'
'大赛_'
'参数_'
'人要_'
'通向_'
'筛选_'
'真得_'
'炎_'
'涨_'
'每间_'
'母'
'抗议者_'
'扫_'
'所有权_'
'当真_'
'应急_'
'师'
'多亏_'
'处方_'
'地产_'
'国防部_'
'充电_'
'亚特兰大_'
'乌克兰_'
'音'
'虾_'
'联合会_'
'纸条_'
'研制_'
'玉'
'手工_'
'戳_'
'意味_'
'恰好_'
'应有_'
'天花板_'
'大火_'
'备用_'
'啊哈_'
'原先_'
'即'
'升职_'
'化妆_'
'到期_'
'别去_'
'刘易斯_'
'从那以后_'
'事是_'
'乡_'
'预见_'
'那座_'
'身子_'
'腹部_'
'脑'
'纯洁_'
'演唱会_'
'涉嫌_'
'浑身_'
'曲线_'
'数月_'
'很想_'
'否决_'
'卓越_'
'做得好_'
'使人_'
'主角_'
'难忘_'
'过错_'
'脸'
'紧急情况_'
'精_'
'片段_'
'海伦_'
'洋葱_'
'日落_'
'支'
'握手_'
'引进_'
'币_'
'喷'
'善'
'反驳_'
'分公司_'
'八年_'
'克隆_'
'任意_'
'两样_'
'与否_'
'三位_'
'闭上_'
'转到_'
'车型_'
'误导_'
'草地_'
'肋骨_'
'示威_'
'睡衣_'
'游览_'
'朱莉_'
'智利_'
'息_'
'弹'
'布赖恩_'
'太高_'
'大堂_'
'以防万一_'
'二战_'
'青蛙_'
'键盘_'
'采集_'
'酒廊_'
'逍遥法外_'
'这帮_'
'而来_'
'羞愧_'
'称赞_'
'照料_'
'洒_'
'水下_'
'比率_'
'本性_'
'最高法院_'
'摩'
'找些_'
'小小_'
'大地_'
'夜里_'
'外遇_'
'口香糖_'
'发火_'
'前所未有_'
'刀子_'
'侄子_'
'长相_'
'要素_'
'裤_'
'自制_'
'绳_'
'纽约市_'
'灰'
'浅_'
'活在_'
'次数_'
'无权_'
'摔倒_'
'批判_'
'打倒_'
'奇特_'
'多钱_'
'塑造_'
'吴'
'刻薄_'
'偷窃_'
'体育馆_'
'从现在起_'
'不管是谁_'
'co_'
'鼓_'
'马路_'
'阁楼_'
'钢'
'转型_'
'超人_'
'血统_'
'纠正_'
'窗_'
'理事会_'
'灰_'
'海军陆战队_'
'挺'
'感'
'快死了_'
'帮帮忙_'
'巴斯_'
'巩固_'
'别用_'
' ” ，_'
'黄油_'
'需'
'重生_'
'递给_'
'这栋_'
'这下_'
'紫色_'
'索马里_'
'琴_'
'狙击手_'
'武士_'
'校_'
'想象力_'
'恕_'
'急诊室_'
'好久_'
'刹车_'
'代理人_'
'一桩_'
' 。 ” _'
'鲜花_'
'缩短_'
'简历_'
'矮_'
'电报_'
'甲'
'浏览器_'
'治'
'求'
'标识_'
'我出_'
'怪胎_'
'忙碌_'
'巴拉克_'
'好听_'
'喜'
'启发_'
'出身_'
'众_'
'伊恩_'
'丰厚_'
'一封信_'
'长度_'
'逮到_'
'这周_'
'草原_'
'终极_'
'站点_'
'狩猎_'
'消极_'
'洗个_'
'泥_'
'此案_'
'歌剧_'
'暖和_'
'按'
'弗雷德_'
'库存_'
'峰_'
'大腿_'
'力度_'
'公_'
'偏离_'
'伊莱_'
' "   ？_'
'顺'
'雕塑_'
'财政部_'
'评判_'
'结尾_'
'算'
'灭绝_'
'推断_'
'寿命_'
'宽容_'
'塞尔_'
'前行_'
'出庭_'
'你们好_'
'体温_'
'亲热_'
'丑陋_'
'不确定性_'
'上将_'
'。_'
'it_'
'J_'
'阿拉斯加_'
'记'
'血腥_'
'脚下_'
'联_'
'耳_'
'维克多_'
'着急_'
'爹_'
'汗_'
'枪'
'构造_'
'文献_'
'搞不懂_'
'招募_'
'巧妙_'
'套餐_'
'堕胎_'
'坑_'
'双人_'
'动静_'
'前门_'
'初期_'
'何种_'
'不带_'
'39_'
'预示_'
'青春_'
'证物_'
'记载_'
'观'
'窗帘_'
'积'
'秋'
'福尔摩斯_'
'独一无二_'
'狠_'
'溜_'
'未婚妻_'
'更高_'
'新西兰_'
'待命_'
'弹药_'
'山羊_'
'少量_'
'宣誓_'
'定罪_'
'好比_'
'唠叨_'
'占用_'
'凭借_'
'共度_'
'住院_'
'低迷_'
'世_'
'万物_'
'一大笔钱_'
' ....._'
'雷曼_'
'闻名_'
'间接_'
'赢家_'
'贾'
'谈'
'真够_'
'烫_'
'棕色_'
'有太多_'
'敌_'
'我教_'
'恶棍_'
'性行为_'
'孤立_'
'垄断_'
'因子_'
'喘_'
'压抑_'
'en_'
'韦'
'那套_'
'贵'
'荷尔蒙_'
'缓和_'
'穷_'
'穆罕默德_'
'牌子_'
'深处_'
'歌'
'棉花_'
'核'
'新奥尔良_'
'探'
'徘徊_'
'很帅_'
'强有力_'
'干旱_'
'布尔_'
'射'
'处女_'
'图书_'
'响应_'
'可信_'
'助_'
'出错_'
'假日_'
'五月_'
'丽莎_'
'两大_'
'不适_'
'— _'
'v_'
'长期以来_'
'解散_'
'自称_'
'置于_'
'管子_'
'百分点_'
'派遣_'
'来不及_'
'有望_'
'搜集_'
'拍'
'所能_'
'情报局_'
'往前_'
'弯曲_'
'存'
'动用_'
'ing_'
'诱人_'
'裂缝_'
'脉搏_'
'没事儿_'
'播出_'
'怪不得_'
'态_'
'很强_'
'少来_'
'安心_'
'堵_'
'借给_'
'伏_'
'付给_'
'默克尔_'
'鸭子_'
'顺着_'
'门前_'
'量子_'
'这使_'
'胡扯_'
'肠_'
'等会儿_'
'第三次_'
'百姓_'
'男孩子_'
'电子'
'海洛因_'
'抉择_'
'扳机_'
'我操_'
'崭新_'
'壁_'
'可乐_'
'发电_'
'高档_'
'高尚_'
'镇子_'
'过渡_'
'跨_'
'说错_'
'肯尼亚_'
'罐子_'
'纯'
'研讨会_'
'牛仔裤_'
'灰尘_'
'潜水_'
'曲'
'晚'
'探险_'
'打听_'
'布局_'
'尽全力_'
'外交政策_'
'团伙_'
'后座_'
'化疗_'
'勋章_'
'到此为止_'
'别理_'
'凯伦_'
'凤凰_'
'临'
'中等_'
'万美金_'
'一事_'
'dna_'
'马来西亚_'
'配偶_'
'身旁_'
'要不是_'
'肉体_'
'维生素_'
'维斯_'
'瑞德_'
'水晶_'
'民主党人_'
'柏'
'搜索引擎_'
'拽_'
'广_'
'并购_'
'宝石_'
'姐_'
'夏洛特_'
'另一半_'
'卡梅伦_'
'刊登_'
'传到_'
'书写_'
'三周_'
'一百万_'
'露营_'
'遏制_'
'达拉斯_'
'软'
'跨越_'
'语'
'补_'
'草莓_'
'自行_'
'老爹_'
'用餐_'
'模样_'
'有位_'
'拿给_'
'悲哀_'
'强盗_'
'张开_'
'好样_'
'头号_'
'大国_'
'坎_'
'同盟_'
'出场_'
'几种_'
'兼职_'
'借用_'
'争_'
'个别_'
'不难_'
'不至于_'
'一无所有_'
'黑洞_'
'鹰_'
'随之_'
'转而_'
'讲'
'蜂蜜_'
'苍蝇_'
'自卫_'
'羞耻_'
'税率_'
'知'
'现今_'
'演习_'
'法令_'
'油漆_'
'格里_'
'最少_'
'拳头_'
'我开_'
'大桥_'
'围着_'
'哄_'
'化妆品_'
'出版商_'
'伤痕_'
'亨特_'
'一回_'
'高出_'
'辅导_'
'轮到_'
'贩毒_'
'记下_'
'脸色_'
'精明_'
'笔记本电脑_'
'研究生_'
'瑜伽_'
'汤'
'杰米_'
'来回_'
'教徒_'
'安定_'
'失_'
'增'
'办到_'
'出自_'
'内涵_'
'光荣_'
'伦理_'
'专栏_'
'不曾_'
'请原谅_'
'裁员_'
'艾玛_'
'胆小鬼_'
'编码_'
'纠结_'
'程_'
'珍_'
'狡猾_'
'泽'
'某'
'旅行者_'
'收据_'
'抗争_'
'强行_'
'压根_'
'勾引_'
'分心_'
'凶案_'
'促成_'
'伤'
'乡下_'
'不动_'
'上衣_'
'一拳_'
'1998_'
'金正日_'
'配方_'
'蝙蝠_'
'老二_'
'约'
'精心_'
'甲板_'
'现'
'王八蛋_'
'牧场_'
'淹没_'
'暗_'
'景_'
'时不时_'
'抬头_'
'扰乱_'
'恶梦_'
'弃_'
'尼亚_'
'就别_'
'对称_'
'填补_'
'国际'
'匆忙_'
'冷冻_'
'兴起_'
'信赖_'
'保重_'
'伤人_'
'书店_'
'下落_'
'野生动物_'
'辣_'
'要不然_'
'肯特_'
'老家伙_'
'罚_'
'毛衣_'
'比喻_'
'排斥_'
'找寻_'
'找人_'
'广阔_'
'审视_'
'嫁_'
'奥地利_'
'圈套_'
'国会议员_'
'品'
'前科_'
'前后_'
'兹'
'不配_'
'le_'
'魔'
'音乐家_'
'非要_'
'野心_'
'辛_'
'装作_'
'绝佳_'
'细_'
'箭_'
'管家_'
'秒钟_'
'福德_'
'碰上_'
'知晓_'
'深呼吸_'
'消防员_'
'流浪汉_'
'微妙_'
'庭院_'
'库珀_'
'娘_'
'创造性_'
'减弱_'
'入室_'
'光芒_'
'买单_'
'   。_'
'默_'
'问候_'
'酸'
'迪恩_'
'这部分_'
'穿衣服_'
'眼球_'
'温馨_'
'毁坏_'
'格式_'
'架子_'
'极限_'
'来源于_'
'挽回_'
'成交_'
'戈登_'
'强势_'
'度'
'小鬼_'
'孕妇_'
'奇怪的是_'
'动摇_'
'创造力_'
'公关_'
'会长_'
'二人_'
'丧生_'
'鱼类_'
'露面_'
'野'
'部'
'遇害_'
'这回_'
'脚趾_'
'胸口_'
'耻辱_'
'糖'
'笑声_'
'略_'
'电击_'
'烧伤_'
'烦人_'
'火力_'
'泰迪_'
'气温_'
'殴打_'
'杨_'
'月'
'时空_'
'文件夹_'
'捕捉_'
'扮_'
'打动_'
'感知_'
'往'
'弹性_'
'幸存_'
'平原_'
'实质_'
'实时_'
'加点_'
'偏'
'俄国人_'
' ”   _'
' . ） _'
'马克思_'
'这幅_'
'轰炸_'
'解读_'
'纳入_'
'短裤_'
'甲_'
'班车_'
'灯'
'海豚_'
'河边_'
'有的是_'
'我以_'
'德克萨斯州_'
'尸检_'
'安全性_'
'商标_'
'史上_'
'副总裁_'
'克劳斯_'
'伤亡_'
'一分钱_'
'鸟'
'鲍比_'
'阻挡_'
'镇压_'
'调查员_'
'话语_'
'裁定_'
'美景_'
'索尼_'
'离子_'
'目_'
'皇室_'
'玛格丽特_'
'残留_'
'新手_'
'志_'
'心想_'
'很近_'
'尺_'
'宾_'
'奏效_'
'大叫_'
'四月_'
'吧台_'
'合唱团_'
'各项_'
'卡斯_'
'制药_'
'出狱_'
'农'
'党'
'兄弟会_'
'倾斜_'
'伯恩_'
'人造_'
'严峻_'
'一口气_'
'44_'
'驾驶员_'
'顽固_'
'远处_'
'辛'
'跑掉_'
'西北_'
'聚'
'老太太_'
'经理人_'
'竞争者_'
'突袭_'
'睡'
'电邮_'
'电线_'
'煤炭_'
'源自_'
'汉克_'
'武力_'
'正想_'
'枪声_'
'摩西_'
'所得_'
'恰恰_'
'开走_'
'布思_'
'左翼_'
'导'
'壮观_'
'域_'
'听不懂_'
'化验_'
'伯克_'
'万岁_'
'david_'
'47_'
'2014_'
'默'
'面对面_'
'车厢_'
'蚂蚁_'
'菲利普_'
'能带_'
'结果表明_'
'经受_'
'精致_'
'看不出来_'
'相连_'
'火花_'
'混凝土_'
'残疾_'
'榜样_'
'查询_'
'柠檬_'
'期'
'晒_'
'接通_'
'挨_'
'徽章_'
'失效_'
'地中海_'
'向下_'
'加沙_'
'关在_'
'乔希_'
'业余_'
'不多_'
'下流_'
'下台_'
'一般来说_'
' ？ – _'
'， _'
'饰_'
'重回_'
'荡妇_'
'茶'
'芬_'
'航线_'
'纳米_'
'粗_'
'知识产权_'
'电流_'
'田'
'物流_'
'烟'
'演唱_'
'摆在_'
'拦截_'
'拖'
'拓展_'
'扑克_'
'手脚_'
'我怕_'
'愉悦_'
'患上_'
'巴特_'
'小东西_'
'导向_'
'婚纱_'
'如下_'
'坠毁_'
'国有企业_'
'向来_'
'向东_'
'化合物_'
'制品_'
'冻_'
'借助_'
'人间_'
'交代_'
'乐园_'
'与'
'ipad_'
'鲸鱼_'
'预先_'
'账_'
'词'
'获利_'
'肺部_'
'算不上_'
'正常人_'
'来得及_'
'时间表_'
'宣告_'
'安息_'
'字体_'
'天真_'
'坦白说_'
'吸入_'
'各方_'
'供'
'事态_'
'之王_'
'三点_'
'飞往_'
'重申_'
'那年_'
'踪迹_'
'蒂斯_'
'苦难_'
'致敬_'
'至'
'脱衣舞_'
'羽毛_'
'籍_'
'独处_'
'烧掉_'
'没准_'
'查到_'
'权益_'
'服务生_'
'斯基_'
'挑'
'折_'
'抗拒_'
'彩'
'录取_'
'帮到_'
'咱'
'听话_'
'减'
'冷战_'
'兵'
'使劲_'
'丽贝卡_'
' … ？_'
'阶级_'
'长远_'
'重现_'
'里根_'
'郁闷_'
'象'
'营业时间_'
'舍_'
'胜任_'
'第一件_'
'穿梭_'
'私事_'
'现行_'
'点到_'
'澳洲_'
'澄清_'
'法学院_'
'曲子_'
'智'
'打碎_'
'打工_'
'悲痛_'
'帮手_'
'密度_'
'宗_'
'地理位置_'
'同类_'
'副本_'
'前线_'
'刺'
'别哭_'
'仗_'
'马戏团_'
'限度_'
'锅_'
'金融时报_'
'追杀_'
'课题_'
'词汇_'
'素'
'算法_'
'相片_'
'瘤_'
'痕_'
'特质_'
'热衷于_'
'沿海_'
'汽水_'
'是否是_'
'撰写_'
'扁_'
'快来_'
'德克萨斯_'
'当面_'
'康纳_'
'平凡_'
'帕特_'
'家属_'
'审核_'
'咖啡馆_'
'右'
'功课_'
'免受_'
'世界末日_'
'不必要_'
'下一代_'
'%   。_'
' ， 。 _'
'面条_'
'那本书_'
'跪下_'
'象是_'
'萎缩_'
'缺失_'
'篮子_'
'童子军_'
'福音_'
'着'
'看书_'
'监听_'
'生日快乐_'
'特大号_'
'物理学家_'
'物理学_'
'温泉_'
'水泥_'
'控制权_'
'悲观_'
'怜悯_'
'开工_'
'层次_'
'姆'
'处决_'
'叙述_'
'公告_'
'仲裁_'
'中止_'
'不光_'
'imf_'
'85_'
'韦_'
'设在_'
'视力_'
'视'
'虎'
'脚踝_'
'胜'
'素质_'
'米兰达_'
'筹码_'
'笔'
'疲劳_'
'用以_'
'玩耍_'
'玛雅_'
'沙特_'
'沃克_'
'梦见_'
'报价_'
'弗吉尼亚_'
'干燥_'
'宁'
'后备箱_'
'反对党_'
'去掉_'
'别以为_'
'刀'
'凡'
'任'
'下属_'
'陈_'
'阳_'
'防治_'
'越狱_'
'起源_'
'负债_'
'解剖_'
'见解_'
'继续下去_'
'红绿灯_'
'第一'
'消'
'洛城_'
'旗_'
'巴菲特_'
'察觉_'
'安宁_'
'士'
'垃圾桶_'
'唱'
'区'
'匈牙利_'
'利奥_'
'减_'
'关节_'
'克尔_'
'中校_'
'三星_'
'john_'
'麦片_'
'颤抖_'
'认_'
'继承人_'
'给'
'空白_'
'滚'
'渗透_'
'杂'
'无能_'
'探索者_'
'惠普_'
'悉尼_'
'怪怪的_'
'弄出去_'
'底'
'布兰_'
'局部_'
'复兴_'
'咳嗽_'
'口号_'
'卡住_'
'制备_'
'列为_'
'冰川_'
'内尔_'
'免疫系统_'
'侧'
'上限_'
'E_'
'野外_'
'通用汽车_'
'这门_'
'输掉_'
'秘书长_'
'特洛伊_'
'术后_'
'新车_'
'摩擦_'
'感应_'
'帝_'
'差'
'孟买_'
'喝'
'原油_'
'剧烈_'
'农_'
'克里斯蒂娜_'
'乱七八糟_'
'不妨_'
'上船_'
' ,   _'
'黑莓_'
'鲜血_'
'这群_'
'界限_'
'特有_'
'漫步_'
'海地_'
'流言_'
'此地_'
'此后_'
'来往_'
'散'
'接替_'
'扔下_'
'所用_'
'娃_'
'太阳系_'
'堡垒_'
'吓死_'
'古董_'
'几张_'
'兴_'
'公务员_'
'依法_'
'住嘴_'
'I_'
' ’ _'
'鬼'
'马蒂_'
'颗粒_'
'霍_'
'防护_'
'铅笔_'
'邮箱_'
'迪拜_'
'轴_'
'解决办法_'
'观光_'
'精美_'
'看守_'
'盯上_'
'生产力_'
'玛丽亚_'
'熨_'
'沼泽_'
'梦'
'校'
'是非_'
'把头_'
'想想看_'
'怎能_'
'弄'
'岩_'
'小猫_'
'大通_'
'大批_'
'坐标_'
'国度_'
'君_'
'吊_'
'办不到_'
'别太_'
'偷东西_'
'停手_'
'保守派_'
'但别_'
'三倍_'
'us_'
'son_'
'道别_'
'该是_'
'脱身_'
'第三'
'秀'
'电缆_'
'烟雾_'
'汉语_'
'水上_'
'歌词_'
'果实_'
'日常生活_'
'放学_'
'收看_'
'拳_'
'抵消_'
'总经理_'
'总监_'
'弄清_'
'尼日利亚_'
'奉献_'
'多点_'
'回想_'
'吹'
'口供_'
'几家_'
'人行道_'
'亲生_'
'一有_'
'el_'
'bank_'
' ” ！_'
'都市_'
'迷恋_'
'衣柜_'
'笑'
'环绕_'
'波斯_'
'水域_'
'民间_'
'曾'
'暴躁_'
'救'
'打招呼_'
'必定_'
'心态_'
'官僚_'
'好心_'
'启示_'
'可真_'
'买个_'
'九月_'
'乐于_'
'中途_'
'一帮_'
'顶尖_'
'震动_'
'轮'
'裂_'
'蠢事_'
'胡说八道_'
'祖'
'琼_'
'炸'
'法定_'
'摩_'
'拘捕_'
'我救_'
'很感兴趣_'
'幼儿园_'
'市场份额_'
'小弟弟_'
'导航_'
'头顶_'
'圣母_'
'回见_'
'哲学家_'
'右翼_'
'变更_'
'半岛_'
'兴'
'关税_'
'全职_'
'先来_'
'体面_'
'乐器_'
'乏味_'
'上任_'
'一月_'
'windows_'
'集'
'那才_'
'进度_'
'这时候_'
'迄今_'
'达尔_'
'纪念品_'
'纪律_'
'粉色_'
'磨'
'演戏_'
'演变_'
'普尔_'
'戒酒_'
'心碎_'
'弗里_'
'市'
'实用_'
'安德森_'
'始于_'
'太过分_'
'外交官_'
'哈罗德_'
'古典_'
'别傻了_'
'切开_'
'分泌_'
'书桌_'
'东北_'
'1990_'
' 。   -   _'
'高等教育_'
'遗体_'
'迈_'
'过高_'
'轨迹_'
'蜜月_'
'葛'
'耽误_'
'维克_'
'第三方_'
'离家_'
'盘'
'监视器_'
'甩掉_'
'生态系统_'
'热腾腾_'
'梅森_'
'数千_'
'彩票_'
'希德_'
'尼基_'
'富兰克林_'
'客'
'夸大_'
'多好_'
'压迫_'
'劳伦斯_'
'功_'
'兰德_'
'傻事_'
'偷来_'
'做错_'
'休息室_'
'不堪_'
'46_'
'预'
'露'
'长达_'
'部族_'
'跟进_'
'衬衣_'
'聆听_'
'统治者_'
'私'
'示威者_'
'癫痫_'
'清晨_'
'海滨_'
'有幸_'
'招呼_'
'拆除_'
'折'
'战斗机_'
'律_'
'异议_'
'帕蒂_'
'岁月_'
'大鼠_'
'大便_'
'多重_'
'外伤_'
'复原_'
'坚称_'
'四点_'
'唯有_'
'售价_'
'哈佛大学_'
'可谓_'
'劳伦_'
'别来_'
'休斯顿_'
'五角大楼_'
'事宜_'
'两杯_'
'不同于_'
'下楼_'
'一秒_'
'43_'
'雾_'
'讲讲_'
'编'
'粒_'
'禁'
'祭_'
'礼品_'
'海豹_'
'测_'
'流产_'
'泵_'
'桥梁_'
'撕裂_'
'所致_'
'急剧_'
'忙于_'
'归来_'
'床'
'对於_'
'外科_'
'国际货币基金组织_'
'团聚_'
'后台_'
'可比_'
'另有_'
'十月_'
'劳_'
'加布里埃尔_'
'冰块_'
'债权人_'
'位'
'事项_'
'不受_'
' ~ _'
'鳄鱼_'
'领地_'
'隐蔽_'
'遍布_'
'过滤_'
'衣'
'腔_'
'联想_'
'答_'
'称作_'
'知觉_'
'猪'
'爱因斯坦_'
'派'
'欧洲人_'
'来个_'
'更长_'
'早晚_'
'新郎_'
'扭转_'
'延期_'
'平息_'
'巴格达_'
'头衔_'
'增多_'
'型号_'
'呼_'
'吉尔_'
'史蒂芬_'
'发电机_'
'发掘_'
'军团_'
'从未见过_'
'一命_'
'逃犯_'
'轻轻_'
'贴心_'
'诈骗_'
'自尊_'
'终_'
'称'
'画画_'
'瑞安_'
'现身_'
'玩儿_'
'猴_'
'根源_'
'暑假_'
'打个招呼_'
'恋情_'
'德语_'
'弟兄_'
'小人_'
'安吉拉_'
'增长率_'
'内森_'
'充当_'
' '   _'
'阴道_'
'阴'
'销毁_'
'铜'
'车队_'
'行长_'
'胸'
'老式_'
'经销商_'
'稳_'
'离职_'
'看得出来_'
'猪肉_'
'步'
'档_'
'树叶_'
'木材_'
'放屁_'
'总额_'
'急需_'
'当场_'
'布鲁塞尔_'
'女郎_'
'奢侈_'
'多达_'
'哈马斯_'
'反过来_'
'划'
'内心深处_'
'代表团_'
'争'
'一日_'
'一分_'
'j_'
'72_'
'齐全_'
'韩'
'陆军_'
'那头_'
'逃出来_'
'退缩_'
'身高_'
'谎话_'
'誓_'
'补助_'
'莉'
'自首_'
'羡慕_'
'结算_'
'童话_'
'窃听器_'
'移除_'
'生命危险_'
'甜甜_'
'狭窄_'
'源头_'
'深圳_'
'求助_'
'昂_'
'无助_'
'承'
'扬_'
'打住_'
'所在地_'
'彩虹_'
'寸_'
'宣言_'
'奉_'
'外星_'
'哈尔_'
'取笑_'
'别着急_'
'减速_'
'兽医_'
'公斤_'
'仁'
'不快_'
'G_'
'马拉松_'
'青_'
'霍尔_'
'集装箱_'
'难得_'
'阳'
'跑道_'
'虚构_'
'秘鲁_'
'礼'
'相符_'
'百老汇_'
'猛烈_'
'烧死_'
'潘'
'涂'
'早该_'
'换取_'
'捐款_'
'捍卫_'
'底线_'
'庆典_'
'安抚_'
'垂直_'
'围_'
'压制_'
'元'
'主持人_'
'三人_'
'高地_'
'顶'
'面孔_'
'阿拉比_'
'那块_'
'赞_'
'贝利_'
'谷物_'
'行不通_'
'莎士比亚_'
'芬兰_'
'紫'
'税务_'
'没空_'
'架构_'
'敌意_'
'效益_'
'搬出去_'
'打搅_'
'废_'
'天知道_'
'处死_'
'命'
'口中_'
'凶杀案_'
'冷血_'
'冰激凌_'
'修补_'
'两份_'
'不良_'
'一英里_'
'高贵_'
'验尸_'
'驱使_'
'雄性_'
'阵营_'
'辩解_'
'足'
'起点_'
'营救_'
'艰苦_'
'舰_'
'缩减_'
'米尔_'
'生死_'
'瑞秋_'
'玛利亚_'
'片'
'洪'
'泥'
'格雷格_'
'杰里米_'
'来访_'
'散发_'
'救济_'
'恐怖袭击_'
'庇护_'
'己_'
'左手_'
'尚'
'审理_'
'培育_'
'圆形_'
'吞_'
'半年_'
'净化_'
'交出_'
'争斗_'
'一线_'
'阿拉_'
'那间_'
'花朵_'
'艾德_'
'肾上腺素_'
'羊'
'缘故_'
'粗暴_'
'相结合_'
'直线_'
'瘟疫_'
'瑟'
'流量_'
'槽_'
'无名_'
'搭配_'
'帮上_'
'带个_'
'实情_'
'学家_'
'存放_'
'奈_'
'创办_'
'凶杀_'
'一票_'
' … … ？_'
'降到_'
'这要_'
'车程_'
'该项_'
'触摸_'
'英勇_'
'舞'
'自责_'
'自由主义_'
'自大_'
'胚胎_'
'置评_'
'编写_'
'经费_'
'破碎_'
'用心_'
'爱河_'
'杠杆_'
'打斗_'
'我数_'
'愧疚_'
'影_'
'定律_'
'安全感_'
'守护_'
'奈'
'坡_'
'回合_'
'喷泉_'
'券_'
'侠_'
'余地_'
'伊桑_'
'令'
'之情_'
'三月_'
'L_'
'顺_'
'转动_'
'赶出_'
'豆_'
'罗斯福_'
'绩效_'
'皮尔斯_'
'版权_'
'树立_'
'杰西卡_'
'替换_'
'新书_'
'数额_'
'征兆_'
'引领_'
'同情心_'
'厘米_'
'厄_'
'危及_'
'免_'
'亚伦_'
'了'
'上传_'
'一百_'
'1997_'
'鸟儿_'
'顶部_'
'过剩_'
'转转_'
'财政部长_'
'虚伪_'
'莉娅_'
'舍'
'致使_'
'编号_'
'硅谷_'
'盲目_'
'树枝_'
'春季_'
'斗'
'捣乱_'
'我付_'
'惊'
'恳求_'
'很会_'
'威尼斯_'
'好日子_'
'奥利_'
'大战_'
'大忙_'
'大屠杀_'
'坎'
'各大_'
'发脾气_'
'关押_'
'像'
'借'
'修道院_'
'会计师_'
'一首歌_'
'一无所获_'
'700_'
'马里_'
'雅各布_'
'重力_'
'那就好_'
'负'
'诺拉_'
'评论家_'
'罗宾_'
'离谱_'
'磁带_'
'真要_'
'特区_'
'潜意识_'
'演'
'涌入_'
'残骸_'
'本次_'
'是'
'斯特拉_'
'挑剔_'
'抗体_'
'投机_'
'微不足道_'
'後_'
'守'
'吗啡_'
'偷看_'
'假发_'
'交易员_'
'三角_'
'R_'
'雷德_'
'降'
'逃出_'
'这篇_'
'赖'
'贬值_'
'让你在_'
'结果显示_'
'粉碎_'
'真名_'
'照相机_'
'毒性_'
'止_'
'格兰特_'
'杰森_'
'春_'
'支持率_'
'摇_'
'挂'
'持枪_'
'拍档_'
'幽默感_'
'希腊人_'
'布兰登_'
'屈服_'
'寺_'
'寡妇_'
'孔'
'好受_'
'备忘录_'
'培根_'
'坚固_'
'均衡_'
'办事处_'
'俄'
'你老_'
'体育场_'
'会带_'
'以致_'
'丰'
'中是_'
'不应_'
'不久前_'
'黑夜_'
'逗_'
'连锁_'
'转过身_'
'跳动_'
'贱_'
'豪'
'胶_'
'胎_'
'肌_'
'玛莎_'
'没完_'
'步入_'
'拼_'
'感谢您_'
'意识形态_'
'心爱_'
'巴尔的摩_'
'寄生虫_'
'填写_'
'参赛_'
'去取_'
'即时_'
'兽_'
'关键在于_'
'公元前_'
'克劳_'
'偷听_'
'世间_'
'专业人士_'
'一页_'
'雕刻_'
'隐'
'钢_'
'进屋_'
'躲起来_'
'赖安_'
'资_'
'诶_'
'西南_'
'花生_'
'等'
'疑虑_'
'火腿_'
'敬'
'战机_'
'怪'
'归咎于_'
'库克_'
'小马_'
'奥斯汀_'
'友情_'
'南瓜_'
'刺杀_'
'内特_'
'克制_'
'值钱_'
'保持沉默_'
'中央银行_'
'世俗_'
'一小部分_'
'一切正常_'
'一倍_'
' + _'
'重塑_'
'里奥_'
'里头_'
'迟早_'
'迁移_'
'踏上_'
'赐予_'
'警署_'
'脉_'
'背面_'
'肥皂_'
'缝合_'
'缘_'
'破案_'
'砰_'
'盖尔_'
'物资_'
'爱上你_'
'熟人_'
'河里_'
'残'
'格拉_'
'柜台_'
'暴徒_'
'放进去_'
'摆'
'托德_'
'成像_'
'忧郁_'
'志'
'太高兴_'
'坠入_'
'后期_'
'叛军_'
'半天_'
'准许_'
'冷漠_'
'六点_'
'作风_'
'估值_'
'为生_'
'一站_'
' · · · _'
'面子_'
'集中精力_'
'诺斯_'
'访谈_'
'茜_'
'私募_'
'疲惫_'
'独裁者_'
'点钟_'
'深受_'
'沙子_'
'柏_'
'普里_'
'新鲜空气_'
'政'
'挺不错_'
'按时_'
'房东_'
'影'
'归功于_'
'工作者_'
'居'
'大力_'
'原材料_'
'印记_'
'卫_'
'冷却_'
'冒昧_'
'八点_'
'停电_'
'保健_'
'侵蚀_'
'使者_'
'传染病_'
'一切顺利_'
'风趣_'
'这款_'
'跳跃_'
'走到_'
'赤'
'谈起_'
'警车_'
'行不行_'
'莎'
'移交_'
'此项_'
'服'
'整夜_'
'捞_'
'怨恨_'
'快餐_'
'往后_'
'尖锐_'
'小鸡_'
'囚禁_'
'哥'
'哈里斯_'
'台阶_'
'原告_'
'十点_'
'出去玩_'
'全球性_'
'争辩_'
'丢弃_'
'不许动_'
'高昂_'
'马修_'
'隆'
'防卫_'
'锦标赛_'
'许_'
'蠢蛋_'
'翼_'
'美人_'
'终点_'
'组件_'
'竭尽全力_'
'流失_'
'来时_'
'投资人_'
'开发者_'
'布斯_'
'山顶_'
'备份_'
'场'
'国务卿_'
'唷_'
'可观_'
'发了_'
'双倍_'
'华尔街日报_'
'分支_'
'出国_'
'偏_'
'伊尔_'
'任职_'
'不理_'
'一贯_'
'is_'
'邻近_'
'进晚餐_'
'路口_'
'警惕_'
'臀部_'
'肾脏_'
'移'
'玉_'
'狂'
'深爱_'
'洋'
'有次_'
'月底_'
'最先_'
'施行_'
'施加_'
'整洁_'
'敲诈_'
'插'
'指派_'
'所见_'
'微博_'
'废墟_'
'并发症_'
'少数民族_'
'密封_'
'多一点_'
'回国_'
'咖啡因_'
'句子_'
'南希_'
'医疗保险_'
'别装_'
'刚刚开始_'
'凯恩_'
'写出_'
'便会_'
'优美_'
'二号_'
'之子_'
'不能不_'
'预料_'
'雄'
'镇定_'
'通行证_'
'身心_'
'跌_'
'诺言_'
'若干_'
'癌_'
'熊猫_'
'水池_'
'水准_'
'氧_'
'橡胶_'
'新建_'
'新任_'
'撒尿_'
'护送_'
'战后_'
'彩色_'
'庭审_'
'审_'
'字'
'妹_'
'妳_'
'国家'
'回头见_'
'商界_'
'后备_'
'发短信_'
'动力学_'
'伞_'
'乳'
'乔纳森_'
'上周五_'
'O_'
' ” 、 “ _'
'迷信_'
'迷'
'观赏_'
'要紧_'
'胡_'
'祭司_'
'痒_'
'电路_'
'爆米花_'
'烧毁_'
'潘_'
'歌声_'
'杰作_'
'无趣_'
'撤_'
'排列_'
'捕获_'
'惯例_'
'怀里_'
'廷_'
'嫌_'
'喜_'
'前男友_'
'修正案_'
'佛罗里达州_'
'佐_'
'会到_'
'不佳_'
' 】 _'
'首尔_'
'静_'
'阳性_'
'这艘_'
'近乎_'
'负债表_'
'要命_'
'背部_'
'编程_'
'繁忙_'
'科特_'
'碰头_'
'百吉饼_'
'玩弄_'
'王后_'
'热心_'
'梦境_'
'来接_'
'月光_'
'最长_'
'更能_'
'新华社_'
'我带_'
'怀着_'
'微弱_'
'很难说_'
'弗斯_'
'年内_'
'完事_'
'孙'
'增大_'
'前一天_'
'冲着_'
'冒出来_'
'供应链_'
'七月_'
'麦凯恩_'
'饱受_'
'难怪_'
'避孕套_'
'这支_'
'这么晚_'
'近距离_'
'迎来_'
'赌'
'质'
'衰竭_'
'股本_'
'聘请_'
'耳环_'
'组装_'
'简化_'
'浪'
'永生_'
'朵_'
'暖_'
'星门_'
'振作起来_'
'挣钱_'
'拉丁美洲_'
'抢走_'
'得意_'
'引力_'
'布满_'
'屋'
'宗教信仰_'
'委内瑞拉_'
'天线_'
'大致_'
'堵住_'
'喝茶_'
'半数_'
'凶_'
'冰冷_'
'使用者_'
'事上_'
'乔丹_'
'不得了_'
'下水道_'
'49_'
'门上_'
'达成协议_'
'聘用_'
'简短_'
'签约_'
'疑惑_'
'独自一人_'
'楼层_'
'既有_'
'无法忍受_'
'救赎_'
'按揭_'
'打出_'
'急于_'
'序列_'
'寒'
'妄想_'
'吉利_'
'反感_'
'公约_'
'侧面_'
'体力_'
'仙'
'不上_'
'下调_'
'三分之二_'
'一出_'
'【 _'
'高峰_'
'高大_'
'问起_'
'逾_'
'通缉_'
'这颗_'
'赞赏_'
'豁免_'
'记起_'
'记号_'
'落入_'
'自以为是_'
'耽搁_'
'福克斯_'
'碰面_'
'痴迷_'
'生动_'
'煤_'
'泥土_'
'波特兰_'
'梅林_'
'极具_'
'最差_'
'更进一步_'
'收买_'
'报社_'
'抢'
'折腾_'
'市值_'
'差一点_'
'套'
'失落_'
'多多_'
'坚果_'
'参'
'去查_'
'协作_'
'动画_'
'制片人_'
'养活_'
'侦察_'
'二十年_'
'举报_'
'韦德_'
'阿萨德_'
'长城_'
'铁矿石_'
'里斯本_'
'遗址_'
'转让_'
'身亡_'
'诱导_'
'诗'
'讲座_'
'苛刻_'
'编制_'
'索尔_'
'筹集_'
'秘诀_'
'漆_'
'浮'
'查找_'
'染_'
'本案_'
'未必_'
'更衣室_'
'无人机_'
'施压_'
'放射性_'
'挑衅_'
'拿些_'
'抽出_'
'扣押_'
'扑_'
'性关系_'
'心意_'
'往返_'
'子公司_'
'大片_'
'备_'
'国内外_'
'喝完_'
'善意_'
'商务中心_'
'受苦_'
'发票_'
'列入_'
'分局_'
'凯撒_'
'关进_'
'储藏室_'
'休斯_'
'人道主义_'
'二者_'
'马歇尔_'
'迈'
'过失_'
'赶出去_'
'该行_'
'被害_'
'行使_'
'虚'
'落到_'
'聪明人_'
'系'
'牢里_'
'爱过_'
'煎饼_'
'烂摊子_'
'澳门_'
'浪_'
'死神_'
'架飞机_'
'文斯_'
'摔跤_'
'技术人员_'
'打得_'
'戏剧性_'
'幼'
'帐单_'
'崔'
'射中_'
'奢侈品_'
'奇异_'
'大气层_'
'坐飞机_'
'告发_'
'反对者_'
'卡路里_'
'公牛_'
'克洛伊_'
'不禁_'
'骨骼_'
'马克斯_'
'静'
'这台_'
'读'
'被盗_'
'莱克_'
'花花公子_'
'肥'
'美国'
'罗恩_'
'经济'
'紧'
'粉'
'米特_'
'管理人员_'
'神像_'
'监护权_'
'用处_'
'游荡_'
'查明_'
'枝_'
'日报_'
'捐_'
'拉开_'
'我方_'
'恢复正常_'
'忠告_'
'德斯_'
'待'
'广'
'工业化_'
'家门_'
'实话实说_'
'垃圾箱_'
'咖啡店_'
'另一只_'
'剧场_'
'会合_'
'也门_'
'久'
'不要紧_'
'上市公司_'
'七点_'
'一连串_'
'MP3_'
'鼓舞_'
'麦克风_'
'饶_'
'震撼_'
'阿尔_'
'锁上_'
'追寻_'
'警戒_'
'范'
'老年_'
'筒_'
'留住_'
'流传_'
'沃伦_'
'最糟_'
'晋级_'
'星期日_'
'新一轮_'
'救出_'
'摄入_'
'控诉_'
'控_'
'拉丁_'
'戴安娜_'
'心率_'
'往来_'
'寻'
'实例_'
'定居_'
'圣诞树_'
'合伙_'
'号'
'发抖_'
'刺伤_'
'凯勒_'
'减缓_'
'人想_'
'乃是_'
'一带_'
'man_'
'魔术师_'
'高跟鞋_'
'高血压_'
'重演_'
'赞扬_'
'诺基亚_'
'自负_'
'能比_'
'肯尼_'
'终生_'
'粗糙_'
'秋季_'
'狗娘养_'
'正试图_'
'格鲁吉亚_'
'格蕾丝_'
'最强_'
'暗中_'
'时速_'
'斯汀_'
'撤回_'
'挖出来_'
'抵御_'
'抱'
'强力_'
'开创_'
'延'
'座椅_'
'巨星_'
'小鼠_'
'宙斯_'
'奶牛_'
'太近_'
'地去_'
'加倍_'
'刑_'
'全年_'
'估算_'
'优'
'人用_'
'个头_'
'丧命_'
'不负责任_'
'一团_'
'鲸_'
'食谱_'
'顶端_'
'镇静剂_'
'那小子_'
'起草_'
'街'
'节约_'
'而成_'
'结实_'
'癖_'
'激增_'
'滚蛋_'
'渡过_'
'活该_'
'此人_'
'据称_'
'拜'
'慈善机构_'
'幅度_'
'小巷_'
'天文学家_'
'增速_'
'圣人_'
'国防部长_'
'同胞_'
'原地_'
'卫'
'加重_'
'兄弟姐妹_'
'佩里_'
'体贴_'
'下注_'
'麦当劳_'
'驳回_'
'钩_'
'重心_'
'重启_'
'那笔_'
'速_'
'追随_'
'起身_'
'蒂娜_'
'自家_'
'腰带_'
'种族歧视_'
'痊愈_'
'电视剧_'
'深远_'
'残疾人_'
'显现_'
'旅游业_'
'摇摆_'
'接纳_'
'掌声_'
'投资银行_'
'彗星_'
'弗朗西斯_'
'广州_'
'市政厅_'
'层'
'尔顿_'
'小行星_'
'宾'
'娘们_'
'地雷_'
'团'
'叶片_'
'取悦_'
'去向_'
'卡罗琳_'
'准'
'偏好_'
'借钱_'
'借鉴_'
'优越_'
'不时_'
'麦吉_'
'高温_'
'重新考虑_'
'采取措施_'
'赛马_'
'谈一谈_'
'许诺_'
'艾尔_'
'航_'
'综合征_'
'粮_'
'矿_'
'省'
'潮湿_'
'款项_'
'梅尔_'
'极力_'
'松鼠_'
'敦_'
'快递_'
'德克斯特_'
'强暴_'
'弹道_'
'岩'
'完全正确_'
'威力_'
'可否_'
'努'
'前女友_'
'倾诉_'
'俄亥俄州_'
'亿'
'东边_'
'下士_'
'ton_'
'54_'
'龙虾_'
'闲逛_'
'避难所_'
'赴_'
'谷仓_'
'谷'
'葬_'
'致'
'美容_'
'第一季_'
'竭力_'
'真爱_'
'痛'
'用过_'
'狼'
'湖泊_'
'有天_'
'拉娜_'
'慌_'
'急事_'
'怀'
'往事_'
'对应_'
'对准_'
'宣扬_'
'多家_'
'四次_'
'喝水_'
'后续_'
'历史学家_'
'功劳_'
'到位_'
'判定_'
'切尔_'
'切割_'
'出轨_'
'休'
'亚特兰蒂斯_'
'不在意_'
'上星期_'
'上头_'
'一瞬间_'
' 。 – _'
'顿'
'零'
'量化_'
'造就_'
'辩护律师_'
'辨别_'
'耳机_'
'罪过_'
'精神病院_'
'类'
'确立_'
'眉毛_'
'盛大_'
'珍珠_'
'王朝_'
'流浪_'
'椅_'
'时装_'
'无害_'
'敬意_'
'探究_'
'掏出_'
'所有者_'
'意大利人_'
'开出_'
'布伦南_'
'巴德_'
'州政府_'
'川_'
'密集_'
'天黑_'
'大笑_'
'外来_'
'地形_'
'变量_'
'单击_'
'出入_'
'会晤_'
'乃至_'
'不及_'
'不关_'
'一个男孩_'
'一个'
'51_'
'" _'
'黎明_'
'马库斯_'
'除去_'
'重庆_'
'误_'
'衣橱_'
'莱克斯_'
'维也纳_'
'稳住_'
'生产总值_'
'泪水_'
'汤普森_'
'服务业_'
'智商_'
'日元_'
'效忠_'
'放入_'
'撒旦_'
'抛开_'
'恼火_'
'心底_'
'开花_'
'射线_'
'好多年_'
'围'
'压缩_'
'华为_'
'光彩_'
'值班_'
'倘若_'
'二级_'
'不大_'
'一程_'
'64_'
'41_'
'110_'
'闪光_'
'邮局_'
'逃出去_'
'追随者_'
'追溯到_'
'进军_'
'跑车_'
'赖_'
'赎金_'
'豆'
'试一下_'
'论点_'
'解密_'
'荷'
'类别_'
'磁'
'看望_'
'盛_'
'棚_'
'最美_'
'无法控制_'
'推理_'
'截至_'
'当个_'
'广大_'
'年长_'
'年初_'
'威尔士_'
'困住_'
'嘉宾_'
'吞噬_'
'兑换_'
'健全_'
'仁_'
'书上_'
'中弹_'
'两句_'
'三维_'
'st_'
'P_'
' 。 —   _'
'   '
'魂_'
'非正式_'
'雷切尔_'
'零钱_'
'迫不及待_'
'跪_'
'豪_'
'蘑菇_'
'第六_'
'痉挛_'
'步枪_'
'核实_'
'期刊_'
'暴动_'
'暴乱_'
'旅店_'
'救世主_'
'提倡_'
'抛'
'抑郁症_'
'打印机_'
'市场经济_'
'展出_'
'尾'
'国旗_'
'嗓音_'
'向导_'
'创'
'写给_'
'光辉_'
'倒塌_'
'伴娘_'
'亲属_'
'乌_'
'丹佛_'
'ng_'
'52_'
'饮酒_'
'雷诺_'
'金牌_'
'速'
'赔_'
'败_'
'谋杀罪_'
'茶水_'
'纽约州_'
'穿透_'
'益处_'
'界面_'
'甚么_'
'热烈_'
'消毒_'
'毗邻_'
'服饰_'
'散布_'
'敏锐_'
'捕鱼_'
'拿掉_'
'戒烟_'
'心烦_'
'审美_'
'多元化_'
'多于_'
'可别_'
'决斗_'
'公车_'
'保持联系_'
'侦查_'
'侏儒_'
'佐'
'伤疤_'
'书里_'
'三分钟_'
'ch_'
' ．_'
' ！ - _'
'鲁莽_'
'陆'
'逃亡_'
'这么回事_'
'走动_'
'请别_'
'衣板_'
'街角_'
'范畴_'
'胰岛素_'
'耶鲁_'
'耐'
'罐头_'
'编造_'
'经纪_'
'紧迫_'
'福岛_'
'砖_'
'用药_'
'环球_'
'燃油_'
'治好_'
'栏_'
'村'
'快点儿_'
'平稳_'
'布丁_'
'女仆_'
'太糟_'
'填'
'吐'
'同等_'
'到手_'
'公认_'
'八月_'
'儿'
'似_'
'丢人_'
'下方_'
'一包_'
'ne_'
'58_'
'2015_'
'1500_'
'逛_'
'逆转_'
'输出_'
'贴'
'诱饵_'
'补给_'
'营'
'菜'
'芝士_'
'竹'
'示范_'
'真让人_'
'相识_'
'百万富翁_'
'爱心_'
'火辣_'
'涵盖_'
'活生生_'
'梯子_'
'杰里_'
'明信片_'
'日渐_'
'斯宾塞_'
'捏_'
'振作_'
'打劫_'
'大都会_'
'外汇_'
'圣灵_'
'图形_'
'哈罗_'
'呵_'
'听取_'
'厄尔_'
'保险柜_'
'传媒_'
'为难_'
'业'
'不合_'
'一宗_'
'1980_'
' … ... _'
'黛_'
'马尔'
'要钱_'
'缴纳_'
'继_'
'类固醇_'
'管它_'
'矿业_'
'测'
'法式_'
'早安_'
'数码_'
'数十年_'
'数到_'
'我放_'
'成效_'
'忍耐_'
'心存_'
'开销_'
'干酪_'
'学员_'
'威廉姆斯_'
'妻_'
'外资_'
'外卖_'
'外人_'
'壶_'
'坐落_'
'可言_'
'升'
'出版社_'
'几条_'
'减税_'
'冰岛_'
'停滞_'
'中说_'
'一棵_'
'验尸官_'
'马德里_'
'陪审员_'
'闲'
'铅_'
'金融体系_'
'邓肯_'
'追赶_'
'这算_'
'贩卖_'
'财'
'西尔_'
'蒙特_'
'脑中_'
'终端_'
'管好_'
'空袭_'
'空虚_'
'电动_'
'理会_'
'然'
'深感_'
'法警_'
'沙龙_'
'歇_'
'松开_'
'未曾_'
'普及_'
'攀升_'
'摩托_'
'搭'
'愈合_'
'屠夫_'
'寺庙_'
'宽'
'完工_'
'外观_'
'壮_'
'墨水_'
'坠落_'
'哺乳动物_'
'向北_'
'反思_'
'历程_'
'南边_'
'分娩_'
'决策者_'
'决定性_'
'他长_'
'人中_'
'些许_'
'乘'
'na_'
'1994_'
'鼓'
'题目_'
'音乐剧_'
'这比_'
'车牌_'
'身穿_'
'试镜_'
'警徽_'
'角度看_'
'股'
'突变_'
'社团_'
'看一看_'
'疏远_'
'畸形_'
'现实生活_'
'猛'
'狄'
'犯法_'
'流通_'
'沉浸_'
'栅栏_'
'期盼_'
'更少_'
'晚期_'
'故_'
'拇指_'
'报答_'
'往前走_'
'开战_'
'府_'
'嫩_'
'太早_'
'大衣_'
'坚'
'地道_'
'哮喘_'
'品位_'
'占'
'南美_'
'医保_'
'到哪去_'
'几岁_'
'冥想_'
'俄_'
'侄女_'
'人均_'
'九年_'
'万分_'
' ， ， _'
'黑市_'
'骑车_'
'重罪_'
'酒馆_'
'迫害_'
'辞_'
'证'
'被控_'
'行踪_'
'萨尔_'
'罗德尼_'
'绝'
'绕过_'
'结案_'
'签'
'磨_'
'看重_'
'盐'
'玩偶_'
'牌照_'
'洗礼_'
'沉'
'氮_'
'核能_'
'材_'
'方向盘_'
'放贷_'
'放假_'
'开幕_'
'开场_'
'尼古拉斯_'
'地质_'
'地被_'
'四天_'
'哀悼_'
'咖啡厅_'
'后背_'
'同居_'
'发酵_'
'务必_'
'光速_'
'伤痛_'
'会派_'
'交际_'
'亚利桑那州_'
'主观_'
'东区_'
'三号_'
'一班_'
'鼻'
'闯_'
'闭上眼睛_'
'铝_'
'这招_'
'记着_'
'装有_'
'花园里_'
'芭芭拉_'
'耗尽_'
'罪案_'
'男子汉_'
'甜美_'
'玩完_'
'满是_'
'浅'
'梦幻_'
'核磁共振_'
'方位_'
'探望_'
'拦住_'
'护_'
'得逞_'
'很晚_'
'很差_'
'奖杯_'
'大老远_'
'埋伏_'
'后援_'
'名下_'
'受够_'
'博比_'
'出人意料_'
'内幕_'
'光临_'
'停职_'
'休克_'
'乳头_'
'之道_'
'中央政府_'
'一则_'
'DVD_'
'鼓掌_'
'鹦鹉_'
'饲料_'
'餐桌_'
'雅典_'
'防范_'
'议程_'
'菜鸟_'
'胃'
'肤色_'
'约旦_'
'照明_'
'灌木_'
'潜入_'
'没理由_'
'水流_'
'比不上_'
'条路_'
'朗'
'日程_'
'控股_'
'挫折_'
'挖'
'我哥_'
'必将_'
'很重_'
'常识_'
'头条_'
'大豆_'
'多岁_'
'坏话_'
'在读_'
'后天_'
'可要_'
'前去_'
'出示_'
'农产品_'
'册_'
'何必_'
'低下_'
'产能_'
'三大_'
'一体化_'
'180_'
'餐饮_'
'颠覆_'
'青睐_'
'需要的话_'
'阿什_'
'门锁_'
'轮子_'
'资'
'话'
'记下来_'
'讨好_'
'苦恼_'
'舒'
'臂_'
'肢体_'
'简洁_'
'秋_'
'真能_'
'爱着_'
'熟知_'
'杆菌_'
'杂货店_'
'日后_'
'无用_'
'揭开_'
'据'
'技术'
'扼杀_'
'忍_'
'带点_'
'市政府_'
'寿司_'
'安然_'
'安全局_'
'媒介_'
'好感_'
'失眠_'
'大餐_'
'坛_'
'咒_'
'吊'
'各州_'
'召回_'
'制约_'
'函数_'
'出动_'
'几百万_'
'冷酷_'
'充实_'
'佩_'
'伸展_'
'交配_'
'串_'
'中介_'
'严密_'
'不怎么样_'
'   ， _'
'驴_'
'靠着_'
'零食_'
'退房_'
'迟钝_'
'进球_'
'赛事_'
'衫_'
'蛋蛋_'
'营造_'
'管辖_'
'福斯特_'
'省省_'
'目'
'甜'
'深陷_'
'油田_'
'板'
'有枪_'
'景'
'新一代_'
'掉头_'
'振动_'
'抽象_'
'心扉_'
'尿'
'女演员_'
'外边_'
'商业银行_'
'吉娜_'
'勋爵_'
'何况_'
'人力_'
'井'
'专长_'
'不合理_'
'te_'
' ...   ？_'
'默多克_'
'黎巴嫩_'
'驾_'
'钠_'
'钉子_'
'量'
'采纳_'
'郎_'
'那片_'
'那太_'
'道具_'
'辛格_'
'走来_'
'读完_'
'订购_'
'计'
'蚊子_'
'能活_'
'绰号_'
'绑匪_'
'纳税_'
'粪便_'
'稳定性_'
'离家出走_'
'矿工_'
'睾丸_'
'畏惧_'
'清空_'
'治疗师_'
'比特_'
'棍_'
'检'
'格外_'
'样式_'
'板块_'
'暖'
'旺_'
'教科书_'
'扫'
'所得税_'
'想一想_'
'平行_'
'平壤_'
'工作岗位_'
'导游_'
'对立_'
'守住_'
'天性_'
'大喊大叫_'
'多伦多_'
'古人_'
'原有_'
'印度人_'
'卫星电视_'
'匆匆_'
'制定者_'
'初次_'
'创下_'
'分化_'
'具'
'关怀_'
'傍晚_'
'付'
'九点_'
'举'
'不接_'
'一两个_'
'默认_'
'骨灰_'
'骆驼_'
'颈部_'
'附属_'
'附_'
'镇静_'
'酮_'
'赛道_'
'谦虚_'
'草案_'
'英亩_'
'舞伴_'
'舅舅_'
'自治_'
'缺席_'
'绘制_'
'紊乱_'
'米切尔_'
'瓦尔_'
'灾难性_'
'漂浮_'
'海岸线_'
'梁'
'本拉登_'
'时分_'
'敲'
'摄影机_'
'挑起_'
'拉美_'
'手势_'
'截然不同_'
'怎么弄_'
'得够_'
'征税_'
'宝马_'
'好大_'
'墓_'
'圣地_'
'唐纳德_'
'去除_'
'助'
'刻意_'
'佳'
'体型_'
'代谢_'
'他开_'
'交付_'
'书中_'
'之处_'
'鼻_'
'露台_'
'陶'
'附'
'阿尔法_'
'闪烁_'
'镇'
'诠释_'
'计画_'
'自然资源_'
'纪录片_'
'简称_'
'私营_'
'真会_'
'盛'
'生来_'
'犯'
'特许_'
'灭亡_'
'沉_'
'沃特_'
'柬埔寨_'
'无尽_'
'无处不在_'
'族人_'
'政府部门_'
'拼'
'战利品_'
'很傻_'
'帅气_'
'市里_'
'巴克斯_'
'州立大学_'
'山区_'
'届时_'
'家庭成员_'
'孙女_'
'夺取_'
'大理石_'
'外加_'
'复活节_'
'唐娜_'
'吃醋_'
'加利福尼亚州_'
'别烦_'
'别吵_'
'出行_'
'公式_'
'信誉_'
'从那时起_'
'仍'
'五岁_'
'乌鸦_'
'不同寻常_'
'万能_'
'ia_'
'飞过_'
'阿波罗_'
'逗留_'
'退化_'
'诽谤_'
'解救_'
'蟹_'
'茎_'
'臣_'
'罪孽_'
'粉红色_'
'简报_'
'窗子_'
'礼仪_'
'瞪_'
'看护_'
'疯'
'申请人_'
'瓜_'
'理应_'
'玩吧_'
'犹大_'
'没命_'
'水分_'
'毛发_'
'本法_'
'暴雨_'
'显_'
'斯塔克_'
'接口_'
'思念_'
'很累_'
'市政_'
'巧_'
'宏伟_'
'姨妈_'
'好意_'
'好奇心_'
'失衡_'
'大亨_'
'外公_'
'地向_'
'圈子_'
'哥伦布_'
'厚'
'卡罗尔_'
'卡恩_'
'劫匪_'
'分发_'
'出钱_'
'克兰_'
'先锋_'
'倒数_'
'信不信_'
'两党_'
'不用谢_'
'一看_'
'间隔_'
'适宜_'
'进食_'
'辨认_'
'赎罪_'
'语法_'
'西斯_'
'裹_'
'脉冲_'
'老弟_'
'缺'
'给钱_'
'稿_'
'病历_'
'猛_'
'清洁工_'
'氢_'
'民意调查_'
'核对_'
'晋升_'
'旗帜_'
'文森特_'
'敏'
'振'
'找份_'
'所处_'
'彭'
'开张_'
'幺_'
'小提琴_'
'媒体报道_'
'奥利维亚_'
'多样化_'
'古希腊_'
'发病_'
'原型_'
'十字_'
'医药_'
'勒死_'
'到场_'
'凡人_'
'传记_'
'乳_'
'两件事_'
'不知情_'
'不好过_'
'M_'
'麻'
'飞翔_'
'颁发_'
'银河系_'
'退役_'
'运到_'
'足迹_'
'谜_'
'请客_'
'血清_'
'莫里斯_'
'英特尔_'
'花瓶_'
'绝大部分_'
'突发_'
'知识分子_'
'真菌_'
'省份_'
'相比之下_'
'的'
'狐狸_'
'爆'
'消遣_'
'波比_'
'没得_'
'检_'
'框_'
'格局_'
'昆'
'旋'
'接过_'
'托比_'
'戒毒_'
'我心_'
'感人_'
'弦_'
'布什总统_'
'对照_'
'容量_'
'字典_'
'太漂亮_'
'墨'
'嘴'
'喜好_'
'哪边_'
'口信_'
'南极_'
'办案_'
'副'
'刻'
'别过来_'
'几句话_'
'伯特_'
'仓_'
'人心_'
'东南亚_'
'不问_'
'不易_'
'下列_'
'三十年_'
'4000_'
'齿_'
'香味_'
'隔'
'邮票_'
'遗'
'递交_'
'这车_'
'诺亚_'
'警'
'见过面_'
'衣物_'
'行进_'
'蒸汽_'
'节能_'
'胸罩_'
'胶'
'监护人_'
'监护_'
'登录_'
'特种部队_'
'特德_'
'牛津_'
'煎熬_'
'派克_'
'泉_'
'止痛药_'
'样'
'柯_'
'枪伤_'
'杜克_'
'有家_'
'捡起来_'
'招供_'
'惊慌_'
'总的来说_'
'弗雷迪_'
'弗雷_'
'开过_'
'太难_'
'塔拉_'
'哪天_'
'写'
'党内_'
'信息技术_'
'住址_'
'伊斯_'
'人情_'
'严'
'一击_'
'一再_'
'非常适合_'
'阴性_'
'讨价还价_'
'触_'
'西边_'
'藏身_'
'薯条_'
'获益_'
'脊椎_'
'胆固醇_'
'职工_'
'缺口_'
'缉毒_'
'结构性_'
'科恩_'
'私生活_'
'禽兽_'
'破灭_'
'看做_'
'皮带_'
'界定_'
'画像_'
'爪子_'
'灌输_'
'湖边_'
'池塘_'
'棉'
'期货_'
'时有_'
'时报_'
'整齐_'
'描写_'
'掌权_'
'抑或_'
'打理_'
'总量_'
'徒_'
'弗莱_'
'弗林_'
'容'
'审批_'
'安吉_'
'存货_'
'奥林匹克_'
'夸_'
'处理器_'
'墨西哥人_'
'囊_'
'同性_'
'卡蒂_'
'击球_'
'出过_'
'入手_'
'借款_'
'亲眼_'
'主宰_'
'东欧_'
'世界银行_'
'不好受_'
'android_'
' ？ '
' ， '
'顶上_'
'配件_'
'通告_'
'透'
'过节_'
'起步_'
'血流_'
'脚印_'
'老天爷_'
'缩_'
'纽'
'筹款_'
'神庙_'
'生物学家_'
'熟练_'
'火柴_'
'波音_'
'沙特阿拉伯_'
'桥'
'播放器_'
'报名_'
'惊吓_'
'恋人_'
'快进来_'
'店铺_'
'平方英尺_'
'寄宿_'
'孤儿院_'
'太美_'
'太紧_'
'天分_'
'大方_'
'埃文_'
'后卫_'
'司法部_'
'反常_'
'印度尼西亚_'
'剪刀_'
'别怕_'
'出汗_'
'公交车_'
'俘虏_'
'价'
'他妈_'
'今夜_'
'不起作用_'
'一切都在_'
'Twitter_'
'57_'
'高压_'
'面板_'
'金枪鱼_'
'转弯_'
'越是_'
'警卫队_'
'莲_'
'胜出_'
'罗莎_'
'缩水_'
'绷带_'
'窃取_'
'登机_'
'生化_'
'片刻_'
'爷_'
'热点_'
'浓缩_'
'民族'
'殿_'
'橙色_'
'柳'
'月初_'
'更深_'
'暴'
'时才_'
'政_'
'抢劫案_'
'性骚扰_'
'必要性_'
'德鲁_'
'开端_'
'小便_'
'小伙_'
'大块头_'
'大于_'
'卷'
'功'
'便'
'侵害_'
'传单_'
'下毒_'
'三角洲_'
'一如既往_'
'闷_'
'针'
'迎合_'
'达蒙_'
'跌倒_'
'说句话_'
'解答_'
'褐色_'
'袭_'
'英国政府_'
'花旗_'
'自动化_'
'经由_'
'穿成_'
'离不开_'
'看得出_'
'现存_'
'牲畜_'
'烤肉_'
'滩_'
'液晶_'
'气质_'
'果然_'
'望'
'无赖_'
'文物_'
'敌对_'
'放纵_'
'摘_'
'打了个_'
'性欲_'
'异教徒_'
'带入_'
'局'
'家庭影院_'
'客户服务_'
'壁橱_'
'基准_'
'地平线_'
'君主_'
'入学_'
'催_'
'交通工具_'
'之名_'
'上个星期_'
' ， — — _'
'鲜明_'
'项目经理_'
'震'
'队'
'退休金_'
'跨国公司_'
'评'
'订阅_'
'角落里_'
'被关_'
'科林_'
'神经元_'
'盼_'
'相邻_'
'疲软_'
'狂野_'
'牵连_'
'照相_'
'渔船_'
'清真寺_'
'津贴_'
'民族主义_'
'橡树_'
'斯隆_'
'支架_'
'揭发_'
'指认_'
'把'
'我得_'
'懦弱_'
'总要_'
'念'
'归还_'
'幸好_'
'常客_'
'奔跑_'
'发财_'
'分校_'
'军火_'
'再试一次_'
'俗_'
'促销_'
'低头_'
'亚伯拉罕_'
'之心_'
'雨水_'
'除外_'
'问题所在_'
'血样_'
'薄'
'舆论_'
'胆_'
'竞技场_'
'突尼斯_'
'空缺_'
'稍等一下_'
'研究进展_'
'特尔_'
'点半_'
'点事_'
'深夜_'
'淡水_'
'洗衣机_'
'水源_'
'极好_'
'日出_'
'按计划_'
'拷贝_'
'手镯_'
'战友_'
'感到高兴_'
'惧怕_'
'总数_'
'并非如此_'
'家务_'
'完好_'
'奖赏_'
'夏日_'
'向南_'
'动手术_'
'再用_'
'内脏_'
'关乎_'
'亿万富翁_'
'乱搞_'
'个人电脑_'
'上楼去_'
'高估_'
'飘'
'风力_'
'颁布_'
'闪亮_'
'酋长_'
'遗漏_'
'近日_'
'迈出_'
'身着_'
'谈恋爱_'
'论证_'
'许'
'言辞_'
'衰老_'
'苍白_'
'芭蕾_'
'能为_'
'维克托_'
'笨拙_'
'神灵_'
'短时间_'
'眼睁睁_'
'琢磨_'
'洗衣_'
'此处_'
'权势_'
'机理_'
'服药_'
'易于_'
'无私_'
'旋律_'
'改良_'
'摆平_'
'捐献_'
'抓走_'
'悄悄_'
'录下来_'
'弟兄们_'
'季'
'套装_'
'夺回_'
'太重_'
'天体_'
'大伙儿_'
'外形_'
'地域_'
'啦啦队_'
'吹嘘_'
'厄'
'千年_'
'别生气_'
'别挂_'
'初创_'
'关键词_'
'兰迪_'
'全能_'
'光是_'
'借此_'
'佳_'
'作对_'
'众'
'令人震惊_'
'交朋友_'
'乱动_'
'不自在_'
'~ _'
'F_'
'61_'
' ~_'
'顶峰_'
'青春期_'
'阿司匹林_'
'阴暗_'
'采_'
'那本_'
'那会儿_'
'遵命_'
'迫切_'
'近代_'
'超声_'
'走近_'
'赐_'
'课'
'计程车_'
'自有_'
'腐蚀_'
'胁迫_'
'老兵_'
'网络'
'维基_'
'突击_'
'盈余_'
'瓦解_'
'班上_'
'熊'
'沿'
'水资源_'
'桩_'
'树脂_'
'查过_'
'来信_'
'杀了人_'
'服刑_'
'时段_'
'斑_'
'推到_'
'挺住_'
'挫败_'
'投行_'
'怀抱_'
'尤为_'
'寒_'
'好话_'
'大笔_'
'基尔_'
'围巾_'
'喇叭_'
'启用_'
'吓跑_'
'化身_'
'传票_'
'代尔_'
'亲切_'
'不论是_'
'不好玩_'
'university_'
'饥渴_'
'雌性_'
'雄_'
'阿门_'
'阻挠_'
'里边_'
'那颗_'
'趴在_'
'赶'
'赦免_'
'贯穿_'
'装扮_'
'被称作_'
'蛋'
'蒙古_'
'科斯_'
'祝你们_'
'病变_'
'电子书_'
'琪_'
'环境保护_'
'牌'
'湿'
'民调_'
'有条_'
'有所不同_'
'日历_'
'无线网络_'
'排行榜_'
'掀起_'
'捧_'
'批_'
'度假村_'
'底层_'
'巫术_'
'崇高_'
'大侠_'
'外壳_'
'外围_'
'增添_'
'埃尔'
'哥本哈根_'
'发过_'
'卡罗_'
'前者_'
'划船_'
'几秒钟_'
'典礼_'
'会变_'
'令人兴奋_'
'五十_'
'之手_'
'不太'
'一个个_'
'The_'
'1992_'
'龙卷风_'
'黑猩猩_'
'高级官员_'
'顺从_'
'面对现实_'
'起居室_'
'西伯利亚_'
'肩上_'
'罪人_'
'索赔_'
'精液_'
'科研_'
'研究院_'
'砍掉_'
'看得见_'
'王室_'
'灾害_'
'溜走_'
'洛夫_'
'洗衣店_'
'村里_'
'替代品_'
'新近_'
'改动_'
'房顶_'
'房客_'
'开罗_'
'尿布_'
'富豪_'
'宾夕法尼亚州_'
'季节性_'
'境外_'
'四分_'
'啥事_'
'哎呀_'
'吹牛_'
'双腿_'
'又'
'十岁_'
'刮'
'别介意_'
'写信给_'
'公元_'
'入侵者_'
'充分利用_'
'修订_'
'便捷_'
'之物_'
'下水_'
'一扇_'
'group_'
'56_'
'1995_'
'麦迪逊_'
'鸡巴_'
'露易丝_'
'霜_'
'防线_'
'锋利_'
'银色_'
'重获_'
'醇_'
'邻居们_'
'那栋_'
'词语_'
'讲究_'
'蓄意_'
'胡闹_'
'胆量_'
'聚在一起_'
'职'
'聋_'
'租'
'相关性_'
'番茄_'
'畜生_'
'爪_'
'照亮_'
'混淆_'
'涂鸦_'
'洛根_'
'毙_'
'毕'
'桌面_'
'束_'
'本杰明_'
'本地人_'
'曼谷_'
'无法解释_'
'摩根士丹利_'
'摇'
'我累_'
'巴比伦_'
'已然_'
'学过_'
'婚前_'
'失调_'
'失明_'
'天主_'
'坚硬_'
'叫声_'
'即刻_'
'劫持_'
'加厚_'
'内陆_'
'内有_'
'像样_'
'体积_'
'低级_'
'会以_'
'会令_'
'代号_'
'乳房_'
'乞求_'
'一滴_'
'一千_'
'飞行器_'
'闯进来_'
'闭_'
'里昂_'
'遗迹_'
'连任_'
'财_'
'谢泼德_'
'请来_'
'触及_'
'蒸发_'
'肖'
'美国国会_'
'结了婚_'
'盘问_'
'溪_'
'海鲜_'
'洗衣服_'
'毛泽东_'
'欲'
'柯林斯_'
'朱利安_'
'曼联_'
'晚间_'
'时钟_'
'时说_'
'无与伦比_'
'断定_'
'数值_'
'救人_'
'撤出_'
'搭讪_'
'拉夫_'
'抢走了_'
'感官_'
'快给我_'
'开到_'
'姬_'
'天津_'
'大吃一惊_'
'填满_'
'场上_'
'勃起_'
'到家_'
'免于_'
'你行_'
'五分之一_'
'iPhone_'
'62_'
'铀_'
'迪安_'
'载'
'车库里_'
'调动_'
'蜜'
'获'
'莱纳_'
'脑海中_'
'联系人_'
'罚单_'
'罗马尼亚_'
'终'
'票'
'理所当然_'
'珍'
'煤矿_'
'灌_'
'湖'
'深渊_'
'浓_'
'法子_'
'河水_'
'染色体_'
'更强_'
'晶体_'
'敏_'
'故'
'政治'
'挑战性_'
'拐_'
'抚摸_'
'抓捕_'
'抄_'
'截止_'
'我想'
'微波_'
'席'
'尖'
'小路_'
'实实在在_'
'唤起_'
'听力_'
'向西_'
'取得成功_'
'即兴_'
'出庭作证_'
'充满活力_'
'俯瞰_'
'來_'
'佣金_'
'伊凡_'
'买来_'
'乞丐_'
'中西部_'
'一刀_'
'B'
'53_'
'鲜'
'首饰_'
'饥荒_'
'顾虑_'
'靴_'
'钟头_'
'遥控器_'
'逛逛_'
'通行_'
'辣妹_'
'跳下去_'
'赎回_'
'荣'
'舞步_'
'肉类_'
'美国银行_'
'继续前进_'
'约克_'
'碰过_'
'矿'
'电子商务_'
'珊_'
'犹如_'
'熄灭_'
'煽动_'
'炉_'
'活泼_'
'泼_'
'污点_'
'死亡率_'
'标本_'
'柴油_'
'显'
'无耻_'
'无声_'
'断裂_'
'放慢_'
'提早_'
'扣'
'打着_'
'布伦达_'
'尽我所能_'
'就业机会_'
'小宝贝_'
'宋'
'大家庭_'
'圈'
'告诫_'
'卡里_'
'务_'
'兔_'
'偷偷摸摸_'
'人渣_'
'五天_'
'三条_'
'一脚_'
'一是_'
'ie_'
'黛'
'铐_'
'邓_'
'迪伦_'
'评审_'
'艾琳_'
'聚_'
'美德_'
'纪念碑_'
'素描_'
'粉红_'
'突击队_'
'瓦斯_'
'热闹_'
'添_'
'消防_'
'没干_'
'比基尼_'
'正事_'
'曲棍球_'
'旨意_'
'旁'
'新生儿_'
'文凭_'
'效仿_'
'援引_'
'揭晓_'
'接种_'
'拉塞尔_'
'惠'
'得救_'
'弄坏了_'
'宫'
'客机_'
'审'
'婆_'
'奔_'
'天主教徒_'
'大坝_'
'垂'
'发音_'
'参赛者_'
'千米_'
'刺客_'
'出海_'
'几时_'
'农夫_'
'克莱默_'
'倾'
'亵渎_'
'亮点_'
'习俗_'
'中场_'
'上报_'
'一排_'
'1991_'
'钙_'
'邀_'
'这会儿_'
'说点_'
'说不出_'
'胡萝卜_'
'肠'
'罗密欧_'
'精通_'
'留个_'
'申报_'
'玷污_'
'煤'
'溅_'
'洞'
'没门_'
'毒蛇_'
'楼'
'查出来_'
'杀虫剂_'
'无论怎样_'
'族群_'
'斯塔_'
'擦伤_'
'措辞_'
'招待会_'
'打折_'
'慢'
'感恩_'
'忍者_'
'待会_'
'年级_'
'干部_'
'多名_'
'多元_'
'备'
'堤_'
'售_'
'哪家_'
'告终_'
'印第安_'
'医_'
'匹_'
'副队长_'
'别跑_'
'分担_'
'出任_'
'冬'
'兑_'
'做人_'
'侵略_'
'何_'
'体操_'
'以内_'
'乌龟_'
'丧'
'东北部_'
'不便_'
'上钩_'
'一秒钟_'
'一早_'
'ter_'
'inc_'
'R'
'1996_'
' － － _'
'鬼混_'
'预知_'
'顾'
'非常高兴_'
'雷恩_'
'集市_'
'附带_'
'问道_'
'酒后_'
'酒保_'
'邓'
'避'
'距'
'诡计_'
'诚意_'
'讲故事_'
'解体_'
'良'
'自觉_'
'胺_'
'胸腔_'
'联手_'
'老爷_'
'积蓄_'
'私有化_'
'睡得_'
'病症_'
'烤箱_'
'洲_'
'洗漱_'
'水疗_'
'民事_'
'棍子_'
'某种意义_'
'木偶_'
'显微镜_'
'星巴克_'
'日本政府_'
'新增_'
'搅_'
'提起过_'
'排放量_'
'掌_'
'拨打_'
'拉姆_'
'扯淡_'
'情妇_'
'弄伤_'
'巴比_'
'夺'
'埃德_'
'圣战_'
'叛乱_'
'参选_'
'卵_'
'加深_'
'前锋_'
'制订_'
'别误会_'
'光顾_'
'僵硬_'
'佩尔_'
'伸_'
'仔细听_'
'亿元_'
'个性化_'
'两起_'
'98_'
'首选_'
'额头_'
'锁'
'那群_'
'逮住_'
'送往_'
'这首_'
'达尔文_'
'起义_'
'西德_'
'蜥蜴_'
'肤浅_'
'联合政府_'
'职能_'
'维特_'
'穆_'
'破坏性_'
'皮革_'
'甚'
'猫咪_'
'炎症_'
'未成年_'
'斯通_'
'摔下来_'
'换掉_'
'挤压_'
'拉拉_'
'扭'
'戈尔_'
'慢跑_'
'慕尼黑_'
'意想不到_'
'忠心_'
'录影带_'
'店主_'
'平面_'
'巴尔_'
'工程学_'
'坠机_'
'告'
'医疗保健_'
'剑'
'分割_'
'冻'
'冰冻_'
'佩服_'
'传教士_'
'优_'
'二十_'
'买入_'
'丫_'
'两件_'
'上调_'
'上见_'
'68_'
'非政府_'
'锡'
'迈尔斯_'
'路透社_'
'蝙蝠侠_'
'薄荷_'
'药店_'
'荣_'
'腾_'
'脱下来_'
'肌'
'细微_'
'纽_'
'精选_'
'看穿_'
'直径_'
'盗版_'
'犯傻_'
'燕麦片_'
'熨衣板_'
'清算_'
'海峡_'
'氧化_'
'正规_'
'最起码_'
'最受_'
'晃_'
'数字化_'
'接头_'
'换上_'
'承担责任_'
'恩怨_'
'弗罗_'
'带枪_'
'布料_'
'岸_'
'尘埃_'
'小心翼翼_'
'密歇根_'
'宾客_'
'家门口_'
'头晕_'
'可口_'
'博士学位_'
'半辈子_'
'军士_'
'典范_'
'六岁_'
'入境_'
'免'
'低温_'
'优惠券_'
'令人吃惊_'
'人际关系_'
'乱来_'
'中华人民共和国_'
'东亚_'
'专_'
'不然的话_'
'高点_'
'马萨诸塞州_'
'饭碗_'
'颇为_'
'阴茎_'
'送走_'
'豆子_'
'调查局_'
'认'
'被动_'
'表扬_'
'莱斯_'
'肺炎_'
'符_'
'童'
'积_'
'私家侦探_'
'监'
'电网_'
'珀西_'
'烂'
'火炬_'
'渣_'
'泪_'
'毒瘾_'
'歹徒_'
'正向_'
'梅德韦_'
'构想_'
'无数次_'
'教派_'
'敏捷_'
'掷_'
'拒_'
'彩排_'
'幕_'
'宏观_'
'多半_'
'号召_'
'叉_'
'博弈_'
'单个_'
'前额_'
'准备就绪_'
'冷淡_'
'傻'
'低价_'
'伸手_'
'伤感_'
'交到_'
'乙醇_'
'中国共产党_'
'不干_'
'一试_'
'一体_'
'P'
'高质量_'
'验'
'马克思主义_'
'领取_'
'问到_'
'重创_'
'都'
'轻而易举_'
'莫莉_'
'穆巴拉克_'
'碧'
'眼看_'
'真为_'
'病态_'
'波多黎各_'
'汇_'
'模_'
'染上_'
'日前_'
'攻'
'搞'
'控制系统_'
'执着_'
'愚弄_'
'忘不了_'
'得罪_'
'异_'
'带回去_'
'尼娜_'
'小吃_'
'尊贵_'
'字条_'
'奶'
'多难_'
'地里_'
'在座_'
'四肢_'
'喝啤酒_'
'哪条_'
'味儿_'
'即便如此_'
'卢比_'
'单人床_'
'割'
'分居_'
'僵局_'
'信奉_'
'例行_'
'五点_'
'东南_'
'上游_'
'一盒_'
'la_'
'ge_'
' ？ 。 _'
'？ _'
'麻_'
'高山_'
'风险投资_'
'题材_'
'露天_'
'闪耀_'
'闪'
'金星_'
'这真_'
'这天_'
'过日子_'
'轮廓_'
'跳过_'
'购_'
'责任感_'
'调控_'
'设'
'解药_'
'至极_'
'肥料_'
'继父_'
'神经系统_'
'磁场_'
'痛恨_'
'生前_'
'猩猩_'
'牵'
'烈_'
'洁净_'
'日内瓦_'
'教养_'
'掠夺_'
'拿破仑_'
'抱抱_'
'报案_'
'手持_'
'成天_'
'情绪化_'
'恶人_'
'恕我直言_'
'恒温_'
'怎会_'
'心头_'
'徐'
'尼克松_'
'宅_'
'学说_'
'失灵_'
'多远_'
'哪能_'
'向左转_'
'化学品_'
'击'
'军事行动_'
'公事_'
'儿女_'
'假扮_'
'两半_'
'不爱_'
'下药_'
'一盘_'
'se_'
'O'
'H_'
'高价_'
'零部件_'
'阵_'
'长寿_'
'野营_'
'配对_'
'辣椒_'
'车门_'
'赐给_'
'货运_'
'诺曼_'
'要用_'
'衍生_'
'行列_'
'芬'
'自已_'
'翘_'
'级'
'米克_'
'简要_'
'窗'
'科夫_'
'珀_'
'点火_'
'潜'
'混合物_'
'流向_'
'汇'
'每件_'
'本应_'
'斯坦福_'
'搁置_'
'拔出_'
'得益于_'
'展'
'定量_'
'学学_'
'妙_'
'大洋_'
'大大的_'
'夜店_'
'外交部_'
'呼唤_'
'后边_'
'合法化_'
'吃个_'
'受访者_'
'卖淫_'
'华莱士_'
'募集_'
'动身_'
'剪辑_'
'初级_'
'凡是_'
'公然_'
'全国性_'
'储物柜_'
'停火_'
'中年_'
'不知所措_'
'万亿美元_'
'ce_'
'G'
'香草_'
'陷_'
'重重_'
'送货_'
'迟早会_'
'躲开_'
'购'
'规避_'
'蟑螂_'
'著'
'莱德_'
'累积_'
'端'
'空地_'
'科比_'
'碱_'
'确诊_'
'研究成果_'
'画作_'
'珠_'
'点头_'
'消费品_'
'海龟_'
'浪潮_'
'沐浴_'
'比萨_'
'模板_'
'机能_'
'斯托_'
'探访_'
'排出_'
'抬高_'
'扣留_'
'忠于_'
'征'
'录制_'
'平和_'
'希瑟_'
'布里奇_'
'家里人_'
'学着_'
'奖项_'
'奔驰_'
'多尔_'
'响起_'
'历史性_'
'卖命_'
'加薪_'
'几杯_'
'净'
'先到_'
'先例_'
'停车位_'
'保养_'
'余下_'
'佐伊_'
'人大_'
'人力资源_'
'亲眼看到_'
'举起手来_'
'不放_'
'上床睡觉_'
'china_'
'A'
' " ？_'
'鲍'
'骨髓_'
'靠'
'陷入困境_'
'遥控_'
'选定_'
'输给_'
'转变成_'
'论'
'衰落_'
'萨科齐_'
'菜肴_'
'耗费_'
'绝妙_'
'纵火_'
'米拉_'
'稀有_'
'私有_'
'痛快_'
'电力公司_'
'生计_'
'珊瑚_'
'牙刷_'
'欣慰_'
'梯_'
'标志性_'
'条纹_'
'暴行_'
'控制不了_'
'探_'
'捷'
'挤'
'指证_'
'折断_'
'批评者_'
'才'
'手榴弹_'
'怒_'
'开办_'
'希拉_'
'布莱'
'妇人_'
'大肆_'
'声望_'
'墨_'
'受人_'
'办'
'冯'
'全力以赴_'
'催'
'休想_'
'什叶派_'
'主机_'
'上岸_'
'一夜之间_'
'龙舌兰_'
'麻痹_'
'高空_'
'驶向_'
'附件_'
'长长的_'
'运河_'
'视而不见_'
'舌_'
'臭'
'脑震荡_'
'老家_'
'美学_'
'网路_'
'经营者_'
'第八_'
'看不清_'
'盛行_'
'电器_'
'甘_'
'特拉_'
'牵涉_'
'焦'
'火药_'
'潜能_'
'游乐场_'
'港'
'深海_'
'海选_'
'流域_'
'水槽_'
'比方说_'
'每一件_'
'暴跌_'
'显示器_'
'无所事事_'
'无意识_'
'新闻'
'教书_'
'改成_'
'控制室_'
'挥舞_'
'拨款_'
'扬'
'寄'
'定论_'
'好喝_'
'境况_'
'围栏_'
'哈桑_'
'呈现出_'
'另一家_'
'另'
'勾搭_'
'劝说_'
'切除术_'
'切掉_'
'凡事_'
'保龄球_'
'保护主义_'
'供电_'
'乳腺癌_'
'丫头_'
'两项_'
'不符_'
'一百'
'da_'
'－ _'
'麻木_'
'香料_'
'领事馆_'
'韦伯_'
'间'
'金融业_'
'逃生_'
'进出口_'
'过期_'
'转告_'
'补救_'
'薪资_'
'薄膜_'
'药片_'
'荒'
'脸部_'
'脏话_'
'罪'
'编织_'
'绝地_'
'绑起来_'
'第七_'
'竞技_'
'破烂_'
'猎_'
'深深地_'
'洁'
'毫克_'
'柔'
'曼尼_'
'时要_'
'早起_'
'拉屎_'
'抢救_'
'扭_'
'打到_'
'我快_'
'当上_'
'弹壳_'
'开往_'
'山坡_'
'安全'
'婚'
'娘养_'
'妓院_'
'女佣_'
'契_'
'失忆_'
'境界_'
'基因组_'
'啰_'
'唱得_'
'哈里森_'
'呼'
'向往_'
'受体_'
'历经_'
'协同_'
'击倒_'
'养育_'
'克里姆林宫_'
'克莱斯勒_'
'光滑_'
'仅'
'人民法院_'
'不谈_'
'不算什么_'
'一棵树_'
'E'
'1989_'
'1200_'
'队里_'
'闲聊_'
'锤子_'
'错乱_'
'钾_'
'逝去_'
'迹_'
'违规_'
'这样一来_'
'这所_'
'过往_'
'跨'
'起火_'
'赛跑_'
'贫民窟_'
'贤'
'调查结果_'
'裙_'
'莫妮卡_'
'胶带_'
'肖像_'
'耶稣基督_'
'而生_'
'精品_'
'粘'
'等一等_'
'第一条_'
'秘'
'私奔_'
'社会保障_'
'看清楚_'
'爱尔兰人_'
'照着_'
'潜伏_'
'洞里_'
'求救_'
'永久性_'
'每股_'
'棋_'
'柱子_'
'朱丽叶_'
'木乃伊_'
'手提箱_'
'戏'
'往回_'
'强奸犯_'
'庄严_'
'并不需要_'
'干洗_'
'小船_'
'安卓_'
'娘娘腔_'
'妆_'
'城墙_'
'城区_'
'固'
'取胜_'
'发生变化_'
'卫兵_'
'单人_'
'医治_'
'勾'
'勤奋_'
'劳埃德_'
'加斯_'
'全方位_'
'余_'
'主导地位_'
'不惜一切_'
'or_'
'雪橇_'
'集中营_'
'陨石_'
'陆战队_'
'长江_'
'锯_'
'那双_'
'遵从_'
'遗弃_'
'过床_'
'转基因_'
'诸如此类_'
'说教_'
'觉醒_'
'视作_'
'规_'
'西班牙人_'
'行得通_'
'艾米丽_'
'艺人_'
'章节_'
'睡一觉_'
'热潮_'
'激动人心_'
'激'
'演化_'
'浴_'
'正忙着_'
'查德_'
'杂_'
'末日_'
'教过_'
'推向_'
'拉克_'
'心怀_'
'庭_'
'巡'
'姑妈_'
'夹'
'塔尔_'
'坎贝尔_'
'在此期间_'
'啥时候_'
'卡莉_'
'刚来_'
'几步_'
'军用_'
'再生能源_'
'免除_'
'先去_'
'丝绸_'
'专员_'
'不惜_'
'不怪_'
'不复存在_'
'一路上_'
'一幢_'
'michael_'
'as_'
'900_'
'82_'
'马拉_'
'阿斯_'
'遗失_'
'迷宫_'
'迁徙_'
'评_'
'能耐_'
'聚焦_'
'美貌_'
'纸巾_'
'社会学_'
'直视_'
'疗养院_'
'琳达_'
'现已_'
'深色_'
'浆_'
'洛斯_'
'气象_'
'气流_'
'气概_'
'案'
'桃'
'早先_'
'旁观者_'
'敢于_'
'拟_'
'扔出去_'
'恒'
'性侵犯_'
'弓_'
'常有_'
'巷子_'
'差错_'
'寄来_'
'妥当_'
'好过_'
'太忙_'
'国际化_'
'困在_'
'回报率_'
'可行性_'
'反叛_'
'参军_'
'劳动者_'
'创_'
'克雷格_'
'健康状况_'
'值'
'债券市场_'
'伊万_'
'今年夏天_'
'亭_'
'中立_'
'不忠_'
'不下_'
'web_'
'77_'
'鹅_'
'高涨_'
'验_'
'饮_'
'颜料_'
'镑_'
'铃_'
'钦佩_'
'选区_'
'返'
'躯体_'
'詹森_'
'行人_'
'葛_'
'臭名昭著_'
'翻新_'
'组织者_'
'累'
'签个_'
'神龙_'
'盔甲_'
'病患_'
'略'
'电子产品_'
'猎杀_'
'炸毁_'
'炸掉_'
'消亡_'
'没戏_'
'死尸_'
'概括_'
'格伦_'
'有份_'
'昔日_'
'斯坦福大学_'
'放出_'
'掉下去_'
'挚爱_'
'拿点_'
'打赢_'
'怒火_'
'很早_'
'帆_'
'察觉到_'
'地表_'
'圣诞快乐_'
'因特网_'
'器'
'唐纳_'
'唇_'
'咋样_'
'发狂_'
'卢瑟_'
'卡伦_'
'动脉瘤_'
'农田_'
'兜_'
'优良_'
'事来_'
'乱跑_'
'一大群_'
'iPad_'
'for_'
' ” ？ _'
'阿拉伯人_'
'钻'
'钟'
'那首歌_'
'追究_'
'轮流_'
'路障_'
'起伏_'
'误'
'语音信箱_'
'诚信_'
'认不出_'
'蓝图_'
'落地_'
'药剂_'
'自闭症_'
'臀_'
'背心_'
'聊过_'
'老头子_'
'纾_'
'笼罩_'
'第四'
'祖_'
'真他妈_'
'监管者_'
'畅销_'
'率'
'独裁_'
'特蕾西_'
'特意_'
'热线_'
'漏掉_'
'涌_'
'棵_'
'有件_'
'斯大林_'
'搏斗_'
'掺和_'
'拼写_'
'招致_'
'拉链_'
'手掌_'
'我关_'
'懒惰_'
'恶性_'
'恰恰相反_'
'急切_'
'快感_'
'忧伤_'
'心理治疗_'
'徒步_'
'张大_'
'开庭_'
'常说_'
'富含_'
'宗'
'学业_'
'好得多_'
'奖品_'
'奋力_'
'太长_'
'太酷_'
'埃塞俄比亚_'
'均匀_'
'回电_'
'周到_'
'变迁_'
'变换_'
'南京_'
'分析家_'
'决'
'偏偏_'
'低成本_'
'二世_'
'买些_'
'不道德_'
'上周末_'
'万英镑_'
'一招_'
'一心_'
'ma_'
'K_'
'2020_'
' 【 _'
'黑手党_'
'难熬_'
'隐喻_'
'限_'
'阿比_'
'阀_'
'鉴证_'
'鉴别_'
'邮政_'
'逼近_'
'通报_'
'透明度_'
'远足_'
'路标_'
'订'
'节食_'
'节点_'
'肿_'
'罗西_'
'维奇_'
'绕'
'神情_'
'相互作用_'
'疤痕_'
'温家宝_'
'混在_'
'沟_'
'每秒_'
'每种_'
'横跨_'
'查阅_'
'果冻_'
'极少_'
'未成年人_'
'智_'
'数以千计_'
'政变_'
'搬到_'
'推高_'
'捐赠者_'
'持股_'
'报表_'
'抖_'
'投标_'
'开业_'
'帝国主义_'
'屁话_'
'宾至如归_'
'安眠药_'
'字眼_'
'夜班_'
'多事_'
'壁画_'
'哩_'
'后方_'
'同谋_'
'只得_'
'口红_'
'发挥作用_'
'剪'
'凯斯_'
'做主_'
'保全_'
'人马_'
'之神_'
'中将_'
'中共_'
'一大笔_'
'66_'
'高明_'
'首位_'
'集成_'
'闲_'
'锁起来_'
'钱财_'
'金币_'
'适'
'赛场_'
'谋生_'
'诺贝尔奖_'
'讯号_'
'萨克_'
'获奖_'
'胶囊_'
'肠道_'
'程'
'眨眼_'
'献_'
'灿烂_'
'灯塔_'
'渔民_'
'浸'
'洗衣房_'
'油画_'
'污染物_'
'毒贩子_'
'正经_'
'新政府_'
'挤出_'
'挖出_'
'拍电影_'
'拍下来_'
'批评家_'
'我常_'
'忘'
'得出结论_'
'彻_'
'帝'
'帆船_'
'岸边_'
'尔德_'
'实证_'
'宏'
'夸奖_'
'失踪人口_'
'夏令营_'
'向右转_'
'史蒂文_'
'口水_'
'卵子_'
'医务室_'
'动人_'
'八岁_'
'光谱_'
'修剪_'
'便条_'
'伊娃_'
'付清_'
'仇_'
'互联_'
'买方_'
'乐团_'
'一通_'
'os_'
'93_'
'84_'
' 」 。_'
'黛安娜_'
'高雅_'
'随心所欲_'
'锡_'
'邦'
'追上_'
'连同_'
'输'
'较量_'
'起誓_'
'赏金_'
'质问_'
'象个_'
'莫名其妙_'
'苏打水_'
'航'
'致电_'
'自然界_'
'肺'
'肌肤_'
'线条_'
'紫外线_'
'索菲_'
'空闲_'
'稍稍_'
'离岸_'
'福尔曼_'
'碰见_'
'省钱_'
'疲倦_'
'炎热_'
'炉子_'
'渺茫_'
'沿岸_'
'武_'
'欠'
'果酱_'
'有效率_'
'更快_'
'星座_'
'无形_'
'擦'
'摩洛哥_'
'搁_'
'手动_'
'恶毒_'
'引来_'
'废'
'已久_'
'巡警_'
'岭_'
'尘土_'
'尘_'
'子民_'
'复习_'
'城市化_'
'在世界上_'
'吞下_'
'同性恋者_'
'吊死_'
'十字路口_'
'勾当_'
'刷牙_'
'冒'
'佛罗伦萨_'
'以南_'
'人民政府_'
'书房_'
'乔治亚_'
'七天_'
'一期_'
'一旁_'
'ar_'
'88_'
'81_'
' ！   _'
'鲑鱼_'
'面谈_'
'银河_'
'醒来时_'
'遭'
'逃'
'迪士尼_'
'跨过_'
'跨国_'
'议论_'
'触动_'
'规格_'
'装配_'
'装载_'
'芬奇_'
'育_'
'肝'
'美术馆_'
'罪魁祸首_'
'练'
'签下_'
'突'
'祸_'
'看病_'
'生日派对_'
'爵士乐_'
'源'
'淘气_'
'标语_'
'机长_'
'机车_'
'末'
'曼彻斯特_'
'晕倒_'
'旅行社_'
'施舍_'
'斗士_'
'捆绑_'
'担当_'
'报应_'
'找麻烦_'
'批'
'快捷_'
'当有_'
'屏蔽_'
'小规模_'
'宴_'
'安德烈_'
'孩童_'
'契'
'大喊_'
'复杂性_'
'回忆起_'
'呦_'
'呆子_'
'发来_'
'千里_'
'医'
'匹兹堡_'
'北边_'
'北朝鲜_'
'分给_'
'出众_'
'几英里_'
'克劳迪_'
'伯里_'
'伟_'
'东海岸_'
'业界_'
'T'
'N_'
' ， （ _'
' 。 - - _'
'齿轮_'
'驾驭_'
'革新_'
'随即_'
'隆重_'
'陪同_'
'问话_'
'逐'
'迷住_'
'车轮_'
'超自然_'
'课上_'
'诉_'
'讨论一下_'
'表决_'
'花生酱_'
'自民党_'
'耗_'
'美国公司_'
'绳索_'
'统计数据_'
'簿_'
'筹划_'
'直升飞机_'
'盲人_'
'疏忽_'
'流泪_'
'法学_'
'气管_'
'此时此刻_'
'正轨_'
'梁_'
'根深蒂固_'
'校友_'
'无名氏_'
'方针_'
'新闻报道_'
'收容所_'
'摊_'
'摆放_'
'捷克_'
'拖累_'
'拍卖会_'
'折叠_'
'想必_'
'惊恐_'
'快速增长_'
'心目_'
'强尼_'
'已故_'
'小弟_'
'孕育_'
'妒忌_'
'妇_'
'大个子_'
'培'
'坏掉_'
'告密_'
'吉斯_'
'合资_'
'司令_'
'受伤害_'
'北韩_'
'力拓_'
'前夕_'
'切口_'
'出演_'
'内置_'
'催化剂_'
'休息区_'
'任由_'
'他时_'
'习惯于_'
'中旬_'
'不妥_'
'不大可能_'
'上当_'
'一打_'
'一举一动_'
' ?   _'
'饮品_'
'预警_'
'韩_'
'铭记_'
'钢笔_'
'赶过来_'
'袖手旁观_'
'行径_'
'臭味_'
'脸颊_'
'脊髓_'
'综述_'
'移开_'
'科学研究_'
'科学技术_'
'着装_'
'百_'
'病因_'
'用尽_'
'特勤_'
'漏'
'游戏机_'
'混混_'
'浮现_'
'流放_'
'流出_'
'活得_'
'泄密_'
'毛骨悚然_'
'欢'
'检索_'
'梦到_'
'桑迪_'
'无须_'
'无敌_'
'新世界_'
'敌'
'政界_'
'支柱_'
'撞车_'
'拉维斯_'
'打火机_'
'打入_'
'懒_'
'恋_'
'巴拿马_'
'少于_'
'小企业_'
'女主人_'
'大王_'
'四川_'
'哈德_'
'向着_'
'可耻_'
'势头_'
'剧'
'击毙_'
'佩顿_'
'传球_'
'传唤_'
'价格上涨_'
'仙女_'
'付账_'
'亚当斯_'
'不动产_'
'上边_'
'万块_'
'一无是处_'
'一发_'
'V_'
'130_'
'黑白_'
'风声_'
'预料到_'
'鞋'
'阐明_'
'门徒_'
'门廊_'
'醉酒_'
'远古_'
'还清_'
'轨_'
'谈及_'
'诸'
'记忆力_'
'认出来_'
'表述_'
'螺旋_'
'蒂尔_'
'舞厅_'
'胡锦涛_'
'胆小_'
'聚合_'
'站立_'
'空间站_'
'移民局_'
'科迪_'
'真空_'
'盆_'
'猎犬_'
'烧焦_'
'滑板_'
'源泉_'
'活命_'
'油炸_'
'毕生_'
'核反应堆_'
'株_'
'栏杆_'
'木板_'
'有待_'
'新款_'
'教给_'
'教义_'
'收下_'
'挥霍_'
'拼图_'
'拖鞋_'
'抵'
'把柄_'
'打伤_'
'房间内_'
'忽'
'心烦意乱_'
'彩_'
'弗兰基_'
'妈'
'够'
'多米尼克_'
'士气_'
'塌_'
'地铁站_'
'四分之三_'
'哈拉_'
'吉尔'
'口交_'
'兼'
'养成_'
'光学_'
'偏爱_'
'人住_'
'了如指掌_'
'中方_'
'专制_'
'不择手段_'
'下山_'
'上庭_'
'三层_'
'一大早_'
'D'
'高额_'
'题'
'雪莉_'
'阿姆斯特丹_'
'门槛_'
'酷'
'都还没_'
'进到_'
'较'
'赏_'
'贬低_'
'著称_'
'获得成功_'
'艰辛_'
'而后_'
'索引_'
'篮_'
'科罗拉多州_'
'直到现在_'
'生日礼物_'
'爸爸妈妈_'
'灵媒_'
'激进分子_'
'溃疡_'
'渴_'
'涉足_'
'泡泡_'
'控'
'捷径_'
'损_'
'抛售_'
'想不出_'
'心血管_'
'录音带_'
'弗洛伊德_'
'年份_'
'展望_'
'尼基塔_'
'就会_'
'太累_'
'大雨_'
'大炮_'
'大厨_'
'坦率_'
'嚷嚷_'
'器械_'
'唐尼_'
'咪咪_'
'吸食_'
'后腿_'
'司'
'台北_'
'卖方_'
'功效_'
'利润率_'
'判断力_'
'出没_'
'出乎意料_'
'共用_'
'克里斯托弗_'
'先别_'
'偏执_'
'保护区_'
'亨'
'ed_'
'I'
'160_'
'"   _'
'飞去_'
'面纱_'
'雷克斯_'
'问及_'
'门铃_'
'销_'
'走来走去_'
'赚取_'
'详尽_'
'要学_'
'自由化_'
'脸谱_'
'肿胀_'
'肺癌_'
'用水_'
'用手_'
'瑞奇_'
'现年_'
'物价_'
'点至_'
'火烧_'
'海浪_'
'沉没_'
'每张_'
'款待_'
'核查_'
'枪械_'
'果断_'
'有朝一日_'
'无条件_'
'施密特_'
'教父_'
'教区_'
'收紧_'
'捏造_'
'拉德_'
'打人_'
'战舰_'
'戒掉_'
'想些_'
'惭愧_'
'得体_'
'开动_'
'带动_'
'州立_'
'声响_'
'埃莉诺_'
'坚持下去_'
'嘲弄_'
'启'
'君'
'同一天_'
'只见_'
'卡通_'
'十几岁_'
'包袱_'
'勇'
'动乱_'
'剥_'
'凶'
'公立学校_'
'兜风_'
'克鲁斯_'
'克罗_'
'偏远_'
'伎俩_'
'亡_'
'不可或缺_'
'下定决心_'
'ry_'
'ion_'
'Google_'
'78_'
'霉素_'
'铃声_'
'鄙视_'
'郑'
'进城_'
'车手_'
'路易_'
'议_'
'药丸_'
'花粉_'
'脱水_'
'胡思乱想_'
'肩_'
'缓刑_'
'维拉_'
'统统_'
'绝不能_'
'经验丰富_'
'第一场_'
'税'
'种族主义_'
'离奇_'
'看透_'
'盼望_'
'癌细胞_'
'猫头鹰_'
'牛顿_'
'深层_'
'深信_'
'海拔_'
'流逝_'
'洗钱_'
'泡'
'歪_'
'案发现场_'
'木星_'
'擅自_'
'指头_'
'执行长_'
'打爆_'
'愿'
'患病_'
'急速_'
'得手_'
'弹头_'
'开通_'
'席卷_'
'布拉格_'
'属实_'
'家庭作业_'
'孤'
'女主角_'
'大奖_'
'复印_'
'增幅_'
'填充_'
'商业模式_'
'哈珀_'
'员'
'吸取_'
'参照_'
'原子弹_'
'卡森_'
'协'
'别挡_'
'删掉_'
'关节炎_'
'全心全意_'
'停尸房_'
'伊莎贝尔_'
'令人'
'买不起_'
'之家_'
'乃_'
'中间人_'
'上层_'
'一词_'
'一新_'
'一塌糊涂_'
'to_'
'robert_'
'ra_'
' ％ _'
'？_'
'高中生_'
'骑'
'饲养_'
'顿饭_'
'隐秘_'
'阻塞_'
'阀门_'
'闭'
'门诊_'
'采矿_'
'那句话_'
'速率_'
'转为_'
'西红柿_'
'西服_'
'衣着_'
'艾米莉_'
'航海_'
'自如_'
'胆子_'
'耀眼_'
'缩写_'
'精准_'
'粉末_'
'穴_'
'看管_'
'电极_'
'玻璃'
'环形_'
'王位_'
'献上_'
'特朗普_'
'活检_'
'法拉利_'
'没完没了_'
'毁灭性_'
'樱桃_'
'柴'
'查利_'
'放火_'
'掐死_'
'招来_'
'抱负_'
'愈_'
'思绪_'
'忠_'
'引渡_'
'建构_'
'巴勒斯坦人_'
'岛'
'山洞_'
'就餐_'
'小册子_'
'对讲机_'
'察_'
'奎'
'外衣_'
'坏处_'
'地想_'
'嘿咻_'
'商讨_'
'同一时间_'
'取而代之_'
'危'
'北京'
'匕首_'
'勇_'
'刑法_'
'出口商_'
'几何_'
'冠'
'农作物_'
'养殖_'
'公文包_'
'储'
'偏向_'
'介_'
'产权_'
'乡巴佬_'
'乡'
'举个_'
'丽塔_'
'丸_'
'不顾一切_'
'下游_'
'一曲_'
'ey_'
'骗过_'
'音乐'
'雷蒙德_'
'院校_'
'选择性_'
'逃逸_'
'迪诺佐_'
'这身_'
'达斯_'
'输送_'
'赶不上_'
'贺'
'账号_'
'训_'
'触犯_'
'被遗弃_'
'茶叶_'
'苦苦_'
'良_'
'腰'
'精密_'
'稍'
'真对不起_'
'皇'
'瑞格_'
'牺牲品_'
'爱国_'
'煎_'
'火爆_'
'渴求_'
'温哥华_'
'法老_'
'栽培_'
'标准化_'
'构思_'
'杂交_'
'更难_'
'斗篷_'
'推开_'
'拿手_'
'招牌_'
'拉尔夫_'
'抽搐_'
'执政党_'
'彼特_'
'彻头彻尾_'
'弗吉尼亚州_'
'店'
'尽早_'
'尊'
'宿醉_'
'子孙_'
'委_'
'复发_'
'哥伦比亚大学_'
'呼声_'
'吉特_'
'口腔_'
'却'
'华夫_'
'切换_'
'冲向_'
'公共场合_'
'伊迪_'
'他关_'
'书呆子_'
'丘_'
'ta_'
'M'
' ？ ” _'
'（ _'
'首府_'
'食堂_'
'静止_'
'邮寄_'
'道格拉斯_'
'退学_'
'进水_'
'过不去_'
'辩_'
'躲过_'
'越发_'
'调用_'
'详情_'
'记错_'
'装进_'
'表妹_'
'花旗集团_'
'维他命_'
'稳固_'
'皱纹_'
'生物'
'狼人_'
'牢固_'
'熟'
'焚烧_'
'涂料_'
'活人_'
'沉闷_'
'比重_'
'枪战_'
'斜'
'料理_'
'操'
'搭乘_'
'拆'
'我过_'
'惠_'
'快活_'
'志愿_'
'很烂_'
'征求_'
'州'
'对峙_'
'学徒_'
'大惊小怪_'
'外汇储备_'
'堂'
'坚守_'
'坏'
'在生活中_'
'回升_'
'喋喋不休_'
'喂养_'
'商家_'
'咆哮_'
'卡斯特罗_'
'十二_'
'初始_'
'初中_'
'几分_'
'冯_'
'再见面_'
'冈_'
'其一_'
'克里夫_'
'先给_'
'先后_'
'做不来_'
'伯南克_'
'份子_'
'仅为_'
'亮相_'
'两块_'
'83_'
'1993_'
' 」 ， _'
'鸭_'
'驶入_'
'霍金斯_'
'陶瓷_'
'阻止不了_'
'防火墙_'
'钓_'
'部份_'
'进门_'
'辜负_'
'转入_'
'负面影响_'
'讨人喜欢_'
'萨顿_'
'萨米_'
'花招_'
'胎'
'老化_'
'纳尔逊_'
'第一批_'
'空军基地_'
'称号_'
'科罗拉多_'
'碰'
'矫正_'
'直面_'
'留心_'
'瓜'
'王冠_'
'狄_'
'熬_'
'比作_'
'有意识_'
'新泽西州_'
'斯图尔特_'
'摇晃_'
'报上_'
'德黑兰_'
'很深_'
'征_'
'弄死_'
'布鲁'
'巡演_'
'导_'
'孟'
'好不容易_'
'多项_'
'外语_'
'堵塞_'
'圣杯_'
'发电厂_'
'卡利_'
'卖出去_'
'卓'
'加纳_'
'利兹_'
'判处_'
'刑期_'
'分明_'
'几星期_'
'冻死_'
'冲洗_'
'冰球_'
'冠_'
'兴奋剂_'
'全靠_'
'全民_'
'健'
'假象_'
'侵权_'
'以期_'
'仍会_'
'人命_'
'予_'
'之多_'
'之久_'
'丽斯_'
'67_'
' ” ， “ _'
'黎'
'驻'
'飞到_'
'颇具_'
'预想_'
'雄心勃勃_'
'闹'
'重症_'
'远比_'
'这头_'
'还原_'
'近几个月_'
'败'
'视图_'
'袖子_'
'血糖_'
'蜡_'
'薯片_'
'艺术'
'自然而然_'
'脑后_'
'胶片_'
'罗素_'
'缴_'
'箭'
'科索沃_'
'种群_'
'神经质_'
'硬化_'
'看不起_'
'白兰地_'
'爸'
'泰丝_'
'民兵_'
'每时每刻_'
'方言_'
'改为_'
'拔'
'拉斐尔_'
'抬'
'扮成_'
'打牌_'
'手电筒_'
'意大利语_'
'性交_'
'好几'
'奴_'
'国民党_'
'吸气_'
'变老_'
'取回_'
'原创_'
'半径_'
'匠_'
'北欧_'
'北极熊_'
'势'
'加仑_'
'别别_'
'出头_'
'几件_'
'公共部门_'
'党员_'
'代理商_'
'二次_'
'二楼_'
'为荣_'
'上映_'
'一任_'
'一代人_'
'— — _'
'K'
'350_'
'高官_'
'高处_'
'首脑_'
'顾_'
'霍奇_'
'阿布_'
'镇里_'
'金融服务_'
'醋_'
'那要_'
'那点_'
'遇_'
'逮_'
'造访_'
'达克_'
'轰动_'
'踢球_'
'跟前_'
'财政赤字_'
'诺夫_'
'西南部_'
'袭击者_'
'萨达姆_'
'脂_'
'老百姓_'
'美联社_'
'罗丝_'
'结盟_'
'终究_'
'细致_'
'素食_'
'精疲力尽_'
'米饭_'
'筹备_'
'移走_'
'睡过_'
'眨_'
'甲状腺_'
'田地_'
'珠'
'物件_'
'牙膏_'
'溶液_'
'淑女_'
'法兰克_'
'沃尔_'
'毒死_'
'母牛_'
'柔和_'
'柄_'
'最难_'
'暂'
'教材_'
'效_'
'放射_'
'撞死_'
'搞不定_'
'控制中心_'
'拥护_'
'扫兴_'
'愿不愿意_'
'总比_'
'很惨_'
'弃'
'庙_'
'干的事_'
'布道_'
'巴拉_'
'岂_'
'小混蛋_'
'寇_'
'寂静_'
'宗旨_'
'季第_'
'妮'
'失手_'
'太空船_'
'塞尔维亚_'
'听得见_'
'后裔_'
'加盟_'
'加州大学_'
'割伤_'
'凑_'
'关爱_'
'兰花_'
'充'
'傀儡_'
'修饰_'
'保时捷_'
'伊莲_'
'从头开始_'
'人头_'
'交货_'
'两颗_'
'不公_'
'一脸_'
'一职_'
'一楼_'
'capital_'
'140_'
' ....   _'
'饱_'
'风光_'
'雅各_'
'重型_'
'郭'
'道格_'
'通话记录_'
'连锁店_'
'运动会_'
'辞去_'
'赵'
'贪污_'
'调解_'
'讯_'
'血型_'
'薪_'
'苗条_'
'航天_'
'而出_'
'笔者_'
'端口_'
'租车_'
'科学'
'禁_'
'碳水化合物_'
'真人_'
'相伴_'
'皇冠_'
'琴'
'特技_'
'牵_'
'溶解_'
'海蒂_'
'有序_'
'暗号_'
'斜坡_'
'文书_'
'敬畏_'
'探寻_'
'挥_'
'指明_'
'房主_'
'懒得_'
'想不起来_'
'必不可少_'
'开拓_'
'幻象_'
'布利_'
'巴赫_'
'巴塞罗那_'
'巫婆_'
'屏障_'
'奠定_'
'头巾_'
'大都_'
'复_'
'处处_'
'园丁_'
'四大_'
'四位_'
'嗅觉_'
'喀'
'哈克_'
'十二月_'
'刺穿_'
'几名_'
'军舰_'
'全身心_'
'兄妹_'
'俄语_'
'余额_'
'伯纳德_'
'传出_'
'伟'
'仅次于_'
'之力_'
'不顺_'
'不留_'
'三岁_'
'一案_'
'59_'
'龟_'
'领导层_'
'锦'
'重量级_'
'重击_'
'重伤_'
'那幅_'
'那名_'
'遮'
'过活_'
'跳出_'
'费劲_'
'讨_'
'计时_'
'要塞_'
'行贿_'
'蛇'
'薄弱_'
'航母_'
'膏_'
'耗'
'老子_'
'终将_'
'纳什_'
'签了_'
'秦'
'社会'
'皇宫_'
'甲烷_'
'田野_'
'献'
'状'
'特斯_'
'灌溉_'
'灌'
'湖里_'
'海面_'
'海港_'
'洋娃娃_'
'法治_'
'没变_'
'沉思_'
'汉普顿_'
'殖民_'
'死于_'
'格尔_'
'柯蒂斯_'
'杰斯_'
'替补_'
'显眼_'
'既'
'斯特凡_'
'整座_'
'收藏家_'
'收场_'
'挪_'
'打探_'
'截'
'我别_'
'成都_'
'总在_'
'心肺_'
'巧'
'导管_'
'头目_'
'增长速度_'
'喀布尔_'
'吐司_'
'各处_'
'口头_'
'压低_'
'功率_'
'创纪录_'
'列举_'
'切斯特_'
'出面_'
'几百年_'
'决_'
'内塔尼亚胡_'
'关机_'
'全局_'
'先驱_'
'值得注意_'
'作曲家_'
'伤到_'
'乙'
'中央公园_'
'严酷_'
'两台_'
'不高_'
'一节_'
'一月份_'
' ， -   _'
' … -   _'
'！_'
'马力_'
'餐具_'
'院'
'配额_'
'迪斯尼_'
'身体健康_'
'赌徒_'
'要生_'
'西海岸_'
'被子_'
'袍_'
'艾丽_'
'腹_'
'美林_'
'缩'
'维系_'
'红灯_'
'精力充沛_'
'百万美元_'
'疗程_'
'电动汽车_'
'牙买加_'
'漫'
'漩涡_'
'游玩_'
'津巴布韦_'
'波斯尼亚_'
'泛'
'沉睡_'
'汉弗莱_'
'架'
'更何况_'
'早前_'
'数周_'
'故乡_'
'撞'
'换言之_'
'挥'
'挠_'
'持'
'抱住_'
'技_'
'扯平_'
'所述_'
'我选_'
'怀上_'
'异性恋_'
'差事_'
'岗_'
'射手_'
'密谋_'
'完后_'
'孟菲斯_'
'妊娠_'
'奉'
'大错特错_'
'堪萨斯_'
'图纸_'
'回信_'
'合金_'
'合法性_'
'台风_'
'叛逆_'
'发展趋势_'
'卖家_'
'副队_'
'判'
'刚果_'
'再聊_'
'储量_'
'伴郎_'
'他本_'
'五千_'
'互助_'
'乎_'
'之战_'
'之声_'
'不明智_'
'不容_'
'一袋_'
'ck_'
'bbc_'
'2500_'
' ：   _'
'音响_'
'面貌_'
'面粉_'
'随之而来_'
'阿米_'
'阻力_'
'配套_'
'遇难_'
'这些年来_'
'越来越少_'
'试探_'
'诋毁_'
'衰_'
'藐视_'
'蓬勃发展_'
'草药_'
'脱落_'
'维亚_'
'织_'
'素材_'
'等着瞧_'
'第一夫人_'
'矿物_'
'眉'
'盾_'
'班机_'
'玩牌_'
'烦躁_'
'炸死_'
'滴'
'渔业_'
'汉森_'
'水稻_'
'此种_'
'款式_'
'模块_'
'棕榈_'
'有话_'
'斯里兰卡_'
'改装_'
'摩托罗拉_'
'挂断_'
'抵挡_'
'手稿_'
'惹火_'
'恰克_'
'很痛_'
'幽'
'平方米_'
'布鲁克斯_'
'局限_'
'实质性_'
'安全部队_'
'宇_'
'姊妹_'
'垮_'
'在政治上_'
'命中注定_'
'周刊_'
'可口可乐_'
'叉子_'
'历史悠久_'
'厄运_'
'卸下_'
'化解_'
'切实_'
'减小_'
'全程_'
'克里斯蒂_'
'停顿_'
'便利店_'
'体检_'
'主页_'
'临床试验_'
'严_'
'不景气_'
'不列颠_'
'不切实际_'
'万元_'
'一个多_'
'international_'
'87_'
'鱿鱼_'
'马尔科_'
'首个_'
'饭菜_'
'餐'
'门罗_'
'锁住_'
'重拾_'
'配不上_'
'逼迫_'
'通风_'
'送花_'
'财政政策_'
'豪宅_'
'警示_'
'言论自由_'
'规章_'
'蜂_'
'莱拉_'
'纪_'
'简介_'
'碎'
'相见_'
'生殖_'
'照样_'
'潮'
'漂'
'模范_'
'格斗_'
'机率_'
'曲折_'
'无奈_'
'旅'
'斯坦利_'
'敌军_'
'摆弄_'
'握住_'
'推特_'
'换来_'
'户'
'我犯_'
'意念_'
'悲'
'恐怖组织_'
'录'
'年末_'
'小菜一碟_'
'小厨房_'
'完完全全_'
'孤身一人_'
'太紧张_'
'多处_'
'增进_'
'噪声_'
'嗓子_'
'售出_'
'和尚_'
'命案_'
'合资企业_'
'叔_'
'单身汉_'
'卑微_'
'化名_'
'勘探_'
'动员_'
'劣势_'
'别怪_'
'利尔_'
'出资_'
'偶_'
'倒退_'
'佩戴_'
'住口_'
'人死_'
'人时_'
'互换_'
'事实证明_'
'主管机关_'
'个案_'
'丘吉尔_'
'不定_'
'不可'
'一来_'
'一对一_'
'rs_'
'76_'
'1970_'
'     _'
'霍利_'
'金矿_'
'远方_'
'车窗_'
'贵宾_'
'负荷_'
'豁免权_'
'该党_'
'认错_'
'观察者_'
'行李箱_'
'虚_'
'艰巨_'
'联谊会_'
'而行_'
'糖浆_'
'竞选活动_'
'窃贼_'
'科目_'
'祖父母_'
'真主_'
'百度_'
'瑕疵_'
'猫'
'特伦特_'
'灾_'
'灯泡_'
'气愤_'
'毒物_'
'残留物_'
'残暴_'
'死活_'
'杏仁_'
'期权_'
'新奇_'
'推销员_'
'控件_'
'捐给_'
'披_'
'打高尔夫_'
'总督_'
'强制性_'
'异性_'
'年老_'
'布莱_'
'巴林_'
'巴克莱_'
'巡回_'
'宽带_'
'害虫_'
'娇'
'姑姑_'
'大幅度_'
'大巴_'
'固体_'
'四种_'
'听证_'
'吕'
'半导体_'
'加勒比海_'
'出奇_'
'公共场所_'
'偷窥_'
'便携式_'
'亨_'
'事发_'
'为数不多_'
'两岁_'
'一顶_'
'youtube_'
're_'
'mba_'
'黄瓜_'
'鹿'
'音译_'
'那根_'
'逊尼派_'
'送命_'
'这根_'
'赫尔_'
'贾斯廷_'
'觉着_'
'观察家_'
'蒙羞_'
'艾拉_'
'臭小子_'
'耳边_'
'考古_'
'罪有应得_'
'纸张_'
'第一季度_'
'竹_'
'空前_'
'磨损_'
'破译_'
'看点_'
'盖子_'
'疟疾_'
'电影明星_'
'申请表_'
'申诉_'
'父'
'爬'
'炒鱿鱼_'
'灵活性_'
'清新_'
'海平面_'
'汉堡包_'
'梦寐以求_'
'有效性_'
'日光浴_'
'旅_'
'斧头_'
'摇滚乐_'
'挨饿_'
'拿枪_'
'拉特_'
'护盾_'
'投放_'
'手艺_'
'战时_'
'想开_'
'怨_'
'微粒_'
'役_'
'弄坏_'
'就职_'
'小区_'
'安东_'
'好坏_'
'奖章_'
'奔'
'失事_'
'天鹅_'
'天亮_'
'大家伙_'
'复制品_'
'图标_'
'四人_'
'啥意思_'
'吉恩_'
'受益人_'
'前排_'
'创业者_'
'凯拉_'
'兴建_'
'克利夫兰_'
'信条_'
'伏'
'令人不安_'
'京'
'交通事故_'
'交火_'
'五百_'
'二月_'
'九岁_'
'之路_'
'临_'
'丰满_'
'下结论_'
'一夜情_'
'ley_'
'Apple_'
'92_'
'3d_'
' 。 "   _'
'龄_'
'黛比_'
'高铁_'
'销'
'酯_'
'邮报_'
'路易斯安那州_'
'资产阶级_'
'豪华轿车_'
'请便_'
'该州_'
'试一试_'
'识_'
'西北部_'
'荧光_'
'自言自语_'
'自找_'
'自我介绍_'
'胡言乱语_'
'老套_'
'绵羊_'
'糊弄_'
'箱'
'笔录_'
'私下里_'
'瘾_'
'照射_'
'热衷_'
'炮弹_'
'演绎_'
'淡_'
'浓'
'波尔_'
'毒害_'
'桑尼_'
'枪击案_'
'本田_'
'有车_'
'有病_'
'最深_'
'替罪羊_'
'昏_'
'明知_'
'昌'
'无可_'
'无从_'
'新陈代谢_'
'数据'
'收手_'
'控制器_'
'损毁_'
'挨着_'
'找过_'
'所属_'
'戒'
'我长_'
'想方设法_'
'恋童_'
'怒'
'彼'
'当地政府_'
'弱智_'
'弗雷德里克_'
'开了个_'
'庆_'
'广东_'
'幢_'
'崔_'
'小溪_'
'小妹妹_'
'寄养_'
'家庭主妇_'
'宝座_'
'大猩猩_'
'多样_'
'基特_'
'地为_'
'围墙_'
'叛变_'
'发给你_'
'发牢骚_'
'双臂_'
'却说_'
'卖力_'
'剑桥_'
'剃_'
'几百_'
'决不能_'
'全天_'
'假冒_'
'倡导_'
'侵袭_'
'佣人_'
'何方_'
'伯顿_'
'伤者_'
'不朽_'
'三楼_'
'一千'
'paul_'
'89_'
'鼠标_'
'高风险_'
'骑兵_'
'颈_'
'顺其自然_'
'降落伞_'
'钟爱_'
'通胀率_'
'赶时间_'
'财物_'
'诀窍_'
'计算机'
'詹姆士_'
'落实_'
'良知_'
'自由市场_'
'膀胱_'
'考古学家_'
'美国市场_'
'米斯_'
'第五'
'第一名_'
'竟敢_'
'称职_'
'积分_'
'私_'
'碳'
'硕士_'
'瞎子_'
'益'
'电冰箱_'
'独家_'
'爱意_'
'满脸_'
'消退_'
'浩_'
'浩'
'没人'
'沃尔'
'歇斯底里_'
'根本就是_'
'杰拉德_'
'本意_'
'方圆_'
'斯图_'
'敦'
'放荡_'
'放宽_'
'收留_'
'技艺_'
'扶手_'
'打开门_'
'我接_'
'成名_'
'想都别想_'
'恩赐_'
'总和_'
'心痛_'
'很爽_'
'强国_'
'序_'
'庄_'
'市场营销_'
'尼古拉_'
'尺度_'
'小混混_'
'小女儿_'
'宣判_'
'定为_'
'奥尔'
'大为_'
'壁'
'境_'
'嗷_'
'唾液_'
'哪去_'
'名牌_'
'同僚_'
'反省_'
'反向_'
'卫生'
'卡姆_'
'南海_'
'华纳_'
'到头_'
'分队_'
'凭证_'
'减压_'
'克莉丝_'
'俄勒冈州_'
'伪装成_'
'会要_'
'以求_'
'二位_'
'之日起_'
'中央'
'两间_'
'不坏_'
'一季_'
'一国_'
'ibm_'
'et_'
'U_'
' 。 ， _'
' ...   ？ _'
' $   _'
'预算赤字_'
'页岩_'
'集结_'
'随著_'
'险境_'
'道菜_'
'通宵_'
'这倒_'
'赞助商_'
'负罪感_'
'谋求_'
'裁缝_'
'融洽_'
'葡萄园_'
'莱尔_'
'至上_'
'自助餐_'
'脆_'
'脂肪酸_'
'罗比_'
'紧接着_'
'糊_'
'第一年_'
'稳'
'租用_'
'禁忌_'
'票据_'
'社'
'督察_'
'百年_'
'环境'
'犯错误_'
'淡'
'淀粉_'
'活活_'
'洗车_'
'波浪_'
'法兰克福_'
'水库_'
'梵蒂冈_'
'最大化_'
'昏过去_'
'新疆_'
'数十亿美元_'
'摸'
'搜'
'捕捉到_'
'挥手_'
'拍到_'
'抓紧时间_'
'成百上千_'
'憎恶_'
'总统大选_'
'待在家里_'
'录音机_'
'广告'
'布莱斯_'
'工作日_'
'小可爱_'
'小于_'
'孙_'
'头头_'
'大局_'
'埃尔_'
'垫子_'
'圣诞礼物_'
'回声_'
'嘿嘿_'
'嘉_'
'嗜好_'
'喜剧演员_'
'商品价格_'
'唱诗班_'
'售'
'哈斯_'
'受害_'
'友'
'危险性_'
'十二'
'劳动'
'劫_'
'割断_'
'剧情_'
'关上门_'
'亚伯_'
'事关_'
'主演_'
'中来_'
'业内_'
'不止一次_'
'6000_'
' 。 '
' * _'
'震_'
'雪花_'
'限于_'
'重案_'
'酝酿_'
'邦德_'
'那部_'
'退回_'
'连线_'
'蹩脚_'
'越大_'
'费尔_'
'谋'
'表弟_'
'菅直_'
'芒_'
'脸红_'
'胡椒_'
'胆'
'翁_'
'精华_'
'粗俗_'
'移动电话_'
'睡个_'
'盲_'
'监察_'
'爱戴_'
'点点_'
'漆黑_'
'添'
'液'
'汉斯_'
'死胡同_'
'欢笑_'
'格雷厄姆_'
'林先生_'
'杰伊_'
'本市_'
'月经_'
'替'
'文艺复兴_'
'攻击性_'
'改编_'
'改写_'
'摇篮_'
'搭建_'
'捕食_'
'捉住_'
'指使_'
'投掷_'
'投手_'
'心事_'
'当回事_'
'工地_'
'少爷_'
'察'
'好久没_'
'夺_'
'头颅_'
'大蒜_'
'大米_'
'大举_'
'多夫_'
'埃德加_'
'垃圾堆_'
'吞'
'同比_'
'口渴_'
'双亲_'
'卡西_'
'勃_'
'剔除_'
'分行_'
'击落_'
'凉爽_'
'冬_'
'农药_'
'内向_'
'光盘_'
'候'
'你会'
'伸'
'估价_'
'伪君子_'
'之争_'
'丽亚_'
'为所欲为_'
'丰_'
'个人信息_'
'不知不觉_'
'不看_'
'不清_'
'三家_'
'三十_'
'万事_'
'七岁_'
'79_'
'1986_'
'鼠'
'驻扎_'
'项'
'雄心_'
'难以想象_'
'闻'
'长袍_'
'长久以来_'
'链'
'里会_'
'适度_'
'路面_'
'贝特_'
'说说话_'
'评分_'
'记不清_'
'被绑_'
'蔑视_'
'获准_'
'苗_'
'芯_'
'脊柱_'
'肉汁_'
'耍'
'继任者_'
'红外_'
'索要_'
'精神'
'简易_'
'第二轮_'
'第三季度_'
'空洞_'
'税款_'
'禁区_'
'睁_'
'真实性_'
'盘旋_'
'盗'
'病假_'
'生活'
'灌木丛_'
'满脑子_'
'涡轮_'
'流星_'
'洛基_'
'洗手_'
'植被_'
'梳理_'
'有话要说_'
'有如_'
'暴风雪_'
'普利_'
'无非_'
'排序_'
'挂钩_'
'持有人_'
'拨号_'
'拉登_'
'手拿开_'
'怒气_'
'心智_'
'心愿_'
'御'
'开源_'
'开幕式_'
'庆'
'帕斯_'
'屈'
'宫廷_'
'大叔_'
'墙'
'回事儿_'
'响'
'吐出来_'
'另一端_'
'卡梅隆_'
'医护人员_'
'初选_'
'切成_'
'凌'
'再现_'
'全副武装_'
'克利_'
'光照_'
'偷情_'
'偶'
'停滞不前_'
'做做_'
'偏差_'
'仇敌_'
'仅限于_'
'亲亲_'
'交通'
'五次_'
'中小企业_'
'两侧_'
'一战_'
'一世_'
'N'
'...... _'
'- _'
' ？ —   _'
'黄昏_'
'马铃薯_'
'风情_'
'顶层_'
'音频_'
'韦尔_'
'闹剧_'
'钟声_'
'达西_'
'车间_'
'谜团_'
'调研_'
'语文_'
'该市_'
'评定_'
'训练有素_'
'要开_'
'被害者_'
'衍生品_'
'腹'
'脚本_'
'细心_'
'笼_'
'竭尽所能_'
'穷'
'病史_'
'球赛_'
'犹太教_'
'父子_'
'灵敏_'
'济_'
'泡菜_'
'没睡_'
'沃德_'
'求职者_'
'暖气_'
'斯蒂夫_'
'散开_'
'挤满_'
'挖苦_'
'拖欠_'
'投保_'
'截肢_'
'我活_'
'我梦到_'
'息'
'德克_'
'径直_'
'归于_'
'弯'
'并用_'
'干完_'
'尤指_'
'害'
'审议_'
'安全部_'
'妖怪_'
'失礼_'
'大军_'
'外科手术_'
'处以_'
'塞满_'
'塞拉_'
'圣保罗_'
'嘉年华_'
'唯'
'呻吟_'
'听觉_'
'合作社_'
'可靠性_'
'受了伤_'
'发表声明_'
'发号施令_'
'单单_'
'华生_'
'华人_'
'化学'
'别玩_'
'几千年_'
'农场主_'
'关切_'
'兜售_'
'候_'
'你够_'
'代言人_'
'从根本上_'
'亮'
'乔恩_'
'举例来说_'
'不能容忍_'
'三年级_'
'一课_'
'一角_'
'一朵_'
'一个半_'
'll_'
'S'
'73_'
'101_'
'-   _'
' ？ “ _'
'麻省理工学院_'
'食欲_'
'额度_'
'预见到_'
'预报_'
'顽强_'
'霍克_'
'长岛_'
'遮住_'
'迷茫_'
'过早_'
'超速_'
'费力_'
'表哥_'
'股票市场_'
'缓_'
'纵容_'
'碟_'
'着重_'
'盎司_'
'疑'
'界线_'
'珍妮特_'
'珀'
'牡蛎_'
'牛津大学_'
'注释_'
'正值_'
'止血_'
'橱柜_'
'梅雷迪思_'
'栓_'
'暴君_'
'时而_'
'攻势_'
'搅拌_'
'推移_'
'招惹_'
'拖住_'
'拐杖_'
'拉丁语_'
'强加_'
'开阔_'
'庄稼_'
'巢_'
'嵌入_'
'小点_'
'密室_'
'安东尼奥_'
'守护者_'
'奴役_'
'女皇_'
'奉承_'
'太贵_'
'天地_'
'天后_'
'天前_'
'增_'
'国家队_'
'四号_'
'啃_'
'同期_'
'各级_'
'叛国_'
'发射器_'
'历_'
'南北_'
'加把劲_'
'刺痛_'
'击打_'
'冈'
'兆_'
'信使_'
'佩奇_'
'令人惊叹_'
'习'
'严谨_'
'世纪末_'
'不靠_'
'不合时宜_'
'下达_'
' /   _'
'鬼话_'
'饮用_'
'面罩_'
'阻断_'
'阴_'
'过会儿_'
'路德_'
'足球队_'
'起立_'
'贱货_'
'贩子_'
'请假_'
'该不该_'
'访_'
'警力_'
'西区_'
'行凶_'
'获得者_'
'芽_'
'芳_'
'艾伯特_'
'自治区_'
'老妇人_'
'紧身_'
'篱笆_'
'笔迹_'
'立体_'
'窄_'
'私立学校_'
'票房_'
'神明_'
'硅_'
'相撞_'
'白日梦_'
'生产线_'
'琳'
'涅'
'洛伊_'
'泛滥_'
'欢_'
'概述_'
'检查官_'
'板球_'
'杰弗里_'
'权衡_'
'机动_'
'朗德_'
'最爱_'
'普林斯顿_'
'断言_'
'掐_'
'捕猎_'
'护卫_'
'托尼'
'打点_'
'扑'
'我們_'
'我些_'
'悬挂_'
'德曼_'
'德军_'
'徒步旅行_'
'律法_'
'很怪_'
'弹钢琴_'
'弄掉_'
'开拍_'
'幻灯片_'
'平均水平_'
'帖子_'
'布罗迪_'
'屁屁_'
'尼特_'
'尼尔森_'
'尸'
'就绪_'
'女婿_'
'套间_'
'奖'
'大有_'
'壮大_'
'埃利斯_'
'器材_'
'嘣_'
'喷发_'
'咖啡壶_'
'周期性_'
'呜_'
'另一名_'
'受雇_'
'卢旺达_'
'劳驾_'
'切片_'
'分区_'
'出城_'
'出个_'
'公道_'
'信箱_'
'但他却_'
'伏击_'
'仓促_'
'之星_'
'上百万_'
'一腿_'
'一章_'
'一束_'
'一书_'
'peter_'
'ni_'
'W_'
'63_'
'1988_'
'飞来_'
'险'
'铁轨_'
'逆'
'这幢_'
'转折点_'
'起源于_'
'购买力_'
'让给_'
'计数_'
'西方人_'
'花瓣_'
'艇_'
'舟_'
'腾出_'
'美好时光_'
'继'
'粉刷_'
'答'
'站'
'稀土_'
'禽流感_'
'碧_'
'眼皮底下_'
'真像_'
'甲虫_'
'生产率_'
'爆破_'
'滕_'
'消磨_'
'消沉_'
'流利_'
'止'
'智者_'
'施展_'
'数个_'
'放着_'
'擦掉_'
'捕_'
'抢银行_'
'投球_'
'找找看_'
'扒_'
'慈善事业_'
'恐惧症_'
'怪罪_'
'思索_'
'很多很多_'
'弥'
'张嘴_'
'弟_'
'庭'
'帕尔默_'
'巴兹_'
'左派_'
'宣战_'
'实物_'
'定下_'
'妖_'
'好家伙_'
'奥德_'
'头等舱_'
'失血_'
'太慢_'
'墨镜_'
'塞斯_'
'塑料袋_'
'在世_'
'国际贸易_'
'咬'
'发到_'
'博拉_'
'半点_'
'包扎_'
'募捐_'
'剥削_'
'刘_'
'再好不过_'
'养老_'
'关头_'
'兄_'
'低点_'
'低收入_'
'从未有过_'
'今'
'交战_'
'亏_'
'两者之间_'
'下雪_'
'上门_'
'ers_'
'V'
'97_'
' ！ ” _'
'鸦片_'
'驱车_'
'马匹_'
'闹着玩_'
'长老_'
'锁门_'
'里尔_'
'送入_'
'财团_'
'角逐_'
'觉'
'视网膜_'
'西瓜_'
'螃蟹_'
'荒野_'
'芭蕾舞_'
'自发_'
'脑筋_'
'耶鲁大学_'
'羊毛_'
'系统性_'
'管理系统_'
'等同于_'
'第一份_'
'笑脸_'
'竖_'
'确凿_'
'眼熟_'
'真人秀_'
'盛宴_'
'盖特_'
'瘀伤_'
'用枪_'
'生意人_'
'班级_'
'特雷_'
'烟囱_'
'滤'
'浮动_'
'洗脑_'
'泡妞_'
'没拿到_'
'比分_'
'歌剧院_'
'枯'
'未婚_'
'暴力事件_'
'斑点_'
'散播_'
'改正_'
'改天_'
'撕_'
'捐助_'
'托管_'
'打字_'
'打乱_'
'打不开_'
'戒备_'
'情报'
'情境_'
'怪事_'
'思科_'
'影院_'
'当过_'
'开辟_'
'建于_'
'工夫_'
'川'
'展览会_'
'屏_'
'尤里_'
'尖叫声_'
'安检_'
'孵化_'
'夺去_'
'堆积_'
'地儿_'
'回不来_'
'四名_'
'嘲讽_'
'商务部_'
'哭'
'呵呵_'
'吝啬_'
'吃饱_'
'叹息_'
'去一趟_'
'卫生部_'
'卡门_'
'十天_'
'剥离_'
'前辈_'
'刮胡子_'
'冰雪_'
'关照_'
'全家人_'
'光亮_'
'偏僻_'
'便士_'
'但会_'
'买主_'
'两岸_'
'一大批_'
'ty_'
'ipo_'
'U'
'94_'
'71_'
' ,_'
'鸣_'
'雷蒙_'
'雨林_'
'难免_'
'阅读器_'
'错觉_'
'金斯_'
'重写_'
'里程_'
'递_'
'还行_'
'践踏_'
'贫血_'
'论调_'
'装在_'
'膝_'
'能用_'
'胶水_'
'羔羊_'
'纷争_'
'约瑟_'
'第二季度_'
'盲'
'皇后区_'
'病理_'
'电车_'
'玩过_'
'猎'
'犯规_'
'深化_'
'毒液_'
'栋_'
'机枪_'
'服务中心_'
'最能_'
'斯科菲尔德_'
'散散步_'
'效用_'
'携手_'
'搜捕_'
'掌'
'我行_'
'我够_'
'心血_'
'心不在焉_'
'微风_'
'弗拉_'
'开学_'
'小宝宝_'
'小孩儿_'
'容许_'
'委婉_'
'失利_'
'天内_'
'大鱼_'
'外交部长_'
'墨菲_'
'坍塌_'
'土著_'
'园林_'
'嘿'
'君王_'
'后会_'
'反倒_'
'卡车司机_'
'单调_'
'努_'
'前沿_'
'前期_'
'减排_'
'减免_'
'关键时刻_'
'公墓_'
'光头_'
'俄亥俄_'
'伺候_'
'亦'
'交叉路口_'
'五十'
'买得起_'
'乌干达_'
'世界级_'
'不见得_'
'96_'
'86_'
'69_'
'%_'
' ？ － _'
'鼓吹_'
'高原_'
'韦斯_'
'降温_'
'阐释_'
'门店_'
'野马_'
'那句_'
'逛街_'
'跑出去_'
'诉'
'藉_'
'莱姆_'
'美术_'
'缸_'
'编剧_'
'绝非_'
'筹资_'
'第九_'
'私密_'
'真不该_'
'电话亭_'
'献身_'
'猜'
'燃'
'注射器_'
'沉积_'
'气色_'
'楚_'
'某事_'
'机上_'
'更多地_'
'普遍认为_'
'普拉_'
'明日_'
'日语_'
'无缘无故_'
'整容_'
'摄像_'
'推倒_'
'接上_'
'拨'
'扶持_'
'扶'
'扔给_'
'惊_'
'悄悄地_'
'德利_'
'徒劳_'
'延缓_'
'店员_'
'幼虫_'
'崩_'
'小声点_'
'察看_'
'宏观经济_'
'字符_'
'姬娃_'
'妮可_'
'妙'
'奥秘_'
'奎_'
'夫斯基_'
'大号_'
'外勤_'
'城外_'
'埋'
'坚实_'
'坐落于_'
'地窖_'
'嘞_'
'否_'
'叫作_'
'变性_'
'发怒_'
'发售_'
'卧_'
'副手_'
'出击_'
'免税_'
'克特_'
'克朗_'
'俊'
'伟人_'
'人世_'
'亲身_'
'主编_'
'中药_'
'个子_'
'不耐烦_'
'下个星期_'
'三角形_'
'一艘船_'
'一清二楚_'
'mm_'
'at_'
'1979_'
'黑手_'
'高调_'
'高位_'
'马厩_'
'香港'
'预谋_'
'须'
'音调_'
'露丝_'
'阻'
'链子_'
'邪_'
'送上_'
'辩称_'
'车票_'
'车主_'
'跳伞_'
'趋于_'
'赞'
'请教_'
'覆'
'要害_'
'蚀_'
'虚张声势_'
'营运_'
'莎莉_'
'自传_'
'胜利者_'
'绳之以法_'
'结过婚_'
'织物_'
'系统'
'精神分裂症_'
'米德_'
'第'
'秃头_'
'祭坛_'
'祝愿_'
'社保_'
'短短_'
'瞅_'
'电话线_'
'电脑'
'甘地_'
'理清_'
'猪头_'
'烙印_'
'溜冰_'
'清扫_'
'注销_'
'没电_'
'沉迷于_'
'汉密尔顿_'
'武术_'
'歉意_'
'橄榄_'
'检疫_'
'梅毒_'
'末端_'
'有点累_'
'新家_'
'斑'
'文化'
'整件_'
'数百'
'放任_'
'捆_'
'忽悠_'
'快快_'
'当日_'
'归属_'
'弹奏_'
'延_'
'带路_'
'带些_'
'布雷克_'
'左撇子_'
'小气_'
'奸'
'大马士革_'
'多疑_'
'基本'
'国籍_'
'吾_'
'向前走_'
'叠_'
'受审_'
'卧'
'区内_'
'匮乏_'
'勺子_'
'刊_'
'出版物_'
'全神贯注_'
'使用权_'
'伤势_'
'介于_'
'今天上午_'
'人文_'
'交待_'
'事会_'
'两座_'
'东南部_'
'不为人知_'
'上士_'
'一走了之_'
'一例_'
'ds_'
' ！ '
'麦凯_'
'高得_'
'隔绝_'
'防备_'
'镇定剂_'
'铝'
'金库_'
'重任_'
'还击_'
'超声波_'
'贾森_'
'读读_'
'说明书_'
'证券交易_'
'议长_'
'训'
'虽'
'蔡斯_'
'莲'
'药房_'
'自然灾害_'
'自然'
'腾'
'脱下_'
'耳光_'
'美酒_'
'统计学_'
'统'
'纳斯_'
'精细_'
'神殿_'
'皱_'
'百分之百_'
'白血病_'
'用光_'
'瑞银_'
'玛丽安_'
'狮_'
'独有_'
'牵涉到_'
'爱丁堡_'
'烟花_'
'满怀_'
'液态_'
'沃斯_'
'每条_'
'每分钟_'
'欧美_'
'次级_'
'梨_'
'案情_'
'服务'
'新英格兰_'
'摸摸_'
'提拔_'
'推崇_'
'控制'
'接下_'
'拖走_'
'拖拉机_'
'房门_'
'我时_'
'愈发_'
'恨死_'
'态势_'
'怀旧_'
'心知肚明_'
'律'
'强悍_'
'弗罗斯特_'
'幼儿_'
'年头_'
'局限性_'
'尼泊尔_'
'小报_'
'对阵_'
'妥_'
'奥迪_'
'外长_'
'埋怨_'
'垂_'
'困'
'回过_'
'喷雾_'
'喜不喜欢_'
'吃光_'
'另一面_'
'去往_'
'厨艺_'
'卡斯特_'
'半死_'
'剪掉_'
'分销_'
'兽'
'共鸣_'
'先说_'
'偷车_'
'俺_'
'促'
'侍者_'
'伍'
'仙_'
'从头到尾_'
'亿年_'
'亚历克_'
'串'
'世界'
'不利于_'
'一文不值_'
'一小块_'
'ner_'
'james_'
'W'
'GPS_'
'De'
' … ，_'
'黑社会_'
'非常简单_'
'降雨_'
'阿里巴巴_'
'邻'
'这堆_'
'转换成_'
'跳下来_'
'贝壳_'
'谁'
'诱发_'
'设计者_'
'计较_'
'观众们_'
'表态_'
'行么_'
'蒙蔽_'
'菌'
'航天飞机_'
'腻_'
'脸蛋_'
'肾'
'罗拉_'
'筋_'
'竖起_'
'立法者_'
'私生子_'
'相似之处_'
'盆地_'
'球棒_'
'犯过_'
'版'
'湿地_'
'深层次_'
'涅_'
'泰特_'
'泪'
'沃尔沃_'
'污秽_'
'氪_'
'气泡_'
'残余_'
'棉_'
'林业_'
'来点_'
'村落_'
'普斯_'
'晓'
'日程表_'
'新颖_'
'斯特'
'救过_'
'放走_'
'攀登_'
'播'
'插进_'
'探戈_'
'成瘾_'
'成份_'
'感性_'
'愈'
'怎'
'床边_'
'帮人_'
'山庄_'
'局外人_'
'小命_'
'宣读_'
'宏_'
'学得_'
'姓氏_'
'基石_'
'埃伦_'
'固有_'
'园艺_'
'回话_'
'咧_'
'和善_'
'史诗_'
'发邮件_'
'发言权_'
'印度洋_'
'十分之一_'
'十五_'
'北面_'
'劲儿_'
'动议_'
'办好_'
'到处跑_'
'函_'
'冰山_'
'公鸡_'
'公之于众_'
'公义_'
'光环_'
'偷袭_'
'低落_'
'伤员_'
'令人满意_'
'人身_'
'人类学_'
'享乐_'
'事事_'
'书本_'
'中餐_'
'中华_'
'东盟_'
'上时_'
'一记_'
'一致性_'
'一局_'
'一味_'
'一串_'
'University_'
'> > _'
'91_'
'鹰'
'首要任务_'
'靠边_'
'陶_'
'长途_'
'长发_'
'重叠_'
'酷刑_'
'酒瓶_'
'邮'
'这道_'
'这般_'
'过火_'
'轴'
'跳进_'
'起因_'
'走势_'
'贷_'
'财长_'
'谅解_'
'诺克_'
'菲比_'
'莉亚_'
'草率_'
'苏醒_'
'胖'
'美梦_'
'美极了_'
'维奥_'
'绊倒_'
'纳迪_'
'第二季_'
'第一部_'
'破旧_'
'真美_'
'直截了当_'
'疲弱_'
'瑞恩_'
'琐事_'
'爱是_'
'热身_'
'游乐园_'
'渔夫_'
'洗洗_'
'每家_'
'母舰_'
'死地_'
'模'
'楚'
'桑拿浴_'
'根本无法_'
'根基_'
'染料_'
'某位_'
'有无_'
'星云_'
'新德里_'
'斥责_'
'斜_'
'救活_'
'政府军_'
'撕成_'
'提防_'
'挪开_'
'拥护者_'
'拥_'
'拔掉_'
'扛_'
'房车_'
'意向_'
'悬'
'念书_'
'必有_'
'德罗_'
'延误_'
'应为_'
'并不一定_'
'平庸_'
'布罗_'
'宿主_'
'安顿_'
'安全措施_'
'学问_'
'奉行_'
'天大_'
'坏主意_'
'回购_'
'喧嚣_'
'唇膏_'
'名词_'
'只顾_'
'变种_'
'前夜_'
'制造者_'
'内奸_'
'全城_'
'克拉拉_'
'健壮_'
'伯明翰_'
'令人信服_'
'亿英镑_'
'tion_'
'mark_'
'ke_'
'ian_'
' 》 '
'马龙_'
'额'
'音量_'
'雷吉_'
'随身带_'
'陷于_'
'铺'
'钉'
'金属'
'醉'
'酬劳_'
'那艘_'
'通用电气_'
'这桩_'
'辍学_'
'身影_'
'费心_'
'诚_'
'记不住_'
'裂开_'
'蔡'
'莱斯特_'
'艾尔'
'自欺欺人_'
'耕地_'
'考量_'
'缓缓_'
'给我发_'
'纽约大学_'
'粥_'
'签发_'
'第四个_'
'童_'
'稀释_'
'矿产_'
'皮条客_'
'百合_'
'登场_'
'电话会议_'
'电压_'
'申'
'用具_'
'特制_'
'烤面包_'
'溺水_'
'温斯顿_'
'渐'
'涨幅_'
'涛_'
'消逝_'
'洛奇_'
'汗'
'民用_'
'残废_'
'正为_'
'检方_'
'杰斐逊_'
'本科_'
'昂'
'料'
'救护_'
'撕碎_'
'推车_'
'拉尼_'
'执掌_'
'扣除_'
'托盘_'
'所罗门_'
'我换_'
'我学_'
'意在_'
'惬意_'
'恭维_'
'恐'
'急诊_'
'归因于_'
'常人_'
'帮过_'
'巷_'
'巴格_'
'小把戏_'
'小声_'
'封杀_'
'家用_'
'宏大_'
'委任_'
'好时机_'
'头版_'
'天花_'
'壮丽_'
'墨西哥湾_'
'塔楼_'
'垮台_'
'均'
'四岁_'
'器具_'
'嗎_'
'喷气_'
'启程_'
'召'
'只能靠_'
'受训_'
'卡丽_'
'南美洲_'
'单车_'
'升温_'
'匹萨_'
'劝'
'劈_'
'出点_'
'凝视_'
'其后_'
'僧侣_'
'保守主义_'
'住'
'介'
'主场_'
'个州_'
'两组_'
'不全是_'
'不值_'
'125_'
' ！ ？_'
' "   ， _'
'  '
'： _'
'领导力_'
'预防措施_'
'雇'
'陵墓_'
'限'
'闭上嘴_'
'闪闪发光_'
'金融中心_'
'逮捕令_'
'选择权_'
'迟'
'近几年_'
'踹_'
'贝斯_'
'豆腐_'
'语调_'
'语言学_'
'词典_'
'计量_'
'角斗士_'
'表兄_'
'行头_'
'虽说_'
'草图_'
'艺'
'脱衣服_'
'脱口秀_'
'肠子_'
'肆虐_'
'罢休_'
'罗尼_'
'缅因州_'
'结识_'
'纽带_'
'纵'
'紫_'
'科幻小说_'
'科威特_'
'祭祀_'
'硕士学位_'
'码'
'相貌_'
'盛会_'
'生机_'
'灵长类_'
'灰烬_'
'浣熊_'
'洪_'
'河谷_'
'沃尔夫_'
'正派_'
'榜_'
'楼里_'
'桃子_'
'枪毙_'
'杭州_'
'本领_'
'有多'
'整年_'
'数不清_'
'改过自新_'
'摆动_'
'摄氏度_'
'排成_'
'挂掉_'
'拔出来_'
'抹'
'战线_'
'我下_'
'慢着_'
'恋'
'怀有_'
'当众_'
'弃权_'
'应激_'
'带进来_'
'帝王_'
'布鲁诺_'
'崇拜者_'
'尽力而为_'
'就任_'
'孟加拉国_'
'奎因_'
'失血过多_'
'大房子_'
'多纳_'
'多加_'
'外头_'
'墨尔本_'
'增值税_'
'垂死_'
'咱家_'
'咪_'
'吸血_'
'吸尘器_'
'名气_'
'受邀_'
'双脚_'
'去处_'
'华盛顿州_'
'务实_'
'到头来_'
'刚到_'
'刀片_'
'出产_'
'军情_'
'写字_'
'六周_'
'光子_'
'倾倒_'
'倒计时_'
'俗'
'例'
'体外_'
'住户_'
'买进_'
'之时_'
'之光_'
'一席之地_'
'一如_'
'一侧_'
'… ... _'
'ss_'
'L'
'F'
' ！ 。_'
' . '
'鲁迪_'
'铅'
'钓'
'郊外_'
'那帮_'
'迎_'
'过热_'
'辛迪_'
'轻视_'
'躺椅_'
'赫德_'
'课本_'
'诱'
'诊_'
'证供_'
'计划生育_'
'西欧_'
'装着_'
'行至_'
'行政'
'蓝莓_'
'营收_'
'菊花_'
'茬_'
'色素_'
'胡须_'
'纯属_'
'紧身衣_'
'索取_'
'类人_'
'真面目_'
'相配_'
'益_'
'留有_'
'生锈_'
'生殖器_'
'生态环境_'
'玫瑰花_'
'率先_'
'猎手_'
'犯有_'
'物证_'
'爱迪生_'
'熬夜_'
'游走_'
'济'
'洗掉_'
'洗劫_'
'注'
'泊车_'
'污水_'
'比斯_'
'毋庸置疑_'
'梦想成真_'
'构'
'机灵_'
'晶'
'日产_'
'无穷_'
'救生员_'
'撕开_'
'提振_'
'挟持_'
'按住_'
'指手画脚_'
'拳'
'拉尔_'
'披'
'抓获_'
'打烂_'
'打成_'
'战俘_'
'我变_'
'成因_'
'感到遗憾_'
'想当_'
'忘却_'
'微观_'
'得病_'
'弄断_'
'建设性_'
'履历_'
'属'
'小鱼_'
'寻_'
'对天发誓_'
'寡'
'婴儿床_'
'妄想症_'
'头皮_'
'大学毕业_'
'圣洁_'
'图画_'
'回击_'
'商业化_'
'和谐社会_'
'吵闹_'
'另一方_'
'卡塔尔_'
'助长_'
'别像_'
'利特_'
'分不清_'
'几百'
'决定权_'
'兼顾_'
'公务_'
'克劳德_'
'元件_'
'健_'
'停住_'
'假名_'
'便于_'
'低廉_'
'传染性_'
'传承_'
'交友_'
'二十世纪_'
'事迹_'
'主办_'
'中意_'
'中东地区_'
'两枪_'
'两头_'
'世博会_'
'上半年_'
'万年_'
'一笑_'
'一届_'
'。 _'
'obama_'
'id_'
'2'
'颠倒_'
'预_'
'零售业_'
'阵地_'
'长椅_'
'退伍军人_'
'远远不够_'
'运往_'
'过份_'
'载体_'
'轻度_'
'转会_'
'踏'
'超重_'
'贺_'
'货船_'
'谋_'
'调和_'
'说来话长_'
'论者_'
'许愿_'
'记不起来_'
'装上_'
'蜜_'
'萝卜_'
'菲奥娜_'
'莫尔_'
'英式_'
'苏菲_'
'花掉_'
'芒果_'
'职场_'
'置'
'纪'
'累坏_'
'简而言之_'
'稿子_'
'私营部门_'
'礼节_'
'磋商_'
'碍事_'
'看得_'
'直行_'
'病菌_'
'电气_'
'理财_'
'率领_'
'牢牢_'
'满嘴_'
'溶'
'浴袍_'
'沏茶_'
'汇款_'
'永_'
'水族馆_'
'正以_'
'款'
'枝'
'曙光_'
'昏倒_'
'日圆_'
'无所不能_'
'敬佩_'
'教士_'
'挡风玻璃_'
'指点_'
'抛出_'
'投向_'
'扣动_'
'戴眼镜_'
'感激不尽_'
'愈加_'
'您好_'
'弄脏_'
'度蜜月_'
'带头_'
'市场'
'巴顿_'
'寻觅_'
'学生会_'
'存有_'
'好觉_'
'好歹_'
'外包_'
'型'
'圣殿_'
'圣徒_'
'喜达屋_'
'咸_'
'咳_'
'司令部_'
'另一头_'
'古罗马_'
'十一月_'
'勤'
'内贾德_'
'光纤_'
'兆头_'
'充气_'
'借款人_'
'传授_'
'伊兹_'
'京_'
'乔纳斯_'
'主管部门_'
'中医_'
'两场_'
'下沉_'
'下榻_'
'三张_'
'三分_'
'万个_'
'一针_'
'一桶_'
'「 _'
'nasa_'
' — — — _'
'魔法师_'
'骚动_'
'马里奥_'
'马西_'
'飘_'
'霉菌_'
'销售员_'
'银行贷款_'
'那首_'
'选拔_'
'选取_'
'这趟_'
'辱骂_'
'辛普森_'
'踢'
'跳得_'
'跌'
'谦逊_'
'谦卑_'
'说辞_'
'藏匿_'
'营养不良_'
'荷兰人_'
'荒凉_'
'花样_'
'翻过_'
'美化_'
'绯闻_'
'细小_'
'米尔斯_'
'第六'
'第三世界_'
'笨'
'穆迪_'
'社会福利_'
'磁盘_'
'石块_'
'盾牌_'
'疤_'
'现金流_'
'狱警_'
'父王_'
'点亮_'
'海斯_'
'洞察力_'
'汲取_'
'水龙头_'
'氨基酸_'
'欣_'
'楼顶_'
'桂'
'枯燥_'
'曲奇_'
'暴风_'
'晚礼服_'
'斯诺_'
'斯坦'
'整顿_'
'撤军_'
'撞见_'
'我发_'
'成真_'
'愁_'
'总而言之_'
'性病_'
'忠'
'庞'
'庇护所_'
'帖_'
'尽职_'
'就会'
'尘'
'小心谨慎_'
'小屁孩_'
'宽大_'
'太深_'
'天气预报_'
'大兵_'
'外号_'
'壮'
'塞巴斯蒂安_'
'塔斯_'
'堪称_'
'堆'
'坐坐_'
'地缘_'
'圣路易斯_'
'商业'
'响亮_'
'听够_'
'合情合理_'
'合唱_'
'吃些_'
'叙事_'
'发热_'
'原住民_'
'厚厚的_'
'卵巢_'
'博格_'
'十大_'
'务'
'前程_'
'前卫_'
'到访_'
'别杀_'
'分部_'
'凝'
'冷藏_'
'再过_'
'兼容_'
'公共服务_'
'克罗伊_'
'侥幸_'
'会场_'
'以北_'
'交互_'
'亚斯_'
'买到_'
'乘飞机_'
'举手_'
'个个_'
'严重性_'
'下星期_'
'万名_'
'β_'
'sa_'
'Android_'
'360_'
'1985_'
'1945_'
'1'
' ） '
' ” “ _'
'骨架_'
'马赛_'
'马屁_'
'非常感激_'
'难听_'
'锤_'
'酿酒_'
'送死_'
'还款_'
'过大_'
'输血_'
'转悠_'
'蹲下_'
'跑'
'越久_'
'赤裸_'
'赞誉_'
'调皮_'
'调度_'
'说不清_'
'诚恳_'
'诚'
'譬如_'
'血浆_'
'蠕虫_'
'藤_'
'胸前_'
'聊'
'而定_'
'罪恶感_'
'织'
'纸币_'
'第一轮_'
'章程_'
'立案_'
'票数_'
'的士_'
'电能_'
'用钱_'
'琥珀_'
'玛吉_'
'猖獗_'
'狭隘_'
'牧'
'牙科_'
'熔'
'满意度_'
'游击队_'
'浮_'
'法制_'
'汇丰_'
'求职_'
'水星_'
'水位_'
'死讯_'
'椰子_'
'杀人狂_'
'曼德拉_'
'新高_'
'斯蒂尔_'
'文中_'
'敲打_'
'政见_'
'收割_'
'搭车_'
'搬回_'
'推论_'
'换作_'
'指挥部_'
'拆卸_'
'抗抑郁_'
'承载_'
'打起精神_'
'愤世嫉俗_'
'愚昧_'
'思想家_'
'径_'
'弱'
'弄些_'
'建筑'
'崩盘_'
'小猪_'
'宵禁_'
'学派_'
'学历_'
'如实_'
'奎尔_'
'天文_'
'大错_'
'壁垒_'
'增援_'
'基督教徒_'
'地站_'
'地基_'
'哈萨克斯坦_'
'双层_'
'博览会_'
'博伊德_'
'升空_'
'加德纳_'
'办个_'
'利齐_'
'凸显_'
'再婚_'
'入院_'
'克格勃_'
'债权_'
'信息化_'
'似'
'人气_'
'亲友_'
'乱说_'
'主使_'
'为首_'
'中美_'
'两支_'
'一罐_'
'一丁点_'
'e'
'8000_'
' ） ： _'
' ) 。_'
'限定_'
'阵容_'
'闷闷不乐_'
'长成_'
'镜'
'错事_'
'野田_'
'重金属_'
'选美_'
'送礼_'
'轻率_'
'跳水_'
'跃'
'赶回_'
'走着瞧_'
'责_'
'识字_'
'觅食_'
'裸露_'
'虚幻_'
'薄饼_'
'葡萄糖_'
'胸膛_'
'育'
'维度_'
'符咒_'
'竞'
'站台_'
'稀少_'
'禁闭_'
'社会化_'
'睡觉时_'
'相亲_'
'直达_'
'盟军_'
'的确如此_'
'百分百_'
'痛楚_'
'番茄酱_'
'界'
'犯案_'
'物业_'
'爱国者_'
'焦_'
'滋生_'
'淡化_'
'海景_'
'法尔_'
'法人_'
'汽车'
'水坝_'
'母语_'
'正统_'
'歌迷_'
'欢喜_'
'横_'
'梅根_'
'桑德斯_'
'栖息地_'
'杀光_'
'末期_'
'未遂_'
'晕过去_'
'时节_'
'新婚_'
'数据中心_'
'数学家_'
'敌方_'
'收视率_'
'操蛋_'
'操作'
'摘'
'捷_'
'挺身而出_'
'拳击手_'
'招生_'
'拆开_'
'扫描仪_'
'扎伊_'
'手帕_'
'慰藉_'
'慈悲_'
'总局_'
'德文_'
'微量_'
'很蠢_'
'弱势_'
'开得_'
'康拉德_'
'序列号_'
'山地_'
'屁眼_'
'小店_'
'实惠_'
'宜'
'多得多_'
'多媒体_'
'塞缪尔_'
'埃莉_'
'囊肿_'
'呆'
'吸附_'
'可好_'
'十二个_'
'劲'
'前不久_'
'别笑_'
'别扭_'
'出声_'
'冰层_'
'共存_'
'公交_'
'全额_'
'入口处_'
'克利夫_'
'先天_'
'元首_'
'停不下来_'
'倍感_'
'佩林_'
'位居_'
'任性_'
'人则_'
'交易商_'
'之人_'
'久等_'
'个人'
'丢'
'世界卫生组织_'
'世代_'
'三件_'
'一粒_'
'一碗_'
'” _'
'um_'
'm'
'lu'
'74_'
'1960_'
' $ _'
'齿'
'马里兰州_'
'饶恕_'
'颈动脉_'
'雪佛兰_'
'附身_'
'阶梯_'
'阵'
'闪开_'
'锯'
'钳_'
'金融城_'
'重新安排_'
'酒杯_'
'部下_'
'那就是说_'
'透视_'
'述_'
'车牌号_'
'赶着_'
'贪'
'财务状况_'
'诸位_'
'诉求_'
'记录在案_'
'认输_'
'警觉_'
'触'
'视察_'
'装饰品_'
'莱昂_'
'莫斯_'
'芥末_'
'艳'
'肉桂_'
'羚羊_'
'缠身_'
'维吉尼亚_'
'红利_'
'粪_'
'篝火_'
'筋疲力尽_'
'第一任_'
'程序员_'
'科琳_'
'私底下_'
'磁_'
'确'
'知名度_'
'监管部门_'
'白白_'
'疑_'
'电子游戏_'
'瓦特_'
'理查_'
'理事_'
'王牌_'
'猎枪_'
'犯罪行为_'
'烟火_'
'漂流_'
'游戏规则_'
'深思熟虑_'
'深切_'
'淡定_'
'测谎_'
'洋基_'
'汞_'
'汉城_'
'每样_'
'桑德拉_'
'有助_'
'更为重要_'
'星光_'
'新闻记者_'
'新浪_'
'新墨西哥州_'
'效'
'政坛_'
'收听_'
'搬运_'
'插管_'
'插件_'
'拦_'
'抽取_'
'报刊_'
'扭伤_'
'打扰到_'
'手淫_'
'所要_'
'我管_'
'我照_'
'很烦_'
'彰显_'
'弱小_'
'工作'
'尼奥_'
'尔比_'
'少见_'
'少有_'
'小车_'
'宽阔_'
'定向_'
'娱乐活动_'
'姿_'
'始'
'她'
'大都市_'
'外貌_'
'坏死_'
'国民经济_'
'告密者_'
'历'
'分支机构_'
'出发点_'
'几根_'
'几十'
'其间_'
'共和_'
'克莱德_'
'会毁_'
'令人担忧_'
'交涉_'
'不经意_'
'一餐_'
'world_'
'nd_'
'ic_'
'corp_'
'IPO_'
'10000_'
' — —_'
'鼓动_'
'麻醉剂_'
'驶离_'
'飞快_'
'预兆_'
'音符_'
'鞭子_'
'鞋带_'
'雌'
'钻探_'
'野人_'
'释怀_'
'那台_'
'逗我_'
'递'
'这一'
'迈尔_'
'迁'
'越界_'
'超模_'
'赫斯特_'
'读数_'
'要查_'
'被忽视_'
'行家_'
'融'
'艾略特_'
'舒_'
'自由贸易_'
'胡乱_'
'罗兰_'
'纸杯_'
'精神病学_'
'积雪_'
'禁欲_'
'社会党_'
'碘_'
'瞎说_'
'相聚_'
'的黎波里_'
'留学生_'
'畅销书_'
'瑞尔_'
'烈酒_'
'港湾_'
'浮出_'
'津_'
'没意思_'
'氧'
'橱窗_'
'格兰_'
'暴_'
'早日_'
'无时无刻_'
'无人驾驶_'
'斯德哥尔摩_'
'斯巴达_'
'敢'
'搞清_'
'按下_'
'拉皮条_'
'拉格_'
'投射_'
'执'
'成群_'
'感应器_'
'想通_'
'悬_'
'快滚_'
'心声_'
'弱者_'
'弯腰_'
'弄点_'
'平静下来_'
'干些_'
'已成_'
'巡逻队_'
'尖端_'
'尔多_'
'实地_'
'安息日_'
'安乐死_'
'孤独症_'
'孢子_'
'婚外情_'
'威斯_'
'姜'
'妹子_'
'好战_'
'天国_'
'大面积_'
'夜空_'
'墓穴_'
'埃拉_'
'商用_'
'售货员_'
'味'
'名流_'
'同龄人_'
'同位素_'
'可信度_'
'卷进_'
'印第安纳_'
'卡塔_'
'北非_'
'劫案_'
'加拿大人_'
'初衷_'
'分量_'
'分析法_'
'冰毒_'
'写成_'
'内务部_'
'公投_'
'入选_'
'克罗斯_'
'克洛依_'
'候选_'
'保加利亚_'
'使馆_'
'伙伴关系_'
'优于_'
'仿真_'
'人工智能_'
'交叉口_'
'主人公_'
'不及格_'
'上山_'
'上周四_'
'linux_'
'ler_'
'08_'
' ” ： _'
'高水平_'
'风度_'
'风头_'
'音乐节_'
'鞠躬_'
'静静地_'
'雾'
'陈旧_'
'附上_'
'长满_'
'醉醺醺_'
'避孕_'
'避_'
'遗留_'
'逼'
'送过来_'
'转机_'
'走得_'
'赚点_'
'贵重_'
'贝里_'
'豌豆_'
'诚然_'
'译_'
'识'
'讯问_'
'苍'
'花序_'
'致富_'
'腺_'
'背负_'
'胆敢_'
'肿块_'
'聚合物_'
'结晶_'
'绑住_'
'箭头_'
'管理'
'章鱼_'
'秘密行动_'
'磷_'
'相匹配_'
'皮疹_'
'生个_'
'生下_'
'烂醉_'
'火把_'
'滑倒_'
'海绵_'
'流体_'
'洗碗_'
'洋_'
'油气_'
'沦为_'
'江湖_'
'永远都是_'
'毕业典礼_'
'残障_'
'橙汁_'
'染色_'
'杯水_'
'昏'
'新闻界_'
'敲定_'
'敏感性_'
'放在心上_'
'播种_'
'搅和_'
'接班人_'
'抽筋_'
'所愿_'
'或多或少_'
'成见_'
'恢复过来_'
'德行_'
'弹簧_'
'开胃菜_'
'廊_'
'广播公司_'
'年青_'
'布拉德利_'
'展现出_'
'局限于_'
'小睡_'
'宠坏_'
'宜_'
'孟加拉_'
'婶婶_'
'奥尼尔_'
'奎恩_'
'太有_'
'大主教_'
'域名_'
'坐火车_'
'国税局_'
'固然_'
'回馈_'
'四十_'
'喝光_'
'唐人街_'
'哥斯达黎加_'
'后头_'
'取证_'
'双人房_'
'危地马拉_'
'南面_'
'刑罚_'
'出炉_'
'凭着_'
'几百个_'
'凝聚_'
'农民工_'
'军事基地_'
'兰尼_'
'免疫'
'储藏_'
'信服_'
'优异_'
'令人讨厌_'
'两面_'
'两部_'
'丑'
'一年一度_'
'x'
'7000_'
' "_'
'，_'
'默默_'
'魔咒_'
'颁奖_'
'降级_'
'际_'
'问卷_'
'镇长_'
'造影_'
'这枚_'
'运算_'
'迎'
'过生日_'
'躲藏_'
'费尔'
'质询_'
'谢尔盖_'
'谚语_'
'调到_'
'许下_'
'警报器_'
'蜗牛_'
'荷_'
'自然保护区_'
'联合国安理会_'
'罚金_'
'罗德_'
'罗伯_'
'缘由_'
'系数_'
'算上_'
'穿刺_'
'空运_'
'稳定下来_'
'种族隔离_'
'盯住_'
'盟国_'
'盗贼_'
'牵引_'
'烤'
'灭'
'漫画书_'
'满月_'
'湿透_'
'洲际_'
'洁_'
'泰西_'
'没道理_'
'汽车业_'
'氯_'
'毫不犹豫_'
'正试_'
'梳妆台_'
'案底_'
'染'
'机体_'
'有场_'
'最最_'
'最合适_'
'时日_'
'无动于衷_'
'数数_'
'效能_'
'收钱_'
'据此_'
'捐'
'挪'
'挑逗_'
'拘留所_'
'拎_'
'所示_'
'我太'
'我养_'
'惹恼_'
'想不通_'
'惊慌失措_'
'当务之急_'
'归纳_'
'带进_'
'布坎南_'
'峰值_'
'山里_'
'尼罗河_'
'小贩_'
'小径_'
'小山_'
'对着干_'
'密钥_'
'寄托_'
'宣'
'安静下来_'
'孔子_'
'始_'
'奥米_'
'奖牌_'
'失窃_'
'大点_'
'多德_'
'多一些_'
'墓碑_'
'地牢_'
'团团转_'
'喷射_'
'哲_'
'合身_'
'另类_'
'双份_'
'危急_'
'南加州_'
'半英里_'
'升至_'
'化学反应_'
'功能性_'
'副局长_'
'削'
'刷'
'凭空_'
'冷水_'
'冲进_'
'兰顿_'
'入场券_'
'入伙_'
'光束_'
'偷盗_'
'侦测_'
'会用_'
'人待_'
'乡间_'
'世界观_'
'不足为奇_'
'不听话_'
'一箱_'
' ？ - - _'
' [ _'
'颠簸_'
'难缠_'
'难民营_'
'阿兰_'
'都柏林_'
'逃命_'
'返校_'
'运动鞋_'
'迁_'
'辈_'
'车臣_'
'趣_'
'赢'
'货架_'
'调出_'
'诺尔_'
'译注_'
'译本_'
'西奥_'
'蠢'
'英语'
'脱光_'
'美人鱼_'
'红军_'
'筹集资金_'
'第二条_'
'竞标_'
'空手道_'
'稀'
'移居_'
'福斯_'
'短期内_'
'相近_'
'相提并论_'
'直走_'
'瘀_'
'略微_'
'留点_'
'狭小_'
'独立性_'
'犹豫不决_'
'犀牛_'
'熙_'
'煤气_'
'烦'
'灾区_'
'渺小_'
'温顺_'
'洛特_'
'泳衣_'
'波及_'
'汇合_'
'正视_'
'橘子_'
'植'
'校车_'
'树丛_'
'极致_'
'来杯_'
'来宾_'
'机械'
'普罗_'
'无误_'
'方程式_'
'整形_'
'揭穿_'
'接待处_'
'择'
'拉动_'
'拆散_'
'抗击_'
'手举_'
'我全_'
'忍'
'强迫症_'
'广告牌_'
'帕姆_'
'巢穴_'
'山峰_'
'尤金_'
'小说家_'
'富翁_'
'寇'
'守则_'
'学术界_'
'婆婆_'
'大拇指_'
'地主_'
'土耳其人_'
'哒_'
'吉祥物_'
'史无前例_'
'原则上_'
'历来_'
'印度教_'
'十倍_'
'加固_'
'前才_'
'前天_'
'别为_'
'出境_'
'凳子_'
'再来点_'
'光年_'
'傻蛋_'
'供选择_'
'住宅区_'
'传讯_'
'交情_'
'之遥_'
'两处_'
'东德_'
'一步步_'
'‘ _'
'q'
'ct_'
' ” '
'饰演_'
'风险管理_'
'频_'
'隔间_'
'闷'
'错综复杂_'
'银子_'
'里程碑_'
'避孕药_'
'遗传学_'
'道奇_'
'逐出_'
'退还_'
'远不止_'
'进化论_'
'轻轻地_'
'资历_'
'贝卢斯科尼_'
'象牙_'
'调查报告_'
'认真对待_'
'詹_'
'规'
'菲尼克斯_'
'获救_'
'莱利_'
'舍不得_'
'自恋_'
'脏'
'脉'
'胜地_'
'翠'
'缓'
'糕_'
'籽_'
'稳步_'
'祭'
'石膏_'
'睿智_'
'看样子_'
'病床_'
'电机_'
'电子设备_'
'田纳西州_'
'生还_'
'瑟斯_'
'狮'
'燃气_'
'烛光_'
'漠不关心_'
'溶剂_'
'混沌_'
'活动家_'
'活到_'
'油脂_'
'汇集_'
'毛毯_'
'殆尽_'
'案发_'
'某天_'
'枯竭_'
'枪响_'
'来袭_'
'机智_'
'木质_'
'服侍_'
'有大_'
'曹'
'更近_'
'智库_'
'新式_'
'搬迁_'
'推进器_'
'拐角_'
'抑制剂_'
'把酒_'
'技师_'
'房贷_'
'我成_'
'悼念_'
'微乎其微_'
'得当_'
'彻'
'弄个_'
'座'
'年鉴_'
'平坦_'
'小忙_'
'密西西比_'
'室'
'定性_'
'安全套_'
'存钱_'
'妇'
'复印件_'
'墨西哥城_'
'地下水_'
'国立_'
'团结起来_'
'四十'
'喧闹_'
'喝彩_'
'哈利波_'
'各式各样_'
'各家_'
'古城_'
'变小_'
'受挫_'
'卫队_'
'勃'
'加之_'
'力图_'
'刺耳_'
'切特_'
'分头_'
'凯迪拉克_'
'几秒_'
'军士长_'
'全市_'
'先要_'
'催生_'
'做作业_'
'假释官_'
'保持警惕_'
'你生_'
'位数_'
'伊夫_'
'人类学家_'
'五分_'
'二是_'
'乳酪_'
'两把_'
'与生俱来_'
'不比_'
'上交_'
'一说_'
'一扇门_'
've_'
'richard_'
'me_'
'X'
'J'
' 》 ： _'
' 。 · · ·_'
'驱散_'
'饭'
'风筝_'
'颅骨_'
'隐_'
'限额_'
'陈列_'
'锅'
'铺设_'
'铲_'
'钻进_'
'那么回事_'
'退伍_'
'迷幻药_'
'过激_'
'达芬奇_'
'轰炸机_'
'解析_'
'表象_'
'血小板_'
'虱子_'
'萨尔瓦多_'
'莉娜_'
'航道_'
'自慰_'
'胜算_'
'肆意_'
'老鹰_'
'美满_'
'罗杰斯_'
'缠住_'
'缓冲_'
'继母_'
'结交_'
'纯净_'
'繁'
'篡改_'
'祸'
'神学_'
'矮'
'短语_'
'睁开眼睛_'
'看能_'
'相等_'
'盗_'
'皮毛_'
'登山_'
'电磁_'
'瓷器_'
'犹他州_'
'爱抚_'
'爱情故事_'
'熏_'
'炸飞_'
'润'
'海藻_'
'海姆_'
'派上用场_'
'注明_'
'沾满_'
'沾'
'民事诉讼_'
'毕加索_'
'正中_'
'栖息_'
'朴'
'有限责任_'
'更久_'
'旺盛_'
'无论谁_'
'无畏_'
'文化遗产_'
'教育'
'播报_'
'摆布_'
'搭便车_'
'接住_'
'接任_'
'捕'
'担架_'
'抵_'
'打消_'
'打捞_'
'手提包_'
'所言_'
'慈'
'思想'
'希尔顿_'
'巴厘岛_'
'工具箱_'
'崇尚_'
'尿液_'
'定居点_'
'完全同意_'
'安逸_'
'学分_'
'妻'
'奥斯'
'夸'
'太少_'
'天桥_'
'多边_'
'喂食_'
'各有_'
'可知_'
'发飙_'
'发生冲突_'
'厚度_'
'历史'
'北海_'
'别搞_'
'几千_'
'凝胶_'
'冲出_'
'写得_'
'再三_'
'全场_'
'入伍_'
'做好事_'
'偏头痛_'
'依我看_'
'会先_'
'休庭_'
'以至_'
'以备_'
'人比_'
'主教练_'
'中日_'
'两英里_'
'三只_'
'nt_'
'mo'
'iPod_'
'4400_'
' · · · … …_'
' ... ？_'
'鱼雷_'
'首发_'
'长出_'
'里士满_'
'释'
'醉鬼_'
'那可真_'
'辩方_'
'轮班_'
'跑腿_'
'赶出来_'
'赫克托_'
'赝品_'
'赖斯_'
'赏'
'贺卡_'
'语句_'
'装甲_'
'血栓_'
'蒙特利尔_'
'萨科奇_'
'莫过于_'
'船舱_'
'自尊心_'
'自动'
'膳食_'
'腹泻_'
'老友_'
'美国财政部_'
'网址_'
'绑架案_'
'精神科_'
'米娅_'
'穹顶_'
'穗_'
'积极性_'
'福尔_'
'硫_'
'看中_'
'病得_'
'男孩儿_'
'用词_'
'瓦拉_'
'珊瑚礁_'
'玛拉_'
'狱中_'
'爽'
'爷们_'
'火炉_'
'溜进_'
'混账_'
'淫'
'淋浴室_'
'梳_'
'梅西_'
'松树_'
'暗物质_'
'昏暗_'
'断开_'
'数位_'
'放映_'
'支舞_'
'摘下_'
'摊'
'搬'
'搞混_'
'探视_'
'掏钱_'
'换班_'
'挣脱_'
'拼凑_'
'拐角处_'
'打烊_'
'心肌_'
'得主_'
'当兵_'
'归宿_'
'引向_'
'幸会_'
'年期_'
'尔登_'
'尊_'
'完整性_'
'安然无恙_'
'妞儿_'
'女伴_'
'奥克兰_'
'太阳'
'地用_'
'商业区_'
'哲'
'吉普_'
'各式_'
'司法部长_'
'变好_'
'受惊_'
'受宠若惊_'
'发病率_'
'发炎_'
'卷土重来_'
'卜_'
'别出_'
'创造者_'
'减去_'
'写过_'
'内存_'
'养大_'
'兴致_'
'关键问题_'
'公共交通_'
'充裕_'
'作响_'
'以示_'
'产卵_'
'交织_'
'下棋_'
'上部_'
'上线_'
'一百年_'
'一年级_'
'一列_'
'1987_'
' ） ” _'
' 。 …_'
' ) ， _'
'黑名单_'
'魏'
'鬼鬼祟祟_'
'高高的_'
'高中毕业_'
'首批_'
'食品'
'风扇_'
'颅内_'
'雅克_'
'难搞_'
'阵亡_'
'闸_'
'问得_'
'铲子_'
'金正恩_'
'里夫_'
'那车_'
'那去_'
'遗物_'
'通灵_'
'送达_'
'迦'
'辖区_'
'辉_'
'轰'
'转达_'
'趣味_'
'赖特_'
'账目_'
'贝茨_'
'贝卡_'
'谋划_'
'读取_'
'说说看_'
'诗意_'
'被誉为_'
'藉由_'
'菠菜_'
'芳香_'
'节俭_'
'艺术作品_'
'艺_'
'艳_'
'舱门_'
'航运_'
'聋子_'
'耐克_'
'纳斯达克_'
'磅重_'
'破门而入_'
'相隔_'
'盐水_'
'电影节_'
'理发_'
'珍娜_'
'现成_'
'狂欢节_'
'特地_'
'烈火_'
'濒临_'
'涨'
'消_'
'海运_'
'浆果_'
'活过来_'
'法师_'
'油井_'
'比亚_'
'步兵_'
'此基础_'
'梅琳_'
'梅利莎_'
'标准配置_'
'杯'
'杖_'
'杂草_'
'有心_'
'有事吗_'
'更正_'
'晨'
'早早_'
'族'
'新兵_'
'斯巴达克斯_'
'斧子_'
'摘下来_'
'拿回去_'
'拷问_'
'招标_'
'技'
'扳手_'
'扫帚_'
'打字机_'
'打压_'
'所指_'
'我生_'
'我待会_'
'戏服_'
'戏弄_'
'惯_'
'彭_'
'康妮_'
'庭上_'
'并不认为_'
'帐号_'
'布景_'
'巴不得_'
'巨_'
'岌岌可危_'
'层楼_'
'尝'
'小麻烦_'
'导入_'
'密友_'
'宠_'
'太平_'
'太多'
'大好_'
'大哭_'
'多愁善感_'
'埃里_'
'垫'
'喘息_'
'周年纪念_'
'合得来_'
'各就各位_'
'可说_'
'可怜虫_'
'叫喊_'
'只在乎_'
'古埃及_'
'口令_'
'受得了_'
'取向_'
'县'
'压住_'
'卡德_'
'卡塞尔_'
'华府_'
'利益冲突_'
'列宁_'
'出了名_'
'凶残_'
'凤'
'农业'
'冗长_'
'冒充_'
'再犯_'
'内华达_'
'共舞_'
'傻笑_'
'修车_'
'保险库_'
'俄勒冈_'
'侯'
'众议员_'
'仓'
'二年级_'
'买票_'
'乌斯_'
'乌托邦_'
'之意_'
'之大_'
'丰富多彩_'
'两根_'
'不开_'
'不仅如此_'
'一段路_'
'george_'
'驯鹿_'
'饮用水_'
'青岛_'
'难闻_'
'随从_'
'阿肯色州_'
'阿特_'
'阿尔伯特_'
'阿姆斯特朗_'
'阿什利_'
'防火_'
'酸性_'
'通路_'
'踢足球_'
'跌幅_'
'误差_'
'让'
'警队_'
'言行_'
'要花费_'
'褪色_'
'装运_'
'行窃_'
'花点_'
'自定义_'
'脱颖而出_'
'胡安_'
'胃里_'
'股票价格_'
'聚餐_'
'职权_'
'置之不理_'
'罚'
'缝'
'绽放_'
'纽扣_'
'筹'
'窥视_'
'空气污染_'
'稳健_'
'矿井_'
'矩阵_'
'真遗憾_'
'真凶_'
'皮质_'
'番_'
'玄'
'熬过_'
'炼'
'炒鸡蛋_'
'流浪者_'
'波罗_'
'沦落_'
'沙丘_'
'正题_'
'橄榄油_'
'模特儿_'
'栽_'
'格兰'
'束'
'有理_'
'有染_'
'替身_'
'智囊团_'
'映_'
'无谓_'
'方程_'
'断电_'
'整条_'
'敬重_'
'放回_'
'揉_'
'控方_'
'接送_'
'拥有者_'
'拉拢_'
'押韵_'
'投票权_'
'扰_'
'扣子_'
'战火_'
'我进_'
'成品_'
'悔恨_'
'心动_'
'德怀特_'
'强项_'
'弗林特_'
'弓'
'开诚布公_'
'干草_'
'巅峰_'
'居所_'
'尽兴_'
'尝过_'
'小巧_'
'完结_'
'嬉戏_'
'好要_'
'奥兰多_'
'太坏_'
'天文学_'
'大峡谷_'
'多变_'
'增殖_'
'坚韧_'
'在职_'
'土星_'
'国安局_'
'哈勃_'
'咀嚼_'
'呈堂_'
'吞下去_'
'后勤_'
'吉普车_'
'号房_'
'叫停_'
'午后_'
'办公楼_'
'剖析_'
'分红_'
'几只_'
'几下_'
'假说_'
'倡议_'
'仪'
'仔细检查_'
'从今以后_'
'亲眼目睹_'
'交接_'
'乔治亚州_'
'乐曲_'
'之事_'
'临时工_'
'两具_'
'不祥_'
'不死_'
'下半年_'
'上用_'
'ja'
'ft_'
'der_'
'bp_'
'% ） _'
' “   _'
' " '
'高超_'
'马尔_'
'飞跃_'
'革'
'难以'
'陶醉_'
'降价_'
'防水_'
'长着_'
'金融公司_'
'野牛_'
'酒会_'
'那得_'
'避难_'
'逼真_'
'通心粉_'
'透析_'
'适应性_'
'迈进_'
'迅猛_'
'软骨_'
'跟班_'
'质子_'
'贝格_'
'记性_'
'认清_'
'詹娜_'
'角色扮演_'
'蛮'
'获悉_'
'舌'
'自由民主党_'
'自杀式_'
'脊_'
'能救_'
'肩'
'聘_'
'翼'
'美圆_'
'结婚戒指_'
'累死_'
'程序'
'礼堂_'
'硬汉_'
'白领_'
'白细胞_'
'电路板_'
'用车_'
'瓣_'
'混帐_'
'深厚_'
'消停_'
'法西斯_'
'沉船_'
'汗水_'
'水母_'
'氟'
'植_'
'桌'
'本赛季_'
'服务公司_'
'有用吗_'
'春节_'
'明尼苏达州_'
'旺'
'方方面面_'
'新药_'
'斥_'
'教条_'
'改名_'
'收成_'
'插头_'
'据点_'
'拴_'
'拟定_'
'拙劣_'
'抵触_'
'托尔_'
'打声_'
'成形_'
'惊醒_'
'恶臭_'
'总计_'
'很远_'
'建起_'
'广泛应用_'
'幌子_'
'帮凶_'
'帮会_'
'巴恩斯_'
'巴尔'
'工程'
'州市_'
'岩浆_'
'展品_'
'家庭'
'安稳_'
'妈呀_'
'她俩_'
'天呀_'
'塞思_'
'圆满_'
'国有化_'
'嗒_'
'哪样_'
'哈哈哈_'
'呼喊_'
'吴_'
'合作者_'
'反悔_'
'反之_'
'双边_'
'双赢_'
'卡尔'
'博得_'
'动向_'
'击垮_'
'出口处_'
'冠状动脉_'
'兵力_'
'全天候_'
'光泽_'
'儒家_'
'做错事_'
'保证金_'
'你会_'
'伽'
'伯爵夫人_'
'他爸_'
'人事_'
'亚麻_'
'云南_'
'乾'
'之初_'
'为的是_'
'不菲_'
'不提_'
'不回_'
'一见钟情_'
'wto_'
'go_'
'fa'
'ck'
'JJ_'
'C'
'1982_'
'   ？_'
'   “ _'
'默契_'
'魔王_'
'饭馆_'
'韵_'
'陪陪_'
'防弹衣_'
'门户_'
'针头_'
'重担_'
'重庆市_'
'里装_'
'里约热内卢_'
'造物_'
'这事'
'运动衫_'
'迎宾_'
'过关_'
'轻点_'
'转化成_'
'起效_'
'赶去_'
'资本家_'
'贯彻_'
'财宝_'
'财力_'
'谢意_'
'诺克斯_'
'说唱_'
'诚挚_'
'证交所_'
'讲完_'
'订立_'
'观察员_'
'裸'
'装傻_'
'血缘关系_'
'藤'
'萝'
'莫拉_'
'莉斯_'
'花销_'
'腿部_'
'能以_'
'胶卷_'
'肺结核_'
'肉眼_'
'聚光灯_'
'老旧_'
'老人家_'
'翰_'
'缺氧_'
'纺织_'
'米莉_'
'第二名_'
'笛_'
'神马_'
'神通_'
'神经细胞_'
'短片_'
'相像_'
'盟_'
'盆'
'瘦'
'用语_'
'理睬_'
'灭火_'
'滑冰_'
'温迪_'
'涌现_'
'浸_'
'流汗_'
'波利_'
'河岸_'
'没钱_'
'没多久_'
'汉姆_'
'氯'
'毫无用处_'
'母公司_'
'歪'
'梅洛_'
'桑切斯_'
'柯达_'
'林赛_'
'林中_'
'杀过_'
'木马_'
'有把握_'
'普莱斯_'
'星空_'
'日光_'
'无心_'
'断层_'
'数百名_'
'摸索_'
'排水_'
'拳手_'
'执勤_'
'恰'
'心电图_'
'很坏_'
'归类_'
'张贴_'
'弗利_'
'布莱德_'
'岁数_'
'屁滚尿流_'
'尿裤子_'
'少许_'
'小题大做_'
'密歇根州_'
'寄生_'
'学士学位_'
'嬉皮士_'
'如你所愿_'
'奶子_'
'塞到_'
'塘_'
'塑胶_'
'塑料'
'堪萨斯州_'
'基斯_'
'地问_'
'在短期内_'
'嗅_'
'向外_'
'名言_'
'吉尔伯特_'
'即将来临_'
'包包_'
'勤_'
'加文_'
'剑桥大学_'
'出世_'
'冲击波_'
'内外_'
'关键因素_'
'兔'
'克隆人_'
'克林_'
'儿时_'
'停泊_'
'做会_'
'修养_'
'伸进_'
'伤得_'
'传导_'
'众神_'
'他会来_'
'介质_'
'书包_'
'东面_'
'东尼_'
'专题_'
'不长_'
'不太会_'
'不善_'
'上身_'
'上膛_'
'…_'
'α_'
'th_'
'per'
'dy_'
'La'
'鼻孔_'
'顺路_'
'靶子_'
'革命性_'
'霍乱_'
'雅加达_'
'难吃_'
'降至_'
'阿尔及利亚_'
'间隙_'
'邂逅_'
'道琼斯_'
'通讯社_'
'这出_'
'身价_'
'跨境_'
'越长_'
'赔'
'贫'
'读懂_'
'读到_'
'译'
'许许多多_'
'讨'
'解冻_'
'解决不了_'
'装得_'
'虫'
'良性_'
'舞动_'
'胡佛_'
'羽'
'移到_'
'租给_'
'秋千_'
'示'
'矮子_'
'直奔_'
'登台_'
'痣_'
'生父_'
'生命力_'
'燃起_'
'煎蛋_'
'点着_'
'演变成_'
'漏油_'
'滥'
'滚动_'
'滚出_'
'溜出去_'
'湖人_'
'深爱着_'
'浓密_'
'流畅_'
'泽西_'
'泛_'
'沼泽地_'
'氟_'
'毫无价值_'
'毕_'
'标准'
'极高_'
'松散_'
'有氧_'
'有损_'
'最出色_'
'曲解_'
'暧昧_'
'旷野_'
'时代广场_'
'无话可说_'
'接下去_'
'捐献者_'
'抄'
'找遍_'
'打鼾_'
'感觉得到_'
'惹怒_'
'悟_'
'怨'
'性情_'
'忙'
'德雷克_'
'张力_'
'引出_'
'弄湿_'
'常理_'
'布鲁姆_'
'布洛克_'
'巴布_'
'巡视_'
'就读_'
'尔特_'
'小学生_'
'小儿_'
'寄希望于_'
'宽度_'
'审慎_'
'委会_'
'太蠢_'
'天网_'
'大得多_'
'多管闲事_'
'多出_'
'多些_'
'塔利_'
'基思_'
'喉'
'商机_'
'听错_'
'召_'
'受罪_'
'取样_'
'卵'
'卜'
'半决赛_'
'升天_'
'匪_'
'几十个_'
'凝视着_'
'军事力量_'
'内斯_'
'内华达州_'
'典_'
'兰德尔_'
'公益_'
'做点事_'
'保险金_'
'侯_'
'供职_'
'亲眼看见_'
'主修_'
'两辆_'
'世事_'
'不休_'
'三千_'
'三世_'
'ly_'
'ard_'
'Y_'
'IBM_'
'5'
' ， － _'
' ....... _'
' "   ？ _'
'黑板_'
'鲁比_'
'餐桌上_'
'食品安全_'
'飞机场_'
'阿德_'
'闻闻_'
'门卫_'
'逆向_'
'运来_'
'运动场_'
'过滤器_'
'辅导员_'
'蹂躏_'
'越少_'
'豹_'
'说声_'
'该书_'
'试图用_'
'诉说_'
'讲个_'
'记录下来_'
'裁_'
'蒙蒂_'
'蒙哥马利_'
'药剂师_'
'荡'
'苔丝_'
'致意_'
'臭虫_'
'脚踏车_'
'耗时_'
'罕_'
'纸牌_'
'精髓_'
'米格尔_'
'管教_'
'科幻_'
'磁性_'
'瞳孔_'
'真没想到_'
'白马王子_'
'疾'
'瓷砖_'
'班里_'
'狂犬病_'
'犯罪率_'
'犬'
'特长_'
'牧羊人_'
'爆炸案_'
'爆炸事件_'
'燕'
'熏肉_'
'火热_'
'濒危_'
'满身_'
'滑坡_'
'游轮_'
'清澈_'
'混血_'
'深知_'
'深沉_'
'浸泡_'
'没吃过_'
'污渍_'
'母鸡_'
'死前_'
'止住_'
'横向_'
'榜单_'
'植株_'
'检查站_'
'核电_'
'栓塞_'
'极端分子_'
'有够_'
'更让人_'
'暴力犯罪_'
'易怒_'
'无处_'
'旅游景点_'
'斯蒂'
'救治_'
'攻_'
'改观_'
'收起_'
'搜查证_'
'接听_'
'探险家_'
'据信_'
'振兴_'
'拷_'
'拟'
'拖延时间_'
'拍拍_'
'报销_'
'投篮_'
'扬声器_'
'憋_'
'愿景_'
'感想_'
'总想_'
'快些_'
'彼得森_'
'录像机_'
'强健_'
'弗里德曼_'
'广告商_'
'幻影_'
'常去_'
'帮不上忙_'
'尸骨_'
'尔菲_'
'小道_'
'小木屋_'
'安哥拉_'
'好手_'
'奶昔_'
'夺得_'
'太阳镜_'
'太低_'
'大连_'
'增值_'
'堵车_'
'四十年_'
'商会_'
'哑巴_'
'哀'
'吉布森_'
'各人_'
'受理_'
'发球_'
'原定_'
'劳累_'
'剃刀_'
'判刑_'
'减慢_'
'冲破_'
'先天性_'
'儿科_'
'停靠_'
'倒地_'
'信中_'
'作何_'
'低声_'
'伯纳_'
'任天堂_'
'代表性_'
'举重_'
'丙'
'世贸组织_'
'不诚实_'
'不得已_'
'一千万_'
'g20_'
'et'
'ceo_'
'1984_'
' ......._'
'鼓手_'
'麦卡锡_'
'鳍_'
'鲨_'
'鲍伯_'
'驶出_'
'风俗_'
'霍夫曼_'
'陪'
'阶_'
'镁_'
'销售量_'
'重温_'
'酒水_'
'遭殃_'
'遗骸_'
'遗言_'
'遇'
'选错_'
'追溯_'
'迷上_'
'辨'
'辞'
'软糖_'
'车身_'
'蹭_'
'越快越好_'
'超级大国_'
'赶回来_'
'资本金_'
'贴着_'
'货品_'
'该校_'
'试点_'
'记者会_'
'詹妮弗_'
'角膜_'
'蝇_'
'获释_'
'茱莉亚_'
'苏西_'
'芙'
'色调_'
'腕'
'胎盘_'
'耍花招_'
'翻修_'
'美国宇航局_'
'罗曼_'
'结账_'
'纺织品_'
'纯真_'
'累计_'
'精神疾病_'
'筑'
'窥探_'
'穿戴_'
'禁不住_'
'票价_'
'神志不清_'
'社区服务_'
'磁铁_'
'砖'
'真快_'
'直率_'
'百分比_'
'疫情_'
'男爵_'
'用量_'
'珍宝_'
'猫王_'
'特写_'
'特价_'
'照镜子_'
'照办_'
'点菜_'
'炮'
'火化_'
'漆'
'满足感_'
'满满_'
'溜'
'添麻烦_'
'民意_'
'毫无关系_'
'每场_'
'欢迎光临_'
'检察长_'
'梅斯_'
'格利_'
'标的_'
'标注_'
'枪口_'
'机动车_'
'朝向_'
'日趋_'
'日益增长_'
'日本'
'新星_'
'教教_'
'摄取_'
'提炼_'
'提姆_'
'拓'
'拉比_'
'押注_'
'护身符_'
'打网球_'
'打下_'
'扎尔_'
'才华横溢_'
'惨'
'快餐店_'
'忙活_'
'必需品_'
'弹道导弹_'
'康涅狄格州_'
'库尔_'
'幻'
'幸免_'
'干系_'
'幕'
'布兰达_'
'少尉_'
'小兄弟_'
'富士康_'
'富国_'
'密切相关_'
'安顿下来_'
'安理会_'
'嫂子_'
'姆斯_'
'好斗_'
'女同性恋_'
'夷为平地_'
'失职_'
'太平间_'
'大到_'
'堂兄_'
'基蒂_'
'垃圾场_'
'国营_'
'园区_'
'嗜血_'
'售卖_'
'哈德逊_'
'咸'
'和谈_'
'吊销_'
'只求_'
'只为_'
'双向_'
'参见_'
'化学成分_'
'包容_'
'删_'
'刑'
'出游_'
'凶猛_'
'像素_'
'假想_'
'保单_'
'例证_'
'体育运动_'
'体液_'
'低谷_'
'伊森_'
'伊利诺伊州_'
'他病_'
'从天而降_'
'人性化_'
'亲口_'
'亚裔_'
'亚利桑那_'
'二手_'
'乔伊斯_'
'乒乓球_'
'乐在其中_'
'主妇_'
'中称_'
'两类_'
'两瓶_'
'与世隔绝_'
'上流社会_'
'三月份_'
'一氧化碳_'
'one_'
'ka_'
'da'
'cha'
'ad'
'Ta'
'Ro'
'Me'
'1975_'
' … … '
'鼓舞人心_'
'黛西_'
'麻省理工_'
'麻烦事_'
'驴子_'
'马科斯_'
'风吹_'
'颤动_'
'非同寻常_'
'随处可见_'
'陵_'
'阿宝_'
'闺女_'
'错失_'
'钻井_'
'酵母_'
'造假_'
'过些_'
'轮船_'
'车位_'
'趋'
'赎_'
'贸易'
'贡'
'调料_'
'训练营_'
'西蒙'
'蟋蟀_'
'蒋介石_'
'萨默斯_'
'莱尼_'
'茧_'
'花上_'
'芒'
'自便_'
'老手_'
'老太婆_'
'翻倍_'
'羽_'
'罢_'
'维茨_'
'经济效益_'
'终结者_'
'纳闷_'
'精简_'
'科里_'
'种马_'
'秃鹰_'
'确保您_'
'瞩目_'
'看不懂_'
'白俄罗斯_'
'玻利维亚_'
'献祭_'
'熔岩_'
'熏'
'炭_'
'灵光_'
'海尔_'
'浦_'
'派来_'
'派别_'
'沃尔什_'
'欢迎您_'
'栽赃_'
'格雷斯_'
'标明_'
'林子里_'
'朦胧_'
'朗姆酒_'
'有利可图_'
'最让人_'
'暴力行为_'
'日复一日_'
'新教_'
'摄'
'接生_'
'掏_'
'按着_'
'抗衡_'
'投给_'
'抄袭_'
'打喷嚏_'
'扑灭_'
'手握_'
'我头_'
'患'
'忏悔者_'
'德纳_'
'弥撒_'
'引人注意_'
'开放式_'
'干点_'
'帮不上_'
'巡逻车_'
'展会_'
'小个子_'
'对决_'
'家居_'
'宴会厅_'
'安葬_'
'威廉斯_'
'委'
'姑'
'好了吧_'
'好久不见_'
'奶粉_'
'大帝_'
'多地_'
'多发性_'
'多功能_'
'复杂化_'
'备案_'
'声波_'
'坨_'
'址_'
'回绝_'
'哈雷_'
'告诉您_'
'可得_'
'卑劣_'
'十五年_'
'勾_'
'剽窃_'
'割掉_'
'利基_'
'出具_'
'凤_'
'军事法庭_'
'军事'
'关灯_'
'借来_'
'使出_'
'伴有_'
'任何理由_'
'仪表_'
'京都_'
'举足轻重_'
'丽萨_'
'丹妮尔_'
'专横_'
'不规则_'
'上街_'
'za'
'q_'
'pc_'
'ku'
'ee'
'MBA_'
'4'
' ） ； _'
'麦芽_'
'鹤_'
'骷髅_'
'飞镖_'
'飞过来_'
'风能_'
'非营利_'
'雪地_'
'难关_'
'闹事_'
'问世_'
'钱德勒_'
'逝世_'
'选用_'
'车开_'
'跑来跑去_'
'起着_'
'走掉_'
'走人_'
'贴身_'
'负载_'
'裁'
'被车撞_'
'表皮_'
'行者_'
'行政部门_'
'蜂'
'蒸'
'苏打_'
'花岗岩_'
'艾莉_'
'航空'
'腿'
'腐'
'脸庞_'
'胆怯_'
'职业道德_'
'聊聊天_'
'聊天室_'
'耦合_'
'美国佬_'
'罗马帝国_'
'罗宾汉_'
'编排_'
'策_'
'窘境_'
'突如其来_'
'空姐_'
'福瑞克_'
'禁足_'
'社工_'
'示_'
'硅'
'研'
'瞄_'
'睁开_'
'眩晕_'
'看个_'
'相通_'
'相对论_'
'痴呆_'
'生母_'
'理发师_'
'球场上_'
'玲_'
'玩乐_'
'热水澡_'
'烦死_'
'灌醉_'
'演技_'
'满满的_'
'溢价_'
'湿度_'
'渡轮_'
'淫荡_'
'淋'
'润_'
'海事_'
'法律顾问_'
'泊_'
'治病_'
'油轮_'
'水壶_'
'民主'
'次日_'
'模拟'
'查案_'
'松弛_'
'有机体_'
'會_'
'普拉特_'
'显赫_'
'日程安排_'
'无足轻重_'
'无可奉告_'
'无休止_'
'斯顿_'
'斯托克_'
'断绝_'
'文书工作_'
'整修_'
'教员_'
'撞倒_'
'撇开_'
'提供商_'
'措手不及_'
'推荐信_'
'捉弄_'
'挫伤_'
'拧_'
'拆掉_'
'扳倒_'
'打篮球_'
'扑克牌_'
'截_'
'我朝_'
'我待_'
'我动_'
'慈爱_'
'愚'
'惹事_'
'悠久_'
'忧心忡忡_'
'忍住_'
'往外_'
'弄脏了_'
'弄完_'
'床位_'
'庄'
'广东省_'
'平淡_'
'帽'
'布克_'
'己'
'差点儿_'
'工作量_'
'工作组_'
'岳父_'
'寄出_'
'宿_'
'守规矩_'
'宇'
'存档_'
'奥马尔_'
'奥斯丁_'
'天杀_'
'复古_'
'处方药_'
'塞浦路斯_'
'坟_'
'围攻_'
'四倍_'
'嗅到_'
'善事_'
'商谈_'
'唇'
'哀伤_'
'吸取教训_'
'含糊_'
'叼_'
'号线_'
'号称_'
'变色_'
'变数_'
'原样_'
'博彩_'
'动词_'
'动听_'
'出口国_'
'几处_'
'再次发生_'
'关了_'
'六十'
'全然_'
'全境_'
'儿童'
'偷偷地_'
'低沉_'
'会因_'
'他教_'
'仅存_'
'人种_'
'享_'
'云层_'
'乐观主义_'
'不由自主_'
'三十'
'一片空白_'
'一成不变_'
'一动不动_'
'li_'
'il_'
'cho'
' ？ ？ ？_'
' ？   — _'
' ..... _'
'高龄_'
'骑着_'
'马达_'
'马斯_'
'非常复杂_'
'零星_'
'难以捉摸_'
'隐性_'
'阿森纳_'
'锌_'
'金刚_'
'重整_'
'重振_'
'里尼_'
'邪'
'那般_'
'邋遢_'
'遵照_'
'这词_'
'运动'
'边际_'
'软件'
'转播_'
'身手_'
'跑过来_'
'走投无路_'
'贝恩_'
'贝多芬_'
'记不得_'
'议'
'触角_'
'西蒙斯_'
'衰弱_'
'英国首相_'
'肥皂剧_'
'耻_'
'耗子_'
'者'
'老房子_'
'翻过来_'
'置身于_'
'罢手_'
'罗纳德_'
'罗伊'
'网格_'
'绞死_'
'给与_'
'结肠_'
'结成_'
'纽曼_'
'红外线_'
'系好_'
'糟蹋_'
'粘土_'
'等离子_'
'等国_'
'章'
'穿孔_'
'科尼_'
'离得_'
'福布斯_'
'神职人员_'
'神经科_'
'社会保险_'
'磕_'
'砂_'
'看门人_'
'看些_'
'电厂_'
'现场直播_'
'王先生_'
'狱_'
'犹'
'犀利_'
'牢'
'爱荷华州_'
'焦躁_'
'烈士_'
'滋润_'
'溢出_'
'温蒂_'
'消防队_'
'测试'
'浇_'
'活埋_'
'泰晤士河_'
'泥潭_'
'波普_'
'泉'
'沟'
'池'
'氏'
'欢快_'
'检讨_'
'某一_'
'枯萎_'
'术'
'暗淡_'
'昌_'
'时用_'
'斯坦顿_'
'教育部_'
'放逐_'
'收敛_'
'搂_'
'掩埋_'
'掠过_'
'捉'
'拥'
'扮'
'手链_'
'想点_'
'情趣_'
'情书_'
'恼怒_'
'恶行_'
'得花_'
'张纸_'
'开机_'
'开发'
'应答_'
'布鲁_'
'布雷特_'
'工钱_'
'工商'
'尼克斯_'
'小额_'
'家教_'
'家庭暴力_'
'定时_'
'威克_'
'姚明_'
'好评_'
'奥克_'
'奇普_'
'奄奄一息_'
'大额_'
'大法官_'
'大佬_'
'多方面_'
'外甥_'
'地质学家_'
'圆顶_'
'四季_'
'喝个_'
'喊叫_'
'各个方面_'
'可真'
'发自内心_'
'卫报_'
'十三_'
'加布_'
'分隔_'
'击掌_'
'冷落_'
'冰上_'
'全速_'
'全在_'
'入眠_'
'克西_'
'克什米尔_'
'做起_'
'假使_'
'供养_'
'体育课_'
'但丁_'
'伴奏_'
'伯尼_'
'伊斯坦布尔_'
'伊拉克人_'
'价位_'
'他会'
'亨德森_'
'些小_'
'乔尔_'
'丹尼尔斯_'
'中起_'
'两遍_'
'两只手_'
'下垂_'
'上阵_'
'三道_'
'一波_'
'一次次_'
'一刻起_'
'一万_'
'v'
'mr_'
'cs_'
'450_'
'240_'
''   _'
' ？ "   _'
' @ _'
'   。 _'
'麦肯锡_'
'骰子_'
'骑手_'
'驾'
'驶过_'
'驯服_'
'饮'
'预言家_'
'顺风_'
'面容_'
'震荡_'
'陆续_'
'阿拉伯语_'
'钱德_'
'钝_'
'野猪_'
'里拉_'
'那不勒斯_'
'道尔_'
'逆_'
'退回去_'
'追着_'
'远距离_'
'远见_'
'这为_'
'轮回_'
'转运_'
'赔偿金_'
'贤_'
'诸神_'
'说得好_'
'话说回来_'
'试卷_'
'许多年_'
'记不起_'
'讨厌鬼_'
'表演者_'
'菊_'
'荒废_'
'荆棘_'
'英国'
'苯'
'芳'
'舞池_'
'腊肠_'
'背弃_'
'群落_'
'罗里_'
'维基百科_'
'紧张局势_'
'第八'
'童话故事_'
'积聚_'
'私营企业_'
'示意_'
'破损_'
'瞧见_'
'眼线_'
'真心话_'
'皇上_'
'画出_'
'瓦格纳_'
'玻璃杯_'
'特警_'
'燕麦_'
'焊接_'
'滞后_'
'滑行_'
'滑水_'
'溺死_'
'淘'
'消息来源_'
'浦'
'洛伦佐_'
'泰坦尼克号_'
'法郎_'
'毅力_'
'死党_'
'正宗_'
'欧盟委员会_'
'杠_'
'束手无策_'
'本子_'
'暑期_'
'显示屏_'
'无限期_'
'无济于事_'
'施加压力_'
'敷_'
'攻读_'
'撤消_'
'摇摇欲坠_'
'搭载_'
'揽_'
'插曲_'
'拍卖行_'
'拉吉_'
'找死_'
'扮演着_'
'才艺_'
'手袋_'
'手杖_'
'战壕_'
'戏院_'
'憧憬_'
'惹'
'悬赏_'
'怀俄明州_'
'快照_'
'心理准备_'
'并肩作战_'
'工匠_'
'巡游_'
'居家_'
'少废话_'
'小刀_'
'实验性_'
'娜'
'如愿_'
'好似_'
'奏_'
'失去知觉_'
'太强_'
'大风_'
'大西洋城_'
'大发雷霆_'
'大半夜_'
'垒_'
'垃圾邮件_'
'坚持不懈_'
'坐车_'
'地段_'
'地标_'
'圣彼得堡_'
'国际法_'
'国人_'
'回音_'
'回忆录_'
'喷气机_'
'喉_'
'合影_'
'史考特_'
'可供_'
'口服_'
'参谋长_'
'原位_'
'南斯拉夫_'
'华沙_'
'千真万确_'
'十一'
'北爱尔兰_'
'前列腺_'
'前两天_'
'别扯_'
'准确性_'
'冲个_'
'再要_'
'八成_'
'全景_'
'克雷_'
'保险费_'
'依托_'
'供词_'
'付不起_'
'他活_'
'他成_'
'之死_'
'之作_'
'乃'
'主菜_'
'中性_'
'中子_'
'不宜_'
'上海'
'一集_'
'bur'
'Fortune_'
'3'
' 》_'
' 。 ” 。_'
'黄河_'
'鲍威尔_'
'饱和_'
'飞越_'
'鞋底_'
'隐匿_'
'降解_'
'闪光灯_'
'铃'
'钩子_'
'钦'
'里加_'
'连结_'
'过低_'
'达赖喇嘛_'
'越战_'
'论据_'
'解决之道_'
'要约_'
'西面_'
'蕾丝_'
'蔓延到_'
'葡萄干_'
'菲亚特_'
'菠萝_'
'茅'
'范例_'
'花卉_'
'航空母舰_'
'肥沃_'
'肘_'
'联系方式_'
'翻身_'
'缺钱_'
'缝隙_'
'绿茶_'
'绒毛_'
'经济体制_'
'线性_'
'纹'
'第一印象_'
'立正_'
'穿行_'
'秘方_'
'科克_'
'私人生活_'
'确_'
'砂'
'石化_'
'短路_'
'瞎'
'真糟糕_'
'直言不讳_'
'直肠_'
'皮层_'
'电影'
'用电_'
'球星_'
'玛蒂_'
'猴'
'牲口_'
'爱看_'
'爱慕_'
'点滴_'
'炮火_'
'潮汐_'
'海马_'
'洗完_'
'泡汤_'
'汪'
'污'
'毫无'
'每到_'
'武汉_'
'查清_'
'柔_'
'朴素_'
'朋友家_'
'有生之年_'
'最低工资_'
'暂时性_'
'普通话_'
'晨_'
'晒太阳_'
'昆_'
'斯科蒂_'
'数以百万计_'
'敞口_'
'放个_'
'摩天大楼_'
'搜救_'
'接连_'
'接待员_'
'拿个_'
'拣_'
'投身_'
'打针_'
'打盹_'
'所称_'
'感情用事_'
'惟一_'
'悬而未决_'
'恶灵_'
'恩惠_'
'性状_'
'忧_'
'微薄_'
'征用_'
'引人入胜_'
'年龄段_'
'帮得_'
'崖_'
'少管所_'
'小精灵_'
'实习医生_'
'定于_'
'官僚主义_'
'完好无损_'
'女招待_'
'奔波_'
'头像_'
'大山_'
'埃德蒙_'
'圈子里_'
'国际象棋_'
'哈蒙德_'
'呼吸困难_'
'叹_'
'受限_'
'反面_'
'反复无常_'
'参_'
'卓_'
'华盛顿邮报_'
'华盛顿大学_'
'十几'
'化肥_'
'勺_'
'动植物_'
'冤'
'军营_'
'典狱长_'
'六次_'
'六年级_'
'公顷_'
'全部都是_'
'全盘_'
'先发制人_'
'偿付_'
'保有_'
'俊_'
'何在_'
'低音_'
'伪'
'伞'
'会花_'
'企业界_'
'以致于_'
'人民党_'
'亮光_'
'乌拉圭_'
'中亚_'
'不可理喻_'
'上要_'
'上扬_'
'一死_'
'vo'
'si'
'net_'
'mar'
'ka'
'3g_'
'05_'
'鼓起勇气_'
'鸣'
'鲜艳_'
'鲍_'
'驱'
'风雨_'
'频'
'顾及_'
'非洲人_'
'雌激素_'
'难为情_'
'陡峭_'
'陈词_'
'镍_'
'锚_'
'锋_'
'铸造_'
'铸'
'银行业务_'
'醒目_'
'酚_'
'邻里_'
'遍及_'
'迫在眉睫_'
'连在一起_'
'这歌_'
'转账_'
'足球比赛_'
'超新星_'
'赐福_'
'贝勒_'
'计价_'
'蓝天_'
'蒙在鼓里_'
'花儿_'
'自由'
'脱衣舞娘_'
'脱衣舞女_'
'能查_'
'股息_'
'肇事_'
'耐_'
'考核_'
'羊羔_'
'缄默_'
'纯正_'
'约束力_'
'红细胞_'
'繁衍_'
'繁华_'
'精湛_'
'竟'
'程式_'
'科学界_'
'神经外科_'
'磨难_'
'破事_'
'着眼于_'
'疮_'
'疑似_'
'疏'
'甜食_'
'瓶颈_'
'瓜葛_'
'独角兽_'
'犯了错_'
'特曼_'
'爱死_'
'热切_'
'炸鸡_'
'灵性_'
'潇洒_'
'液化_'
'海德_'
'洗碗机_'
'洗发水_'
'泼'
'泥巴_'
'河道_'
'沃恩_'
'求生_'
'次序_'
'横扫_'
'桃_'
'核计划_'
'某件事_'
'柏拉图_'
'来此_'
'期望值_'
'有辆_'
'普遍存在_'
'无异于_'
'斑马_'
'文摘_'
'敲响_'
'数十亿_'
'支离破碎_'
'撬开_'
'掠_'
'排球_'
'换尿布_'
'捕捞_'
'指南针_'
'拒绝接受_'
'拒'
'拆弹_'
'担'
'扩'
'托克_'
'打通_'
'手指头_'
'所爱_'
'所学_'
'戒律_'
'意象_'
'情结_'
'情不自禁_'
'总公司_'
'心肝_'
'心理健康_'
'德意志银行_'
'很胖_'
'很久很久_'
'当班_'
'庄重_'
'干不了_'
'巾_'
'巴迪_'
'崇'
'宽广_'
'孩子气_'
'太热_'
'大权_'
'多得_'
'多巴胺_'
'基层_'
'坏习惯_'
'地爱_'
'团结一致_'
'回放_'
'四条_'
'喷气式_'
'商议_'
'响声_'
'哈瓦那_'
'咯咯_'
'合理性_'
'参战_'
'厂'
'南中国海_'
'卑'
'劝告_'
'别乱_'
'几项_'
'几近_'
'凉'
'冲进去_'
'冰镇_'
'写个_'
'再者_'
'具体'
'六号_'
'兜里_'
'充_'
'体谅_'
'会计'
'休息时间_'
'伊甸园_'
'伊利_'
'人民'
'交替_'
'互不_'
'二十分钟_'
'二十'
'事有_'
'之源_'
'主题公园_'
'严格来说_'
'丘'
'世行_'
'不成问题_'
'不予_'
'不乐意_'
'不乏_'
'下回_'
'万无一失_'
'一天到晚_'
'ng'
'io_'
'ine_'
'do'
'1967_'
' … … ”_'
'马子_'
'马上会_'
'饺子_'
'顶多_'
'难以忍受_'
'降水_'
'附加费_'
'阿诺德_'
'阵线_'
'闹鬼_'
'闲置_'
'问卷调查_'
'重蹈覆辙_'
'追捧_'
'进修_'
'进不去_'
'这不关_'
'蹊跷_'
'越野_'
'超赞_'
'赶往_'
'贫民区_'
'贩_'
'货色_'
'负有_'
'读物_'
'误以为_'
'详'
'试管_'
'试用_'
'诈_'
'裤'
'装成_'
'行当_'
'藏品_'
'茨'
'英超_'
'花纹_'
'至多_'
'肢_'
'联络人_'
'职业杀手_'
'老练_'
'羊肉_'
'网友_'
'缠绕_'
'纱_'
'纤维素_'
'算数_'
'第一眼_'
'窝囊废_'
'穆勒_'
'禅_'
'磁共振_'
'砍伐_'
'矛头_'
'矛_'
'真令人_'
'相继_'
'百货_'
'百科全书_'
'登月_'
'病理学_'
'留意到_'
'电动车_'
'用得着_'
'生还者_'
'生子_'
'生产者_'
'献出_'
'猜猜看_'
'熄火_'
'点前_'
'炫_'
'漏水_'
'湿润_'
'消散_'
'流水_'
'派系_'
'活不下去_'
'河畔_'
'没救_'
'沈'
'水牛_'
'气疯_'
'民族主义者_'
'残_'
'歉_'
'楼房_'
'棒棒糖_'
'格言_'
'核算_'
'机翼_'
'朴_'
'朱迪_'
'晶_'
'无所畏惧_'
'旁观_'
'数十'
'支气管_'
'插图_'
'持有者_'
'拉什_'
'拉上_'
'抹掉_'
'执法人员_'
'战略性_'
'戏剧化_'
'慢下来_'
'慕_'
'恭'
'怕'
'待见_'
'彻底改变_'
'弗兰'
'开刀_'
'广告公司_'
'干洗店_'
'希斯_'
'布兰妮_'
'岸上_'
'屌_'
'尾部_'
'尝到_'
'小钱_'
'射程_'
'寿_'
'实用性_'
'安放_'
'好几_'
'奴'
'奥利维_'
'大本营_'
'大体上_'
'多长_'
'夏洛克_'
'处分_'
'处事_'
'地堡_'
'回心转意_'
'嘴边_'
'史前_'
'叠'
'取款机_'
'厨子_'
'卡夫_'
'占地_'
'南茜_'
'卖点_'
'医用_'
'北卡罗来纳州_'
'北半球_'
'化工_'
'加满_'
'前头_'
'制片_'
'到此结束_'
'刊物_'
'刃_'
'出丑_'
'凝结_'
'凌驾于_'
'凉快_'
'再造_'
'兼并_'
'公立_'
'克雷'
'克罗地亚_'
'债'
'你查_'
'你害_'
'作画_'
'低利率_'
'会诊_'
'伊特_'
'仲'
'付帐_'
'乘车_'
'之行_'
'丫'
'两难_'
'两下_'
'世界冠军_'
'不测_'
'下午茶_'
'上风_'
'一整夜_'
'一两'
't'
'berg_'
'barack_'
'aig_'
'170_'
' 】_'
'默尔_'
'麦片粥_'
'高品质_'
'饮食习惯_'
'风流_'
'领主_'
'韧带_'
'静脉注射_'
'霸_'
'阻拦_'
'阔'
'阑尾_'
'闲暇_'
'这待_'
'输家_'
'躲'
'身无分文_'
'诉诸_'
'讲解_'
'詹'
'视频'
'被选为_'
'被叫_'
'虚无_'
'蒸_'
'萧'
'萦绕_'
'莫扎特_'
'苗'
'色拉_'
'脏兮兮_'
'脆'
'羊群_'
'罗宾逊_'
'综合性_'
'绒'
'经营'
'组员_'
'纸质_'
'约书亚_'
'紧急事件_'
'索菲亚_'
'管辖权_'
'简陋_'
'答录机_'
'笔钱_'
'竞争性_'
'稻_'
'真主党_'
'看上_'
'直观_'
'申请书_'
'生火_'
'班纳特_'
'现实主义_'
'玉米'
'物有所值_'
'爆炸性_'
'照耀_'
'烹调_'
'热忱_'
'灾祸_'
'灾'
'演得_'
'渗入_'
'混血儿_'
'活捉_'
'注资_'
'波顿_'
'沃森_'
'欣'
'欠缺_'
'橙_'
'楼市_'
'梅里_'
'查尔斯顿_'
'极有_'
'杀人案_'
'木匠_'
'有多远_'
'有句_'
'最新消息_'
'昨夜_'
'星球大战_'
'早些_'
'无产阶级_'
'整栋_'
'数次_'
'擦屁股_'
'撤'
'摒弃_'
'搞垮_'
'捞'
'捉迷藏_'
'持续增长_'
'报到_'
'抚慰_'
'技术员_'
'打响_'
'手提电脑_'
'手推车_'
'戈多_'
'想出_'
'惨败_'
'悬浮_'
'得太快_'
'当今世界_'
'张扬_'
'开明_'
'底朝天_'
'年幼_'
'布宜诺斯艾利斯_'
'布丽_'
'巴尼_'
'巴哈马_'
'左脚_'
'工作服_'
'屋内_'
'尺码_'
'小鸡鸡_'
'小分队_'
'对照组_'
'对劲_'
'宿'
'定金_'
'安危_'
'守口如瓶_'
'孔雀_'
'婚后_'
'奥马哈_'
'奉命_'
'失常_'
'太帅_'
'大酒店_'
'增生_'
'埃斯特_'
'埃文斯_'
'垒球_'
'坦桑尼亚_'
'场馆_'
'回落_'
'唬_'
'周全_'
'呆会_'
'后见_'
'合计_'
'可夫_'
'另一回事_'
'取暖_'
'原话_'
'印章_'
'南韩_'
'南极洲_'
'卖空_'
'劫'
'力学_'
'前有_'
'刺青_'
'出乎_'
'军政府_'
'关系密切_'
'关着_'
'共进午餐_'
'六天_'
'克里斯蒂安_'
'克星_'
'偷懒_'
'保释金_'
'住院医生_'
'仔细观察_'
'人干_'
'乘以_'
'两片_'
'两层_'
'专属_'
'不锈钢_'
'不要脸_'
'不为_'
'一卷_'
'一人'
'一举_'
'z'
'sta'
'man'
'lo'
'lee_'
'ipod_'
'her'
'ford_'
'H'
'1981_'
'02_'
'鸡鸡_'
'魏_'
'骗'
'驰_'
'马斯'
'马修斯_'
'风向_'
'领先地位_'
'顶楼_'
'雷诺兹_'
'零下_'
'难事_'
'降低成本_'
'阿克_'
'问下_'
'闪现_'
'金鱼_'
'释放出来_'
'遍地_'
'适于_'
'适_'
'这架_'
'达沃斯_'
'趁机_'
'起舞_'
'起死回生_'
'谣传_'
'请稍等_'
'诱因_'
'证券化_'
'论断_'
'记忆里_'
'规程_'
'袋鼠_'
'行销_'
'血手_'
'螺丝_'
'蘸_'
'落空_'
'落叶_'
'萨斯_'
'菊'
'莱斯利_'
'药方_'
'航向_'
'自来水_'
'考利_'
'老娘_'
'罗伯茨_'
'续'
'绣_'
'紧跟_'
'精巧_'
'筷子_'
'租借_'
'禁用_'
'皇_'
'疑点_'
'用地_'
'王妃_'
'爱沙尼亚_'
'焊'
'烤饼_'
'灌注_'
'渗'
'流行病学_'
'流亡_'
'波长_'
'波波_'
'法兰西_'
'油门_'
'沸腾_'
'没动_'
'沙皇_'
'水质_'
'毛拉_'
'每桶_'
'武装力量_'
'棒'
'标示_'
'枪法_'
'材质_'
'机组_'
'望去_'
'有所作为_'
'暨_'
'无可救药_'
'旋风_'
'旅游者_'
'旁白_'
'斗殴_'
'数以百计_'
'散落_'
'攻击者_'
'改了_'
'攀'
'搅乱_'
'接见_'
'捣蛋_'
'招收_'
'招手_'
'抵押品_'
'投机者_'
'承办_'
'戴蒙_'
'我知_'
'慕'
'慌张_'
'得克萨斯州_'
'往下_'
'影迷_'
'弊端_'
'开场白_'
'康德_'
'康复中心_'
'库尔德_'
'幸灾乐祸_'
'平安无事_'
'巴特勒_'
'屑_'
'少数几个_'
'小腿_'
'小牛_'
'小号_'
'对头_'
'完全相同_'
'妻儿_'
'天文台_'
'大树_'
'大屏幕_'
'场外_'
'地笑_'
'地处_'
'咨询师_'
'名录_'
'合一_'
'变坏_'
'变回_'
'受众_'
'历时_'
'卸货_'
'印第安纳州_'
'卡莱尔_'
'单方面_'
'华氏_'
'十六岁_'
'勇于_'
'加息_'
'前项_'
'别骗_'
'初恋_'
'再试_'
'内出血_'
'兰特_'
'催化_'
'促_'
'佛蒙特州_'
'佛利_'
'体育'
'伽利略_'
'伐_'
'仰慕_'
'仰'
'令人激动_'
'他于_'
'亲王_'
'五块_'
'事与愿违_'
'买不到_'
'乡下人_'
'乙_'
'之势_'
'义工_'
'两百万_'
'两架_'
'东东_'
'下一场_'
'一经_'
'一派胡言_'
'一派_'
'一一_'
'”_'
'va_'
'nc'
'mu'
'ma'
'apple_'
'Q_'
'220_'
' … ？ _'
'黯淡_'
'黑斯廷斯_'
'黏'
'鲜_'
'鲁斯_'
'高音_'
'饵_'
'领会_'
'预付_'
'项圈_'
'顶点_'
'面包车_'
'雕_'
'阿伦_'
'铲除_'
'鉴_'
'重新启动_'
'里特_'
'酷毙了_'
'配料_'
'邀请函_'
'遇难者_'
'通俗_'
'逆境_'
'迷糊_'
'进餐_'
'还债_'
'转接_'
'蹦_'
'赡养费_'
'责任心_'
'贡_'
'谨'
'评论员_'
'设备齐全_'
'警督_'
'說_'
'莫名_'
'荡_'
'至此_'
'自由派_'
'脑细胞_'
'能治好_'
'肢解_'
'耕种_'
'而亡_'
'罗格_'
'结了_'
'绊_'
'组长_'
'线上_'
'红十字会_'
'精神状态_'
'粗略_'
'粗心_'
'第一家_'
'窝'
'租约_'
'矿物质_'
'矫'
'盖住_'
'白费_'
'番'
'电话响_'
'电池板_'
'猜疑_'
'特里普_'
'爬行动物_'
'爆料_'
'焦急_'
'滞'
'滑动_'
'渲染_'
'涉'
'洗涤_'
'洒'
'泰迪熊_'
'沉积物_'
'沉着_'
'水肿_'
'水来_'
'氨酸_'
'毯_'
'毫升_'
'橡皮_'
'橡木_'
'格格不入_'
'格子_'
'根除_'
'核准_'
'树干_'
'柴_'
'松手_'
'杜松子酒_'
'杀伤力_'
'本是_'
'朝圣者_'
'普伦_'
'春假_'
'昂山_'
'施特劳斯_'
'斯克_'
'散文_'
'政治学_'
'改建_'
'援手_'
'接收器_'
'捎_'
'振奋_'
'挤进_'
'拉萨_'
'投影_'
'批发_'
'扩建_'
'房内_'
'户口_'
'我记_'
'我定_'
'惨剧_'
'情报机构_'
'总管_'
'性别歧视_'
'德林_'
'德国总理_'
'德兰_'
'御_'
'徒弟_'
'形容词_'
'强制执行_'
'引述_'
'引开_'
'式样_'
'开价_'
'度假胜地_'
'床铺_'
'广为_'
'年青人_'
'常态_'
'常在_'
'师兄_'
'布达佩斯_'
'布拉'
'市盈率_'
'巴克利_'
'小房间_'
'封建_'
'宰'
'定时炸弹_'
'安好_'
'孕'
'妖'
'如是说_'
'太短_'
'太冷_'
'天神_'
'大提琴_'
'大姐_'
'大不列颠_'
'塞特_'
'埃斯_'
'坎普_'
'地下'
'图斯_'
'喝多_'
'吉普赛人_'
'右手边_'
'只手_'
'句号_'
'受贿_'
'卸_'
'卒_'
'十五分钟_'
'区域性_'
'勿_'
'加载_'
'出不去_'
'凑巧_'
'冲到_'
'内侧_'
'养分_'
'克莱恩_'
'倒车_'
'修斯_'
'侯赛因_'
'侧写_'
'作好_'
'伪_'
'传奇人物_'
'从头_'
'人称_'
'人到_'
'事前_'
'之谜_'
'中式_'
'丢进_'
'专业知识_'
'丑恶_'
'下决心_'
'上海市_'
'上前_'
'上会_'
'三级_'
'三下_'
'一整套_'
'一厢情愿_'
'sp'
'Ra'
'1973_'
'1969_'
'鼻涕_'
'鸿'
'高斯_'
'高年级_'
'驳斥_'
'馆长_'
'饰品_'
'预留_'
'音乐厅_'
'静静_'
'静电_'
'静态_'
'隐居_'
'阿瑟_'
'问个_'
'长大成人_'
'铁匠_'
'钓到_'
'途_'
'逃过_'
'退税_'
'迟疑_'
'这太'
'返_'
'达米安_'
'辣'
'车来_'
'跳蚤_'
'赤道_'
'贝尔斯_'
'裂痕_'
'蠢驴_'
'蜿蜒_'
'虚荣_'
'航天器_'
'自毁_'
'老老实实_'
'老伙计_'
'美方_'
'网民_'
'继而_'
'绝好_'
'等离子体_'
'第二种_'
'笨手笨脚_'
'科隆_'
'砖头_'
'真好_'
'相差_'
'盛开_'
'皮鞋_'
'皮埃尔_'
'皮包_'
'痛心_'
'用功_'
'琼'
'珍视_'
'狄更斯_'
'特使_'
'煮'
'点名_'
'滔滔不绝_'
'渊源_'
'海员_'
'浴衣_'
'泰瑞_'
'法典_'
'水银_'
'气馁_'
'比得上_'
'止痛_'
'档次_'
'桑托斯_'
'某样_'
'杰拉尔_'
'杰基_'
'最佳人选_'
'晃动_'
'无政府主义_'
'旗子_'
'撑住_'
'描绘成_'
'掩体_'
'控股公司_'
'授课_'
'捕杀_'
'拉长_'
'拉拉队_'
'拉伸_'
'拉丁文_'
'抽空_'
'报业_'
'抢劫犯_'
'抓住机会_'
'承包_'
'扭动_'
'扩充_'
'才智_'
'手术刀_'
'所想_'
'截获_'
'战事_'
'慧'
'恰到好处_'
'恩典_'
'强烈建议_'
'开着车_'
'开朗_'
'廷'
'底细_'
'干涸_'
'布隆_'
'尼古丁_'
'小黑_'
'小杂种_'
'小幅_'
'小国_'
'射出_'
'寓所_'
'容貌_'
'宠爱_'
'宜家_'
'学了_'
'孝'
'字样_'
'娜塔莉_'
'奋'
'大摇大摆_'
'大名_'
'多位_'
'在校_'
'图拉_'
'围裙_'
'囤积_'
'嘈杂_'
'善待_'
'啰嗦_'
'合群_'
'受罚_'
'受命_'
'反响_'
'参观者_'
'原版_'
'卷发_'
'卡托_'
'单干_'
'十字军_'
'区间_'
'加冕_'
'别逗_'
'别忘记_'
'别克_'
'利士_'
'凝固_'
'冷酷无情_'
'况_'
'公共卫生_'
'傅'
'偷渡_'
'偷拍_'
'停战_'
'体征_'
'众生_'
'以供_'
'从那之后_'
'今儿_'
'人寿保险_'
'买房_'
'书记_'
'书法_'
'乔伊'
'之苦_'
'主旨_'
'为食_'
'中奖_'
'两位数_'
'与日俱增_'
'不象_'
'不解_'
'不放过_'
'一堂_'
'nd'
'na'
'land_'
'ko'
'far'
'ep'
'di_'
'ch'
'SPA_'
'Re'
'Bo'
'1978_'
'01_'
' '_'
'麦加_'
'魔杖_'
'驱逐出境_'
'马洛_'
'香槟酒_'
'食物中毒_'
'风中_'
'领队_'
'顺眼_'
'鞘_'
'面上_'
'霍夫_'
'雷斯_'
'降下来_'
'附着_'
'阿拉巴马_'
'闪过_'
'长颈鹿_'
'钝器_'
'针对性_'
'金砖_'
'郎'
'邮差_'
'迫切需要_'
'连衣裙_'
'这番话_'
'迈向_'
'过山车_'
'身分_'
'跳楼_'
'足球赛_'
'诱拐_'
'订婚戒指_'
'解剖学_'
'表层_'
'行刑_'
'蝶_'
'蒙受_'
'苯_'
'芭比_'
'芭'
'舵_'
'舒缓_'
'致以_'
'联网_'
'联军_'
'羞'
'羁押_'
'绿洲_'
'答对_'
'第三季_'
'笑柄_'
'突起_'
'空客_'
'科拉_'
'矗立_'
'相一致_'
'电工_'
'生态'
'玉米片_'
'牠_'
'爱玛_'
'热辣_'
'烘焙_'
'灰姑娘_'
'添加剂_'
'混杂_'
'海洋生物_'
'浴盆_'
'泰山_'
'波拉_'
'法拉_'
'泄气_'
'油箱_'
'没用过_'
'汉字_'
'毛皮_'
'每逢_'
'此生_'
'欣喜_'
'次要_'
'栽'
'核试验_'
'时时_'
'日间_'
'日至_'
'无望_'
'斤_'
'数百_'
'插进去_'
'提斯_'
'排查_'
'排挤_'
'掉落_'
'授'
'挥之不去_'
'挡路_'
'报警器_'
'抓起_'
'打车_'
'打手_'
'我离_'
'我前_'
'成型_'
'意志力_'
'惊艳_'
'彼_'
'式'
'异能_'
'度日_'
'年轻一代_'
'常春藤_'
'巴雷特_'
'巨无霸_'
'工艺品_'
'屁事_'
'尾声_'
'小熊_'
'小流氓_'
'对人_'
'密集型_'
'密尔沃基_'
'宿命_'
'家禽_'
'宛如_'
'安插_'
'守护神_'
'字面_'
'媳妇_'
'好运气_'
'好痛_'
'好好学习_'
'奥尔_'
'太好_'
'大碍_'
'基佬_'
'坦然_'
'在历史上_'
'回路_'
'四国_'
'咒骂_'
'和蔼_'
'呼气_'
'吓倒_'
'后要_'
'各不相同_'
'受精_'
'双面_'
'压榨_'
'印度政府_'
'午餐时间_'
'劳力_'
'利昂_'
'初学者_'
'分组_'
'凯恩斯_'
'减低_'
'凌乱_'
'冲浪板_'
'内政_'
'兔崽子_'
'俱'
'伯恩斯_'
'会飞_'
'仔'
'仅凭_'
'事务'
'书架_'
'为准_'
'丰收_'
'两地_'
'两到_'
'不称职_'
'不敢肯定_'
'不值钱_'
'下挫_'
'ne'
'j'
'is'
'ie'
'hiv_'
'Ha'
'35'
'1974_'
'-_'
' ;   _'
' ) '
' '   '   _'
'高频_'
'领头_'
'顶替_'
'需求量_'
'难以相信_'
'阻_'
'防空_'
'闪影_'
'钻头_'
'金融'
'重构_'
'通缉犯_'
'這'
'选举权_'
'迟迟_'
'这活_'
'这批_'
'辩'
'踏进_'
'踏_'
'跑步机_'
'跌落_'
'足球场_'
'赶过去_'
'资料库_'
'贵方_'
'购置_'
'财经_'
'贝尔'
'语义_'
'评为_'
'讲师_'
'讨论会_'
'装束_'
'蛾_'
'蛛丝马迹_'
'菲利普斯_'
'菜谱_'
'莱文_'
'莫利_'
'莫伊_'
'药效_'
'荒_'
'茜'
'若有_'
'花光_'
'脚步声_'
'胀_'
'肠胃_'
'肚'
'缇_'
'续_'
'绞刑_'
'练练_'
'纳特_'
'纤'
'精神分裂_'
'管事_'
'算账_'
'筹到_'
'突显出_'
'突发事件_'
'稀缺_'
'积极'
'科技'
'私自_'
'破车_'
'石油价格_'
'着实_'
'相册_'
'病原体_'
'疱疹_'
'电视'
'电荷_'
'用得上_'
'生物体_'
'班长_'
'犯罪分子_'
'牢记_'
'熟睡_'
'热带雨林_'
'点水_'
'澳_'
'潜逃_'
'渡船_'
'深奥_'
'流淌_'
'泥浆_'
'波兰人_'
'池子_'
'比舍_'
'正点_'
'歌舞_'
'椭圆形_'
'梳子_'
'梦魇_'
'梦游_'
'桥下_'
'李明博_'
'杂志社_'
'本职工作_'
'本届_'
'服从命令_'
'有失_'
'曲目_'
'时任_'
'无神论者_'
'无所不知_'
'无懈可击_'
'无序_'
'无妨_'
'新鲜事_'
'斐_'
'数学'
'数千'
'救灾_'
'救星_'
'政局_'
'撑'
'搁浅_'
'捡起_'
'挚友_'
'拱门_'
'招数_'
'拍马屁_'
'打翻_'
'手机信号_'
'我必_'
'我同_'
'成功率_'
'感同身受_'
'惨淡_'
'总决赛_'
'急躁_'
'急忙_'
'弟子_'
'弗拉基米尔_'
'应力_'
'幸亏_'
'平安夜_'
'布林_'
'屁'
'小天使_'
'对不住_'
'宾夕法尼亚_'
'季后赛_'
'奥拉_'
'奥古斯都_'
'套套_'
'奋战_'
'大路_'
'多斯_'
'多克_'
'塑像_'
'城市'
'城内_'
'坏孩子_'
'坊_'
'嗜_'
'哪门子_'
'命题_'
'呕吐物_'
'听不清_'
'司令官_'
'古兰经_'
'发芽_'
'反垄断_'
'千万美元_'
'区区_'
'匹'
'加紧_'
'别针_'
'别致_'
'则'
'切入_'
'分工_'
'几块_'
'净值_'
'冲刺_'
'再加_'
'内线_'
'共生_'
'像不像_'
'信用证_'
'保拉_'
'低位_'
'优先权_'
'伊利诺斯州_'
'亮度_'
'主厨_'
'两艘_'
'不起眼_'
'不屑_'
'万辆_'
'一帆风顺_'
'一两次_'
'ts_'
'ny_'
'Se'
'Do'
'50'
'1983_'
' ． _'
' ， ！ _'
' - '
' , '
'鸿渐_'
'鸭'
'鲁本_'
'隐含_'
'陈年_'
'阿巴斯_'
'长子_'
'锁骨_'
'重聚_'
'邮递员_'
'遛狗_'
'逸'
'速战速决_'
'通奸_'
'追问_'
'迟点_'
'远大_'
'这鬼_'
'较少_'
'蹒跚_'
'路亚_'
'走狗_'
'赋'
'资质_'
'观望_'
'要强_'
'要个_'
'螺栓_'
'蕾'
'落得_'
'莫娜_'
'茫然_'
'自相矛盾_'
'脂'
'能别_'
'肽_'
'耐用_'
'耐性_'
'老哥_'
'罹患_'
'绿化_'
'维和_'
'结冰_'
'纲_'
'精神失常_'
'精疲力竭_'
'算不算_'
'第三条_'
'称得上_'
'福勒_'
'磨蹭_'
'看一遍_'
'眉_'
'甲骨文_'
'生平_'
'生产'
'珀尔_'
'煎蛋卷_'
'炖_'
'炎'
'炉'
'漫游_'
'浓厚_'
'流感病毒_'
'津'
'没落_'
'沙丁鱼_'
'毁'
'模具_'
'格温_'
'格拉斯_'
'某种原因_'
'本尼_'
'晋'
'显露_'
'明智之举_'
'明尼苏达_'
'日夜_'
'斐济_'
'攻打_'
'攀岩_'
'撬_'
'撒切尔_'
'撂倒_'
'搭理_'
'搞不清楚_'
'搓_'
'插座_'
'指尖_'
'持平_'
'拘禁_'
'担_'
'抽身_'
'抢先_'
'执意_'
'手边_'
'手提_'
'我气_'
'意料_'
'想个办法_'
'情势_'
'恨不得_'
'性取向_'
'往日_'
'弗尔_'
'开船_'
'建筑业_'
'建了_'
'庙宇_'
'平面图_'
'平价_'
'帅呆了_'
'市场竞争_'
'巴塞尔_'
'山东_'
'小白鼠_'
'射门_'
'射死_'
'富于_'
'密探_'
'宝剑_'
'安德'
'安吉尔_'
'奥黛丽_'
'奥普拉_'
'夺冠_'
'天皇_'
'大得_'
'增税_'
'坡道_'
'坠'
'在经济上_'
'品格_'
'命中_'
'吸纳_'
'吐露_'
'后遗症_'
'史蒂文斯_'
'台灯_'
'口角_'
'双性恋_'
'原子'
'压倒性_'
'历克斯_'
'厂家_'
'匪徒_'
'北京市_'
'北上_'
'劣质_'
'力克_'
'割礼_'
'副教授_'
'剖腹产_'
'前刚_'
'制动_'
'出格_'
'八年级_'
'克鲁格_'
'停工_'
'做菜_'
'修整_'
'佩吉_'
'伯父_'
'伯德_'
'伯克利_'
'伟哥_'
'会试_'
'任何一方_'
'他进_'
'人脑_'
'交了_'
'二元_'
'也'
'乞讨_'
'九月份_'
'乔什_'
'主动脉_'
'中要_'
'中华民族_'
'严苛_'
'严禁_'
'两眼_'
'东正教_'
'不玩_'
'不巧_'
'不如说_'
'不可收拾_'
'三百_'
'三份_'
'一万'
'ti'
'steve_'
'my'
'je'
'java_'
'ir'
'es'
'dvd_'
'cnn_'
'X光_'
'Pa'
'1950_'
'09_'
' ... 。_'
'鼎'
'鲜有_'
'鱼缸_'
'高薪_'
'高等_'
'首长_'
'领悟_'
'预后_'
'面团_'
'非裔_'
'雨季_'
'雀'
'隶属于_'
'障碍物_'
'隔开_'
'隐患_'
'随随便便_'
'降生_'
'防务_'
'门把手_'
'门将_'
'长途跋涉_'
'铁丝网_'
'重度_'
'酿_'
'邪教_'
'那真_'
'通通_'
'通货膨胀率_'
'通缩_'
'途'
'退款_'
'迪斯尼乐园_'
'迟缓_'
'轻柔_'
'软禁_'
'身在_'
'超乎_'
'资源管理_'
'购入_'
'贝塔_'
'贝克特_'
'象棋_'
'说会_'
'访'
'讣告_'
'西岸_'
'表示感谢_'
'街边_'
'行情_'
'血细胞_'
'蛆_'
'藻_'
'萧_'
'莫里森_'
'莫大_'
'芬恩_'
'舞女_'
'胜者_'
'联合'
'老年痴呆症_'
'美观_'
'美国大使馆_'
'统_'
'绘图_'
'糗_'
'粗野_'
'简便_'
'第一项_'
'竣工_'
'穿衣_'
'种植园_'
'种族主义者_'
'私人物品_'
'真可怜_'
'盯紧_'
'盛装_'
'白酒_'
'白葡萄酒_'
'白种人_'
'畜牲_'
'电视网_'
'田纳西_'
'生理学_'
'甘蔗_'
'现阶段_'
'狱'
'狂暴_'
'特人_'
'爬出来_'
'灼伤_'
'潜水艇_'
'溪流_'
'游离_'
'深情_'
'淋巴结_'
'浇'
'注意安全_'
'波西_'
'波旁_'
'沉迷_'
'氢气_'
'氢'
'民意测验_'
'歪曲_'
'此行_'
'橄榄球队_'
'椭圆_'
'植物'
'梯'
'格罗_'
'核桃_'
'树下_'
'柳_'
'柯克_'
'板上_'
'杆'
'杀伤性_'
'机油_'
'最低水平_'
'暗处_'
'时装秀_'
'时能_'
'旨_'
'无益_'
'新开_'
'斯维尔_'
'斯特林_'
'斯拉_'
'教学'
'敏娜_'
'攒_'
'撮合_'
'搞不清_'
'挨'
'报废_'
'技术创新_'
'执教_'
'我车_'
'成败_'
'懒散_'
'意外事故_'
'愈演愈烈_'
'想个_'
'恰巧_'
'怪癖_'
'必死无疑_'
'往右_'
'开灯_'
'开去_'
'店面_'
'庄家_'
'年会_'
'布里斯托_'
'布里克_'
'市场化_'
'差遣_'
'工业'
'山丘_'
'寻宝_'
'家庭教师_'
'客户端_'
'实用主义_'
'安慰剂_'
'宇宙飞船_'
'孕_'
'好车_'
'太老_'
'大牌_'
'大体_'
'唑_'
'哈啰_'
'哈佛商学院_'
'后排_'
'名望_'
'吉奥_'
'反转_'
'卷起_'
'卡瓦_'
'化学家_'
'劳尔_'
'割开_'
'副产品_'
'出生证明_'
'出其不意_'
'内情_'
'兴许_'
'共处_'
'先得_'
'债务人_'
'保险'
'保护者_'
'侵略性_'
'供货_'
'例行公事_'
'伙_'
'伊朗人_'
'仰望_'
'仨_'
'仙境_'
'他醒_'
'亿人_'
'亩_'
'乌尔_'
'举例_'
'临终_'
'世界大战_'
'不杀_'
'下过_'
'上装_'
'上主_'
'万亿_'
'一顿饭_'
'一惊_'
'一大块_'
'ta'
're'
'op'
'ls_'
'kim_'
'institute_'
'i'
'Microsoft_'
'Mac_'
'36'
'1900_'
' ？ ” ？_'
' # _'
'骨子里_'
'驱动器_'
'预告_'
'项目管理_'
'面料_'
'面包店_'
'面包圈_'
'零售店_'
'雨伞_'
'阿德里安_'
'阿尔巴尼亚_'
'阿尔卑斯山_'
'防晒霜_'
'闷死_'
'长话短说_'
'锐'
'针灸_'
'遮掩_'
'追击_'
'迪斯_'
'进行谈判_'
'这破_'
'过要_'
'达拉_'
'辨识_'
'车载_'
'身陷_'
'踢踏舞_'
'踢出去_'
'跟不上_'
'趋向_'
'越野车_'
'赢取_'
'赃物_'
'贫瘠_'
'账'
'谜题_'
'证人席_'
'警察局长_'
'规章制度_'
'衷心_'
'衬_'
'藻类_'
'蒙德_'
'茄子_'
'自夸_'
'能来_'
'胜负_'
'肚_'
'而入_'
'美甲_'
'罗盘_'
'罗森_'
'绝缘_'
'绕道_'
'结核病_'
'绑'
'纪念馆_'
'索尼娅_'
'篮球队_'
'管理工作_'
'第九'
'第三位_'
'第一代_'
'竞购_'
'空心_'
'移植手术_'
'离任_'
'祝您_'
'社论_'
'相较_'
'相吻合_'
'直白_'
'盐湖城_'
'白手起家_'
'痴'
'痰_'
'留学_'
'申请者_'
'珥_'
'猛增_'
'特效_'
'爆裂_'
'煮熟_'
'烦心事_'
'炒'
'火警_'
'演练_'
'滨海_'
'溜达_'
'深刻印象_'
'涂抹_'
'涂层_'
'海莉_'
'海格_'
'浙江_'
'流媒体_'
'泳_'
'法兰_'
'没上_'
'毒理_'
'死不了_'
'正当防卫_'
'梗_'
'格勒_'
'柠檬水_'
'枢纽_'
'朱诺_'
'最优_'
'曾祖父_'
'更重_'
'星团_'
'明朗_'
'无忧无虑_'
'无价_'
'斯堪的纳维亚_'
'敬仰_'
'摘掉_'
'掩'
'振奋人心_'
'拦下_'
'拉加_'
'技术性_'
'执法者_'
'愈来愈_'
'惠斯勒_'
'心脏病发_'
'心房_'
'征服者_'
'录影_'
'弹孔_'
'度过难关_'
'平分_'
'布兰德_'
'巴蒂_'
'巴罗_'
'巴巴_'
'崩'
'屈服于_'
'小酒馆_'
'小胡子_'
'封存_'
'家住_'
'宋_'
'守法_'
'威严_'
'大钱_'
'大时_'
'多诺万_'
'多嘴_'
'外太空_'
'复职_'
'垃圾袋_'
'坠_'
'地区性_'
'四方_'
'四射_'
'商务旅行_'
'哈迪_'
'后盾_'
'句'
'受试者_'
'发电站_'
'卷宗_'
'卫生保健_'
'卢森堡_'
'卖弄_'
'医疗机构_'
'剧团_'
'削_'
'凯丽_'
'减掉_'
'净利润_'
'冲走_'
'内政部_'
'关键性_'
'公爵夫人_'
'全麦_'
'入门_'
'偷钱_'
'健忘_'
'停用_'
'做广告_'
'侵略者_'
'侵占_'
'依次_'
'佩雷斯_'
'伴'
'伍兹_'
'伊莎贝拉_'
'仅仅只是_'
'亿美金_'
'人形_'
'二年_'
'书签_'
'乖孩子_'
'之快_'
'久远_'
'主干道_'
'中美洲_'
'与我无关_'
'不轻_'
'不断扩大_'
'不敬_'
'不太想_'
'上花_'
'万吨_'
'一环_'
'一季度_'
'一块钱_'
'so'
'sec_'
'rt'
'no'
'national_'
'mp'
'mac_'
'ip'
'f'
'cor'
'am_'
'Pi'
'FM_'
'1968_'
' 。 （ _'
' … '
' — — '
'黑尔_'
'马英九_'
'马格'
'飞速_'
'非暴力_'
'霍雷肖_'
'雄心壮志_'
'隐身_'
'队列_'
'门开_'
'长矛_'
'银幕_'
'重逢_'
'重来_'
'重新'
'那人'
'透支_'
'迪尔_'
'违法行为_'
'远去_'
'辞退_'
'轻信_'
'躁_'
'跋涉_'
'趁'
'走入_'
'赛尔_'
'资源'
'贸易协定_'
'贮藏_'
'贪心_'
'语境_'
'详细信息_'
'议定书_'
'西门_'
'表亲_'
'蚁_'
'虾'
'蕴含_'
'蒂诺_'
'萍_'
'萌芽_'
'莲花_'
'苏黎世_'
'艾登_'
'至死_'
'自给自足_'
'自救_'
'自力更生_'
'胞'
'肯塔基州_'
'肝炎_'
'而今_'
'罗德岛_'
'维斯特_'
'绞'
'纽卡斯尔_'
'糟'
'第三者_'
'窍门_'
'突_'
'称其为_'
'租房_'
'禁食_'
'神仙_'
'碱'
'瞎扯_'
'督促_'
'真实世界_'
'监督管理_'
'琐碎_'
'理工大学_'
'理发店_'
'片断_'
'爱我吗_'
'爱国主义_'
'燕_'
'燃料电池_'
'熔化_'
'液压_'
'活不了_'
'泉水_'
'没试_'
'没要_'
'水落石出_'
'水泡_'
'殡仪馆_'
'残渣_'
'棋子_'
'棋'
'杂耍_'
'最远_'
'曼迪_'
'曹操_'
'晚年_'
'昼夜_'
'时差_'
'日本首相_'
'新月_'
'教官_'
'政体_'
'操场_'
'搬回来_'
'掰_'
'接球_'
'掘_'
'排泄物_'
'换换_'
'拢_'
'扔'
'打进_'
'手写_'
'房利美_'
'我订_'
'我愿_'
'懊悔_'
'恐怖份子_'
'心肠_'
'很慢_'
'待过_'
'待人_'
'开放性_'
'建筑工地_'
'广义_'
'幸福感_'
'幸_'
'平均值_'
'居高不下_'
'居民区_'
'尽享_'
'封印_'
'对外开放_'
'密西西比州_'
'宽慰_'
'宣传'
'完备_'
'学术'
'威特_'
'威尔森_'
'委屈_'
'好办_'
'奥兹_'
'奢望_'
'奈杰尔_'
'奈德_'
'太差_'
'天赐_'
'夜生活_'
'士官_'
'墙面_'
'城乡_'
'垂涎_'
'地来_'
'在位_'
'回家路上_'
'四年级_'
'囊括_'
'喜来登_'
'喘气_'
'哥特_'
'咽喉_'
'咄咄逼人_'
'吼叫_'
'吸干_'
'名列_'
'反对票_'
'厌_'
'卢卡_'
'升华_'
'募股_'
'动心_'
'劣'
'加速器_'
'加勒特_'
'加勒比_'
'剩'
'制剂_'
'出新_'
'凑合_'
'减退_'
'决断_'
'养狗_'
'共犯_'
'共同努力_'
'公子_'
'克鲁兹_'
'光天化日_'
'先令_'
'充分发挥_'
'偷吃_'
'做件_'
'保护措施_'
'保尔森_'
'作个_'
'何等_'
'传统'
'仿'
'仙人掌_'
'从容_'
'产后_'
'买车_'
'举着_'
'中伤_'
'东海_'
'世故_'
'与会者_'
'不远处_'
'不成'
'不尽_'
'不大好_'
'下船_'
'上锁_'
'三角'
'三到_'
'一见_'
'www_'
'spa_'
'research_'
'office_'
'School_'
'IT_'
'Co'
'42'
'1972_'
' ： 「 _'
' ： '
' :   _'
'   ，_'
'麻雀_'
'鸽_'
'鱼子酱_'
'高职_'
'骨盆_'
'骂人_'
'驾驶舱_'
'马鞍_'
'马术_'
'食肉动物_'
'预科_'
'非盈利_'
'青铜_'
'雨果_'
'隐形眼镜_'
'陈水扁_'
'陆_'
'阿尔弗雷_'
'阿奇_'
'阁_'
'问个问题_'
'镶'
'锡安_'
'锁链_'
'钟表_'
'那具_'
'通勤_'
'迪亚_'
'过重_'
'输赢_'
'载人_'
'轻型_'
'转给_'
'转发_'
'踏入_'
'越高_'
'起重机_'
'走高_'
'走火_'
'负担得起_'
'调低_'
'诸_'
'解放出来_'
'要价_'
'表白_'
'蓬_'
'英雄'
'花些_'
'航天局_'
'自相残杀_'
'自控_'
'自动售货机_'
'脱脂_'
'脑膜炎_'
'耗资_'
'耕'
'翻转_'
'翅_'
'置身事外_'
'缠'
'缆车_'
'绑架者_'
'细胞'
'第四季度_'
'笔下_'
'空荡荡_'
'积极参与_'
'票子_'
'碎石_'
'矿石_'
'矿泉水_'
'省得_'
'盐酸_'
'白种_'
'用户界面_'
'甜言蜜语_'
'理论家_'
'理疗_'
'现货_'
'独居_'
'狠'
'片场_'
'爱荷华_'
'熬过去_'
'焦糖_'
'烟灰缸_'
'烘烤_'
'炼狱_'
'澳'
'滞留_'
'溶_'
'渡'
'涡轮机_'
'海明威_'
'海南_'
'流过_'
'流派_'
'活口_'
'洪都拉斯_'
'洗清_'
'沿途_'
'汉纳_'
'检察院_'
'校区_'
'本年度_'
'朗读_'
'服务提供商_'
'朋_'
'曾一度_'
'更坏_'
'晴朗_'
'时所_'
'旗'
'施以_'
'新房子_'
'数百万美元_'
'改掉_'
'收拾残局_'
'撕掉_'
'摩纳哥_'
'摇摆不定_'
'携'
'搬出_'
'握'
'插嘴_'
'提取物_'
'控制台_'
'挥动_'
'挣到_'
'挑战者_'
'按键_'
'拍下_'
'扬基_'
'托儿所_'
'打量_'
'扁'
'战车_'
'战神_'
'想尽办法_'
'惋惜_'
'息息相关_'
'恤_'
'态'
'心理咨询_'
'很丑_'
'录下_'
'弄醒_'
'弄糟_'
'开膛手_'
'市议会_'
'工作站_'
'射入_'
'寿'
'寡头_'
'安妮塔_'
'孤注一掷_'
'存入_'
'威斯康辛_'
'好了没_'
'奥斯本_'
'奉献给_'
'太烂_'
'大牢_'
'基恩_'
'城门_'
'埋藏_'
'坦率地_'
'圣父_'
'国际性_'
'国有银行_'
'园'
'唯独_'
'哎哟_'
'咋办_'
'呼吸道_'
'君子_'
'厂房_'
'卡迪_'
'卡西迪_'
'医务人员_'
'加利_'
'办完_'
'力求_'
'初始化_'
'刚过_'
'列队_'
'划过_'
'刀刃_'
'出走_'
'出访_'
'其为_'
'全人类_'
'入围_'
'充血_'
'傻乎乎_'
'傲'
'偿_'
'修辞_'
'信守_'
'供水_'
'传过来_'
'以西_'
'以东_'
'什麼_'
'人口'
'亲眼所见_'
'五月份_'
'于本周_'
'买下来_'
'乘船_'
'之母_'
'举债_'
'为什_'
'专卖店_'
'不能自己_'
'下意识_'
'三文鱼_'
'三场_'
'万斯_'
'一揽子_'
'一家子_'
'一地_'
'一事无成_'
'ro_'
'ri_'
'ns'
'ia'
'ger_'
'gar'
'g'
'er'
'dar'
'ben_'
'be'
'Business_'
'26'
'1949_'
'1800_'
'黑进_'
'麻疹_'
'高考_'
'验收_'
'马其顿_'
'香气_'
'首字母_'
'风投_'
'颠'
'颂歌_'
'雌_'
'集群_'
'难办_'
'院里_'
'防护罩_'
'银行存款_'
'重头_'
'里亚_'
'邻居家_'
'逼供_'
'造船_'
'通货紧缩_'
'透镜_'
'透透气_'
'逃掉_'
'适时_'
'这关_'
'还用_'
'返还_'
'辫子_'
'辛克莱_'
'输液_'
'较长_'
'身体状况_'
'足足_'
'超棒_'
'赌局_'
'败坏_'
'贝克汉姆_'
'讲清楚_'
'警戒线_'
'觉察到_'
'见效_'
'血液循环_'
'蜡'
'蛙_'
'薛'
'葫芦_'
'萨利_'
'节制_'
'艾萨克_'
'艾瑞克_'
'脑瘤_'
'胫骨_'
'耍花样_'
'羊水_'
'终日_'
'纵向_'
'约合_'
'素季_'
'筑_'
'第二位_'
'第七'
'笨重_'
'站不住脚_'
'空旷_'
'科学院_'
'禅'
'示威游行_'
'碟子_'
'砷_'
'睡梦中_'
'眼罩_'
'直拨_'
'监_'
'病院_'
'留恋_'
'申明_'
'生态学_'
'生出_'
'现如今_'
'玩伴_'
'独木舟_'
'灰心_'
'潜质_'
'滕'
'渔'
'清洁剂_'
'淋巴_'
'海狸_'
'洪灾_'
'泳装_'
'波罗的海_'
'波尔多_'
'法力_'
'沿线_'
'没骗_'
'没读_'
'沃顿_'
'概'
'椰'
'格雷戈里_'
'核武_'
'标普_'
'极端主义_'
'极强_'
'极品_'
'杂物_'
'机身_'
'有效期_'
'有变_'
'昵称_'
'映射_'
'时间段_'
'日本公司_'
'无稽之谈_'
'整日_'
'敲击_'
'数千年_'
'教程_'
'救济金_'
'攀爬_'
'撕'
'摧残_'
'摆设_'
'搏击_'
'接个_'
'授_'
'捕食者_'
'振_'
'持械_'
'拦'
'拉曼_'
'投资'
'打瞌睡_'
'打嗝_'
'手头上_'
'我画_'
'憔悴_'
'情报部门_'
'必定会_'
'循规蹈矩_'
'得通_'
'征兵_'
'弗格森_'
'弗兰_'
'引到_'
'弄乱_'
'废止_'
'应聘_'
'应是_'
'干净利落_'
'帆布_'
'布莱顿_'
'市郊_'
'岳母_'
'岁'
'山脊_'
'山景_'
'山寨_'
'尼加拉瓜_'
'尖刻_'
'对岸_'
'密西西比河_'
'密苏里州_'
'实验'
'婴_'
'姓'
'妖精_'
'好球_'
'大熊猫_'
'外商投资_'
'外交关系_'
'城邦_'
'坚持到底_'
'坎大哈_'
'国家级_'
'四楼_'
'喵_'
'哈姆雷特_'
'和玛丽_'
'吸毒者_'
'吵'
'向日葵_'
'后人_'
'名额_'
'可达_'
'古拉_'
'变大_'
'受益者_'
'发表意见_'
'叉'
'厄尼_'
'印制_'
'卡特里娜_'
'南方人_'
'千块_'
'北美洲_'
'助教_'
'动画片_'
'剧中_'
'利亚姆_'
'分界线_'
'分崩离析_'
'击退_'
'凹'
'凶狠_'
'凯茜_'
'冰柜_'
'冬眠_'
'冤枉_'
'再待_'
'克鲁'
'光合作用_'
'兆'
'信号灯_'
'便秘_'
'你方_'
'何事_'
'伦纳德_'
'休战_'
'令人难忘_'
'人品_'
'人像_'
'产地_'
'互相帮助_'
'互_'
'买杯_'
'之用_'
'两万_'
'业已_'
'与非_'
'不良贷款_'
'不失_'
'一臂之力_'
'∮ _'
've'
'sto'
'itunes_'
'ii_'
'fi_'
'ell_'
'bra'
'bo'
'Z'
'CT_'
'CTU_'
'46'
'270_'
' ， 。_'
' ， ‘ _'
' 。 。 _'
' 。 ? _'
' … ！_'
' “ '
'龟'
'黑道_'
'骄'
'马尼拉_'
'顺道_'
'鞭打_'
'集团公司_'
'随你便_'
'销售'
'铃铛_'
'金价_'
'酿造_'
'邓恩_'
'遂_'
'逝_'
'透顶_'
'适得其反_'
'违抗_'
'远高于_'
'近似_'
'辽阔_'
'车内_'
'超额_'
'赠'
'贯'
'账本_'
'谈完_'
'调试_'
'诺贝尔_'
'讲过_'
'计入_'
'警钟_'
'詹金斯_'
'花言巧语_'
'芮'
'芝'
'船坞_'
'般配_'
'舞曲_'
'舞弊_'
'自我意识_'
'腹腔镜_'
'胜诉_'
'肉毒_'
'而活_'
'老挝_'
'罗南_'
'缺损_'
'绳'
'绘'
'经文_'
'累赘_'
'笼'
'科维奇_'
'礼品店_'
'示例_'
'矿山_'
'真酷_'
'省级_'
'直立_'
'皈依_'
'百货公司_'
'疗养_'
'畜'
'画布_'
'电磁'
'田里_'
'瓷'
'瑟瑞娜_'
'球衣_'
'狱友_'
'特警队_'
'照常_'
'炼油厂_'
'潜_'
'演播室_'
'渡_'
'消息人士_'
'海中_'
'流行病_'
'活体_'
'毫不'
'模棱两可_'
'梅甘_'
'桨_'
'桑顿_'
'桑拿_'
'校准_'
'树皮_'
'标价_'
'构成威胁_'
'来龙去脉_'
'木制_'
'朝鲜半岛_'
'有违_'
'暗恋_'
'晚些_'
'既然如此_'
'无理_'
'方形_'
'新墨西哥_'
'文雅_'
'敷衍_'
'整形外科_'
'救回来_'
'改头换面_'
'摔'
'搞好_'
'搅'
'挪用_'
'抛锚_'
'投资商_'
'才干_'
'手足_'
'所犯_'
'战死_'
'我往_'
'我军_'
'我信_'
'慎重_'
'感叹_'
'惊叹_'
'惊动_'
'悔改_'
'悍_'
'怪诞_'
'怂恿_'
'怀亚特_'
'忒_'
'微微_'
'很脏_'
'很忙_'
'彬彬有礼_'
'强者_'
'张脸_'
'庞德_'
'应用软件_'
'幸运儿_'
'年时_'
'帅'
'巴斯克_'
'小老鼠_'
'小甜甜_'
'小玩意_'
'小八_'
'家族企业_'
'实业_'
'宝贝女儿_'
'姥姥_'
'委派_'
'姐'
'失恋_'
'大程度_'
'够呛_'
'外地_'
'复查_'
'壮举_'
'坤_'
'坚挺_'
'地壳_'
'图中_'
'因果关系_'
'因果_'
'回响_'
'囚徒_'
'嘭_'
'喊'
'品酒_'
'和平'
'名副其实_'
'同父异母_'
'吃完饭_'
'右派_'
'可憎_'
'口罩_'
'口感_'
'发问_'
'发明家_'
'厄瓜多尔_'
'卡特尔_'
'单挑_'
'半路_'
'十亿_'
'劳斯莱斯_'
'别老_'
'别往_'
'分配'
'分析员_'
'刀具_'
'刀伤_'
'凯里_'
'减刑_'
'准备金_'
'军装_'
'关键字_'
'兰登_'
'公用_'
'僵_'
'候补_'
'保护性_'
'俄克拉荷马_'
'供货商_'
'佩内洛普_'
'你试_'
'体能_'
'伽_'
'伤透_'
'传话_'
'休斯敦_'
'代孕_'
'他花_'
'从此以后_'
'人间蒸发_'
'人身攻击_'
'人口普查_'
'交错_'
'五位_'
'二百'
'习以为常_'
'乐高_'
'主治医生_'
'临死前_'
'中国移动_'
'专用'
'专攻_'
'不间断_'
'不胜_'
'不省人事_'
'不帮_'
'不如说是_'
'不同之处_'
'不可开交_'
'下会_'
'上马_'
'一马_'
'一岁_'
'一堵_'
'ye'
'web'
'ts'
'ot_'
'or'
'ld'
'h'
'ga'
'do_'
'd'
'ca_'
'by_'
'bu'
'ban'
'ba'
'ak'
'007_'
'% （ _'
'% '
' ) , _'
'龙头_'
'鸿沟_'
'高峰期_'
'高傲_'
'高三_'
'骡子_'
'驱赶_'
'马利亚_'
'饱'
'鞋印_'
'青霉素_'
'霍奇斯_'
'雪上加霜_'
'集中'
'隔阂_'
'随身携带_'
'阿迪_'
'阉割_'
'门边_'
'锁好_'
'钉死_'
'针刺_'
'里克斯_'
'酥_'
'那能_'
'遇袭_'
'逢_'
'追悼会_'
'迪斯科_'
'这船_'
'过境_'
'辛辛那提_'
'轻蔑_'
'车顶_'
'蹄_'
'路灯_'
'跌至_'
'越共_'
'走失_'
'赢利_'
'责难_'
'财年_'
'调制_'
'说定了_'
'评选_'
'证监会_'
'解码_'
'裁减_'
'融_'
'蒙克_'
'荒诞_'
'茱'
'苏维埃_'
'芬芳_'
'船队_'
'舍弃_'
'自然科学_'
'联姻_'
'耿耿于怀_'
'耕作_'
'老古董_'
'翻滚_'
'纱布_'
'红地毯_'
'紧闭_'
'糟糕透顶_'
'米尔顿_'
'第二年_'
'窜_'
'空难_'
'社会关系_'
'社交活动_'
'礁_'
'硫'
'真谛_'
'真行_'
'真挚_'
'直辖市_'
'盎格鲁_'
'皮夹_'
'皮卡_'
'百思买_'
'疯疯癫癫_'
'疯女人_'
'略有_'
'环游世界_'
'玛莉_'
'玛姬_'
'煮饭_'
'焰火_'
'烧坏_'
'炼_'
'灯笼_'
'火山灰_'
'火山口_'
'激_'
'深水_'
'涌向_'
'消防队员_'
'波莉_'
'没去_'
'汇票_'
'求爱_'
'气压_'
'每况愈下_'
'母乳喂养_'
'段'
'死法_'
'歐_'
'棒球队_'
'构_'
'极地_'
'机组人员_'
'有话直说_'
'暗示着_'
'暗地里_'
'晚一点_'
'星舰_'
'旱'
'日托_'
'无偿_'
'无事_'
'旅游胜地_'
'新教徒_'
'数百年_'
'数千名_'
'敬礼_'
'散发出_'
'收支_'
'挺酷_'
'拜伦_'
'拘束_'
'拉脱维亚_'
'担负_'
'抽签_'
'抛光_'
'抗病毒_'
'承_'
'打错_'
'手机号_'
'所持_'
'战前_'
'我受_'
'我加_'
'惊异_'
'恐怖片_'
'性伴侣_'
'思嘉_'
'快车_'
'心急_'
'异国_'
'开门见山_'
'开曼群岛_'
'广西_'
'广播电台_'
'平滑_'
'帐'
'布洛'
'岛国_'
'尼禄_'
'小人物_'
'家当_'
'安德鲁斯_'
'安全部门_'
'学来_'
'如此一来_'
'奴隶制_'
'奇观_'
'头条新闻_'
'太对_'
'大脚_'
'大头_'
'大块_'
'多语种_'
'多花_'
'多着呢_'
'增高_'
'塔尼_'
'基座_'
'埃里森_'
'坏账_'
'回首_'
'喜乐_'
'啪_'
'商量一下_'
'哭声_'
'哈维尔_'
'和睦_'
'呕_'
'吸管_'
'吐口_'
'同感_'
'受限制_'
'取缔_'
'取得联系_'
'发笑_'
'历史博物馆_'
'半个世纪_'
'十多年_'
'北段_'
'勾结_'
'劳动合同_'
'劳作_'
'劈'
'剥皮_'
'刻苦_'
'别耍_'
'别站_'
'函'
'兴旺_'
'公用电话_'
'公公_'
'免遭_'
'充满希望_'
'充沛_'
'催促_'
'修行_'
'信息'
'侠影_'
'你活_'
'佐德_'
'位列_'
'但据_'
'传出去_'
'会出_'
'产于_'
'亚太地区_'
'五年级_'
'二月份_'
'乱说话_'
'丧_'
'两性_'
'不速之客_'
'不熟_'
'下行_'
'上能_'
'一窍不通_'
'一并_'
'一两天_'
'ver'
'un_'
'school_'
'rs'
'ms'
'ki_'
'he'
'global_'
'ga_'
'der'
'ay_'
'Ka'
'Ja'
'In'
'AM_'
' - - -_'
'黑钱_'
'鲍里斯_'
'高低_'
'马里兰_'
'马文_'
'餐巾_'
'飞艇_'
'顽皮_'
'靶_'
'面朝_'
'非传统_'
'霞_'
'雄伟_'
'阵列_'
'阴险_'
'镜像_'
'锂_'
'链条_'
'银器_'
'钳子_'
'钛_'
'金融监管_'
'采取任何_'
'酒窖_'
'配得_'
'那面_'
'遥'
'遗书_'
'通缉令_'
'逍遥_'
'迦_'
'连接起来_'
'进取_'
'这杯_'
'这得_'
'还手_'
'身躯_'
'踏板_'
'跻身_'
'越来越近_'
'超载_'
'超前_'
'赶路_'
'赫尔曼_'
'赚'
'质地_'
'败类_'
'财务'
'负有责任_'
'贞_'
'调味_'
'诺兰_'
'请勿_'
'话剧_'
'证券公司_'
'讲课_'
'解说_'
'解救出来_'
'要挟_'
'西娅_'
'表姐_'
'行动计划_'
'血症_'
'蜂巢_'
'蒸馏_'
'萃取_'
'菲茨_'
'菲斯_'
'莲娜_'
'莫里_'
'茶党_'
'苷_'
'苦涩_'
'苏珊娜_'
'花哨_'
'艾滋病毒_'
'自主权_'
'腾讯_'
'腊'
'脾脏_'
'胸骨_'
'育儿_'
'翻开_'
'编个_'
'绕开_'
'经手_'
'紧凑_'
'素食主义者_'
'精神病人_'
'类比_'
'算计_'
'第四条_'
'笔直_'
'竞拍_'
'窟_'
'空壳_'
'稻草_'
'秤_'
'私藏_'
'真命天子_'
'相关联_'
'盖尤斯_'
'疯人院_'
'留存_'
'电讯_'
'电脑游戏_'
'甲方_'
'用法_'
'甘心_'
'瓶装水_'
'瓶'
'玩个_'
'特别之处_'
'热食_'
'烫伤_'
'点评_'
'火炮_'
'火山爆发_'
'潜水员_'
'滚滚_'
'清爽_'
'淤青_'
'消减_'
'流口水_'
'洛佩兹_'
'注射液_'
'法术_'
'沥青_'
'没人要_'
'气来_'
'段落_'
'死翘翘_'
'歇'
'横穿_'
'柔毛_'
'果园_'
'李先生_'
'机舱_'
'朋'
'有水_'
'有加_'
'曹_'
'暴怒_'
'景区_'
'晕头转向_'
'晕'
'晃悠_'
'时见_'
'无边_'
'无罪释放_'
'无处可去_'
'无味_'
'斯堡_'
'斩'
'教唆_'
'播放机_'
'掺杂_'
'掉'
'挨打_'
'挂念_'
'拭目以待_'
'拓宽_'
'拒之门外_'
'押'
'护理人员_'
'所行_'
'戒毒所_'
'我藏_'
'我到_'
'成全_'
'意式_'
'悦'
'快上车_'
'必拓_'
'心甘情愿_'
'德勒_'
'得奖_'
'归档_'
'强生_'
'弹琴_'
'引以为豪_'
'开球_'
'开发人员_'
'廉'
'度量_'
'底座_'
'库尔德人_'
'庆贺_'
'平方英里_'
'常年_'
'布里格斯_'
'市内_'
'崇敬_'
'屠'
'小看_'
'小意思_'
'小品_'
'导航系统_'
'客栈_'
'学生'
'学年_'
'婆娘_'
'姬'
'妥'
'妇产科_'
'奏'
'奇幻_'
'太多人_'
'多糖_'
'多用_'
'外籍_'
'外国投资_'
'复印机_'
'声名狼藉_'
'坝_'
'坚_'
'坐过_'
'国产_'
'因果报应_'
'回扣_'
'哑_'
'咩_'
'可敬_'
'叮_'
'只差_'
'口语_'
'发展观_'
'友人_'
'卷心菜_'
'博文_'
'卖场_'
'十几个_'
'十二岁_'
'十万_'
'剥'
'刻画_'
'别谈_'
'划算_'
'分级_'
'分到_'
'几场_'
'冻僵_'
'冰茶_'
'再查_'
'具体情况_'
'兵团_'
'共同体_'
'兰利_'
'兮兮_'
'公司'
'全息_'
'入场_'
'免疫力_'
'俩个_'
'保持稳定_'
'保护'
'佩特_'
'何以_'
'体质_'
'传道_'
'会输_'
'休眠_'
'企业'
'他别_'
'人里_'
'人工'
'交响乐_'
'五种_'
'五条_'
'为时过早_'
'中队_'
'中枢_'
'中层_'
'中国银行_'
'中以_'
'两套_'
'丝带_'
'不得而知_'
'不差_'
'三项_'
'wood_'
'van_'
'un'
'ron_'
'on'
'no_'
'management_'
'king_'
'ju'
'jo'
'in'
'dis'
'dan'
'b'
'Sa'
'Po'
'Mo'
'Lo'
'Le'
'1976_'
'1600_'
' ， - _'
' × _'
' = _'
'黑匣子_'
'高楼_'
'高企_'
'饿坏_'
'食者_'
'飞碟_'
'风波_'
'风水_'
'频频_'
'领到_'
'雪球_'
'集体'
'雀_'
'闲着_'
'闯进去_'
'锯齿_'
'金日成_'
'野猫_'
'重置_'
'避税_'
'逃之夭夭_'
'追到_'
'连累_'
'进退两难_'
'进场_'
'进发_'
'近年_'
'过点_'
'过失杀人_'
'轻声_'
'转折_'
'身家_'
'超负荷_'
'赛车手_'
'赛德_'
'赌城_'
'贴切_'
'购买者_'
'谈心_'
'谈些_'
'诈'
'设计'
'装潢_'
'蜘蛛网_'
'蓝牙_'
'萤火虫_'
'莫西_'
'莫特_'
'药水_'
'范式_'
'致辞_'
'自由党_'
'自律_'
'腹痛_'
'脑浆_'
'能动_'
'胚'
'背离_'
'肯塔基_'
'肉身_'
'老掉牙_'
'美利坚合众国_'
'络_'
'经合组织_'
'细则_'
'纱'
'繁多_'
'算个_'
'签收_'
'策'
'第三种_'
'竞价_'
'突破口_'
'空气质量_'
'穆尔_'
'稀罕_'
'租来_'
'种族灭绝_'
'福祉_'
'禁锢_'
'盖伊_'
'皆'
'百叶窗_'
'百个_'
'畜_'
'电费_'
'甜头_'
'班加西_'
'班克斯_'
'独_'
'狒狒_'
'狂人_'
'爬行_'
'烦心_'
'炸开_'
'滑落_'
'滋养_'
'湾'
'湖水_'
'清清楚楚_'
'深表遗憾_'
'深信不疑_'
'淋巴瘤_'
'润滑油_'
'海鸥_'
'沿海地区_'
'汉考克_'
'气得_'
'气囊_'
'民粹主义_'
'母亲节_'
'欢愉_'
'棋盘_'
'档子_'
'格莱'
'格洛_'
'根部_'
'查不到_'
'极佳_'
'杉_'
'本周一_'
'有条理_'
'有张_'
'最烂_'
'晾_'
'昭'
'时装周_'
'早到_'
'旧式_'
'无止境_'
'揭'
'掺_'
'拍打_'
'披风_'
'抗原_'
'投注_'
'扯进来_'
'扯掉_'
'手放_'
'战败_'
'我留_'
'成不了_'
'懒'
'愤慨_'
'感受一下_'
'悦_'
'总裁兼_'
'总司令_'
'快好了_'
'必备_'
'弥漫着_'
'开进_'
'废弃物_'
'床头_'
'并存_'
'并发_'
'布莱特_'
'巡洋舰_'
'屋外_'
'居住区_'
'尔克_'
'少将_'
'将领_'
'寓意_'
'安德里_'
'学士_'
'婚戒_'
'妮斯_'
'好长时间_'
'好的开始_'
'好时光_'
'好客_'
'奥托_'
'头寸_'
'天父_'
'大阪_'
'多有_'
'多拉_'
'多层_'
'基本原理_'
'城中_'
'地要_'
'在建_'
'圣巴巴拉_'
'圣安东尼奥_'
'固定资产_'
'嚷_'
'噗_'
'喷洒_'
'咖啡杯_'
'呵护_'
'吸烟者_'
'听命于_'
'后脑勺_'
'同名_'
'合法权益_'
'吃不下_'
'可取_'
'双语_'
'卸'
'卡洛琳_'
'华尔兹_'
'千万'
'十五'
'勾起_'
'勤劳_'
'加工厂_'
'加到_'
'前一晚_'
'剁_'
'利马_'
'利斯_'
'创世_'
'分钱_'
'出车祸_'
'出类拔萃_'
'几千'
'农舍_'
'军阀_'
'写诗_'
'写入_'
'养老院_'
'兵器_'
'兰姆_'
'公共政策_'
'八十'
'全镇_'
'全力支持_'
'先兆_'
'元帅_'
'偶遇_'
'停业_'
'做作_'
'保育_'
'便宜货_'
'何故_'
'伍迪_'
'他太'
'今年年底_'
'人太多_'
'亢奋_'
'亡灵_'
'五号_'
'互补_'
'乏_'
'主力_'
'为时已晚_'
'中所'
'中国人民银行_'
'两队_'
'丛_'
'世界贸易组织_'
'不进_'
'不平_'
'不大'
'三百万_'
'七号_'
'一枝_'
'way_'
'us'
'te'
'sn'
'rd_'
'om_'
'ji'
'ha_'
'gra'
'ge'
'fin'
'ee_'
'am'
'Ri'
'Ca'
'9000_'
'29'
'1977_'
'1971_'
'06_'
' 。 — —   _'
'   -     -   _'
'齐心协力_'
'鹤'
'鹅'
'鳕鱼_'
'鲍勃'
'魂'
'颤_'
'颈'
'音节_'
'靠你了_'
'霸主_'
'零花钱_'
'雄厚_'
'降息_'
'阿卜杜拉_'
'阿利_'
'长笛_'
'镖_'
'郁金香_'
'邮_'
'道教_'
'逃税_'
'逃到_'
'逃兵_'
'述'
'这盘_'
'这宗_'
'辞呈_'
'软化_'
'跟你走_'
'赫敏_'
'赤裸裸_'
'费舍尔_'
'贴纸_'
'购房者_'
'貌_'
'象征意义_'
'诺顿_'
'试演_'
'讲道理_'
'覆_'
'裸_'
'衍生物_'
'蝎子_'
'蛊惑_'
'虐待狂_'
'薪金_'
'蒲'
'蒜_'
'萨克拉门托_'
'菌株_'
'苦头_'
'苦力_'
'若想_'
'芝_'
'船运_'
'自学_'
'自信心_'
'自作聪明_'
'脾_'
'脱臼_'
'胞_'
'背道而驰_'
'背诵_'
'胃部_'
'聪慧_'
'职业'
'而出名_'
'翡翠_'
'羹_'
'网络安全_'
'缅怀_'
'绝境_'
'绑定_'
'经济繁荣_'
'终老_'
'组织'
'约克郡_'
'红宝石_'
'管理模式_'
'筹_'
'第五个_'
'端庄_'
'秘密武器_'
'科林斯_'
'私人侦探_'
'眷顾_'
'眠_'
'相对来说_'
'疣_'
'电波_'
'电力'
'生化武器_'
'球形_'
'王者_'
'玉米饼_'
'猛男_'
'独占_'
'特罗_'
'物料_'
'烧着_'
'烤炉_'
'炭'
'火球_'
'源代码_'
'渗透到_'
'清水_'
'浴'
'流露出_'
'洞察_'
'洋流_'
'泰斯_'
'泥泞_'
'没劲_'
'水獭_'
'毫'
'母乳_'
'正当理由_'
'歌星_'
'横幅_'
'概况_'
'梭'
'梅尔'
'档案馆_'
'格林斯潘_'
'校正_'
'树敌_'
'极小_'
'条狗_'
'机关枪_'
'本世纪_'
'最低点_'
'更有意义_'
'更年期_'
'更多人_'
'暴露出_'
'映'
'早年_'
'日起_'
'无暇_'
'无不_'
'方舟_'
'方法论_'
'方块_'
'斯蒙德_'
'斯佳丽_'
'断断续续_'
'斗志_'
'敷'
'敬拜_'
'救生艇_'
'故事情节_'
'政治犯_'
'放不下_'
'收藏品_'
'收不到_'
'摆出_'
'搞破坏_'
'接受'
'挑战赛_'
'投了_'
'技工_'
'找不着_'
'托付给_'
'手续费_'
'手无寸铁_'
'我作_'
'慎'
'想用_'
'悲_'
'总收入_'
'心上_'
'得克萨斯_'
'归入_'
'张床_'
'开脱_'
'床上用品_'
'幼年_'
'带劲_'
'巨石_'
'屡'
'屠宰_'
'尤为重要_'
'寸'
'宜人_'
'完美无缺_'
'婷_'
'娴熟_'
'姨'
'姐夫_'
'如此而已_'
'如愿以偿_'
'好想你_'
'女工_'
'女尸_'
'契机_'
'大雪_'
'多花点_'
'外侧_'
'壳牌_'
'培_'
'埃玛_'
'地貌_'
'国大党_'
'固定'
'四张_'
'嚣张_'
'唾沫_'
'哩'
'哈姆_'
'咽'
'右脚_'
'只会'
'古巴人_'
'口吃_'
'十九世纪_'
'包皮_'
'加个_'
'副驾驶_'
'剪断_'
'别慌_'
'切尔诺贝利_'
'分摊_'
'出口'
'凭'
'凄'
'养家糊口_'
'共产党员_'
'六名_'
'公诉人_'
'全权_'
'入内_'
'入会_'
'免费'
'傲_'
'做工_'
'做客_'
'借着_'
'俯视_'
'修理工_'
'俄克拉荷马州_'
'供应量_'
'佳肴_'
'作曲_'
'低端_'
'低水平_'
'低俗_'
'似地_'
'代言_'
'仍能_'
'亲密关系_'
'亚美尼亚_'
'乱糟糟_'
'乔纳_'
'乌云_'
'中饭_'
'严寒_'
'两三个_'
'专利权_'
'专业'
'不由_'
'不生_'
'不忍心_'
'不常_'
'不可否认_'
'不全_'
'下课_'
'下楼去_'
'一巴掌_'
'一大步_'
'一个样_'
'su'
'mon'
'mer'
'ki'
'ic'
'go'
'ent_'
'ent'
'cs'
'au'
'PC_'
'33'
' 」 '
'黄铜_'
'驱魔_'
'香奈儿_'
'饮水_'
'革命'
'雅致_'
'难于_'
'险恶_'
'阿蒂_'
'长沙_'
'铎_'
'野心勃勃_'
'重新分配_'
'里安_'
'那伙_'
'造出_'
'迟些_'
'远走高飞_'
'进进出出_'
'近亲_'
'运费_'
'过河_'
'过敏反应_'
'辞掉_'
'超度_'
'超凡_'
'赚大钱_'
'购物者_'
'词来_'
'触觉_'
'要选_'
'西非_'
'装甲车_'
'被保险人_'
'袜_'
'衰'
'蜚女_'
'蓝精灵_'
'萨沙_'
'萨姆'
'荒芜_'
'芝加哥大学_'
'致病_'
'臭氧_'
'自命不凡_'
'臃肿_'
'膜'
'脑损伤_'
'脊'
'肺里_'
'育种_'
'罗马'
'绞尽脑汁_'
'结帐_'
'经商_'
'细分_'
'纸上_'
'繁重_'
'紧要_'
'索菲娅_'
'管理机构_'
'第一张_'
'笑一笑_'
'竞相_'
'突破性_'
'穆加贝_'
'稀奇_'
'积水_'
'短裙_'
'睁眼_'
'眼镜蛇_'
'省下_'
'畅通_'
'电视广告_'
'瓷_'
'球杆_'
'珍藏_'
'猿_'
'猛击_'
'狙击_'
'特种_'
'点好_'
'灵顿_'
'火势_'
'漫漫_'
'滑头_'
'渡过难关_'
'浴池_'
'活塞_'
'洋基队_'
'泰尔_'
'泰坦_'
'法律法规_'
'河北_'
'汉子_'
'水电_'
'气死_'
'民宅_'
'欣喜若狂_'
'棕_'
'某地_'
'枕'
'极少数_'
'机械化_'
'服务质量_'
'最贵_'
'晶片_'
'普华永道_'
'旦_'
'无名小卒_'
'旗舰_'
'施肥_'
'新闻媒体_'
'新年快乐_'
'斯普林_'
'斯普'
'数百人_'
'援'
'推动力_'
'捕鲸_'
'持续时间_'
'拆迁_'
'抗菌_'
'投进_'
'我输_'
'我毁_'
'我来'
'我姐_'
'戏法_'
'恺撒_'
'怨言_'
'很能_'
'很穷_'
'影印_'
'归队_'
'弱化_'
'弗洛_'
'并称_'
'年薪_'
'常会_'
'帕拉_'
'希腊语_'
'工人阶级_'
'屋檐下_'
'屈_'
'居于_'
'尼龙_'
'小城镇_'
'小城_'
'对错_'
'宾州_'
'实事_'
'宝物_'
'存心_'
'奶制品_'
'契合_'
'奈尔_'
'头脑清醒_'
'太爽了_'
'太吵_'
'天份_'
'大嘴巴_'
'大出血_'
'夜色_'
'多利_'
'外孙_'
'夏普_'
'处理'
'城市规划_'
'埃利奥特_'
'块头_'
'块'
'坑里_'
'地底_'
'国企_'
'固态_'
'围困_'
'喷水_'
'喷出_'
'唧唧_'
'哇'
'咖啡吧_'
'史波克_'
'取名_'
'发送到_'
'发个_'
'叁_'
'原件_'
'印在_'
'博学_'
'南段_'
'南亚_'
'单据_'
'华特_'
'十二宫_'
'势必_'
'力所能及_'
'剧作家_'
'别停_'
'利维_'
'列奥纳多_'
'分流_'
'冲出去_'
'写歌_'
'内部'
'六十_'
'公寓楼_'
'兜圈子_'
'光阴_'
'储户_'
'倡导者_'
'倒台_'
'修缮_'
'使徒_'
'佩克_'
'作主_'
'住院医师_'
'伪证_'
'伊斯'
'从头到脚_'
'从何而来_'
'亲信_'
'五名_'
'二十一_'
'买通_'
'乐意效劳_'
'之火_'
'临到_'
'中心地带_'
'中外_'
'中型_'
'两千_'
'业者_'
'与时俱进_'
'不请自来_'
'不觉_'
'不育_'
'下边_'
'三杯_'
'七八'
'一千块_'
'一万块_'
'ya_'
'y'
'ter'
'ps'
'ni'
'mi'
'lo_'
'li'
'lea'
'ker_'
'ies_'
'fi'
'eli'
'cf'
'brown_'
'bill_'
'ad_'
'WiFi_'
'Mi'
'25'
'188'
' ？   ─ ─   _'
' ： " _'
' · · · · · ·_'
' ? 、 _'
' ? '
' ... -   _'
' .. _'
'麋鹿_'
'鸡尾酒会_'
'高声_'
'高分_'
'饰'
'飞弹_'
'非常规_'
'霉'
'限量_'
'阿布'
'阴暗面_'
'闺蜜_'
'问答_'
'铁杆_'
'采摘_'
'通气_'
'这群人_'
'这番_'
'迈耶_'
'车胎_'
'趴_'
'起先_'
'赛特_'
'账面_'
'课后_'
'请愿_'
'说成_'
'说到底_'
'识破_'
'计时器_'
'触摸屏_'
'见不得人_'
'要告_'
'要些_'
'西奥多_'
'融为一体_'
'蜘蛛侠_'
'藏身之处_'
'蕴藏_'
'蓄'
'蒙纳_'
'葱_'
'萨克斯_'
'茶壶_'
'茂'
'英美_'
'苏格兰人_'
'舒尔茨_'
'自然选择_'
'自我'
'腰部_'
'脚凳_'
'胡同_'
'股指_'
'联结_'
'聊得_'
'美感_'
'编译_'
'绍'
'线粒体_'
'纲领_'
'约旦河西岸_'
'紧随其后_'
'糊口_'
'第一款_'
'第一次世界大战_'
'窘迫_'
'窃'
'突显_'
'积极分子_'
'社会学家_'
'磷'
'磨练_'
'确有_'
'硫酸_'
'短短的_'
'瞧不起_'
'真的假_'
'看门_'
'监理_'
'白蚁_'
'病毒感染_'
'疗伤_'
'男主角_'
'甲基_'
'用人_'
'甜品_'
'猎狗_'
'犹_'
'特雷莎_'
'版面_'
'爬上去_'
'炸薯条_'
'灭口_'
'潮水_'
'滑翔_'
'源源不断_'
'游手好闲_'
'淌_'
'润滑_'
'海军基地_'
'洗脸_'
'波音公司_'
'汹涌_'
'汇总_'
'求助于_'
'毛茸茸_'
'毒枭_'
'每句话_'
'武断_'
'正像_'
'欢庆_'
'梅格_'
'桌旁_'
'格鲁'
'格兰德_'
'核弹头_'
'栏目_'
'果子_'
'杰克森_'
'朝圣_'
'暮'
'普通'
'时辰_'
'无期徒刑_'
'族长_'
'斗牛_'
'整形手术_'
'收工_'
'操场上_'
'摩斯_'
'摇头_'
'揪_'
'提尼_'
'提了_'
'排骨_'
'授粉_'
'损耗_'
'挡'
'拼搏_'
'招人_'
'抗辩_'
'扩音器_'
'打分_'
'战犯_'
'想学_'
'惠勒_'
'悠闲_'
'恶性循环_'
'忘恩负义_'
'很贵_'
'录用_'
'当不了_'
'弗莱彻_'
'异类_'
'底片_'
'库特_'
'广受_'
'幼苗_'
'平日_'
'帕默_'
'市场需求_'
'工作效率_'
'峰'
'小步_'
'对接_'
'富足_'
'家事_'
'孩儿_'
'学童_'
'孤寂_'
'嫩'
'嫁妆_'
'嫁'
'威尔斯_'
'够不够_'
'复述_'
'境遇_'
'基点_'
'埃克森_'
'图森_'
'团长_'
'回不去_'
'啦啦队员_'
'咬一口_'
'呣_'
'含蓄_'
'各样_'
'司空见惯_'
'可选_'
'叛国罪_'
'变身_'
'受孕_'
'参谋_'
'去年同期_'
'厕纸_'
'半月_'
'十六'
'包抄_'
'勒姆_'
'勒令_'
'勋_'
'加拉_'
'创新能力_'
'分店_'
'几起_'
'再会_'
'共同之处_'
'六小时_'
'公用事业_'
'公共关系_'
'全班_'
'兜兜风_'
'光鲜_'
'偷运_'
'健美_'
'便携_'
'你介_'
'住进_'
'低劣_'
'伦斯_'
'伊斯特_'
'伊斯兰堡_'
'人身安全_'
'交集_'
'五大_'
'亏'
'二个_'
'争夺战_'
'习惯性_'
'九十'
'之美_'
'之歌_'
'中欧_'
'中指_'
'东段_'
'不服_'
'下葬_'
'三百'
'一毛钱_'
'zi'
'william_'
'tra'
'tha'
'ten'
'ste'
'ram_'
'pc'
'oo'
'kindle_'
'ier_'
'du'
'de'
'che'
'cap'
'ah'
'Pro'
'Pe'
'Ba'
'37'
'27'
'1962_'
'1929_'
'105_'
'03_'
' … … -   _'
'鲜活_'
'音乐学院_'
'难懂_'
'陈词滥调_'
'门厅_'
'镜片_'
'钚_'
'量子力学_'
'野火_'
'郊_'
'那匹马_'
'通知书_'
'进过_'
'这瓶_'
'这则_'
'运载_'
'过敏性_'
'迁就_'
'辨认出_'
'轴承_'
'转手_'
'路易斯安那_'
'赫尔'
'费尔德_'
'贷'
'诺曼底_'
'请愿书_'
'说客_'
'话筒_'
'警校_'
'誉_'
'西安_'
'袖'
'血脉_'
'董'
'萨博_'
'药用_'
'良机_'
'航空业_'
'自卑_'
'腹腔_'
'腹肌_'
'股票交易_'
'聚聚_'
'老龄化_'
'美国国务院_'
'署长_'
'罗布_'
'罐装_'
'罐'
'绵延_'
'维娅_'
'纸板_'
'纵火犯_'
'纪念'
'红头发_'
'繁琐_'
'紧邻_'
'米德尔_'
'筑巢_'
'第五十'
'第二阶段_'
'竹子_'
'竟是_'
'立陶宛_'
'立下_'
'社会科学_'
'相助_'
'盗用_'
'皮尔'
'疗_'
'畏'
'电视频道_'
'电站_'
'瓦莱丽_'
'琪'
'理想主义_'
'珠宝店_'
'现代人_'
'独舞_'
'狐_'
'犹他_'
'特例_'
'焕发_'
'烟熏_'
'炮击_'
'炫'
'火气_'
'演讲稿_'
'漂白_'
'漂泊_'
'渐_'
'浓郁_'
'派驻_'
'洗脱_'
'波段_'
'法西斯主义_'
'没人接_'
'永存_'
'气象'
'民主化_'
'比萨饼_'
'正往_'
'欢心_'
'欠佳_'
'榜首_'
'桌布_'
'查证_'
'柔弱_'
'林地_'
'松绑_'
'杜威_'
'杂货_'
'朗诵_'
'服兵役_'
'晶体管_'
'普锐斯_'
'普林斯顿大学_'
'无穷的_'
'无头_'
'新版_'
'新潮_'
'新世纪_'
'散户_'
'撒哈拉_'
'摊牌_'
'搬来_'
'搜身_'
'据估计_'
'挣'
'拱_'
'抢购_'
'抚养权_'
'抚'
'技术支持_'
'找不出_'
'手语_'
'手柄_'
'所求_'
'房地_'
'我太爱_'
'慰问_'
'惯用_'
'悄然_'
'总说_'
'总归_'
'思潮_'
'忠诚度_'
'心满意足_'
'心形_'
'德意志_'
'很赞_'
'彼岸_'
'彻夜_'
'彭博_'
'录象_'
'当铺_'
'弹片_'
'开路_'
'应有尽有_'
'并不比_'
'希克斯_'
'布拉斯_'
'工业革命_'
'巢'
'岔子_'
'山下_'
'尼采_'
'少不了_'
'小虫_'
'小聪明_'
'寝室_'
'官邸_'
'守夜人_'
'妥善_'
'奸_'
'奥特_'
'套件_'
'夹子_'
'头牛_'
'失火_'
'太想_'
'天鹅绒_'
'天窗_'
'大灾难_'
'大不相同_'
'墩_'
'塔塔_'
'基因突变_'
'坑'
'坐好_'
'地质学_'
'圣餐_'
'土壤'
'国民'
'咱得_'
'咖喱_'
'合规_'
'叹为观止_'
'可用性_'
'变质_'
'发臭_'
'发神经_'
'发生器_'
'又名_'
'压在_'
'卢布_'
'卡普兰_'
'卡尔顿_'
'单枪匹马_'
'单亲_'
'十八'
'劫车_'
'加注_'
'办得_'
'前身_'
'刷子_'
'切斯_'
'凑'
'再来一个_'
'典雅_'
'兴高采烈_'
'公共利益_'
'全过程_'
'先回去_'
'允诺_'
'儿科医生_'
'傻话_'
'傻帽_'
'倒回去_'
'信教_'
'佩妮_'
'伸张正义_'
'传染给_'
'传教_'
'传入_'
'会员国_'
'会同_'
'任何事物_'
'代数_'
'人影_'
'享'
'产妇_'
'井里_'
'云彩_'
'二流_'
'乱套_'
'之春_'
'中海油_'
'中庭_'
'个人资料_'
'两码事_'
'丘比特_'
'专栏作家_'
'与会_'
'不计其数_'
'上议院_'
'上菜_'
'上千_'
'上个世纪_'
'一端_'
'一剂_'
'ze'
'wa'
'u'
'nt'
'nor'
'n'
'ms_'
'ko_'
'it'
'han'
'ca'
'ation_'
'Z_'
'Q'
'Bank_'
'39'
'1930_'
'0'
' ： ‘ _'
' ！ ！ ！_'
' ！ – _'
' … … ？ _'
'   ( _'
'鼻腔_'
'高高在上_'
'骑警_'
'马路上_'
'革_'
'靠不住_'
'非理性_'
'雷管_'
'随手_'
'阿联酋_'
'阿拉巴马州_'
'阔_'
'闲谈_'
'长辈_'
'长处_'
'铁道部_'
'酱汁_'
'邮轮_'
'通风口_'
'通信'
'递送_'
'送信_'
'近视_'
'近点_'
'迎战_'
'过问_'
'过瘾_'
'轰_'
'越远_'
'起泡_'
'走时_'
'赞比亚_'
'贼'
'贮存_'
'贞'
'调子_'
'请柬_'
'说够_'
'试音_'
'试想_'
'证券市场_'
'记在_'
'让路_'
'计算器_'
'观察'
'裂口_'
'裂'
'衬'
'螺钉_'
'螺旋桨_'
'蛋黄酱_'
'萨里_'
'萨曼莎_'
'萨利赫_'
'英语教学_'
'芝麻_'
'艾哈迈德_'
'舰船_'
'致力_'
'脱罪_'
'肉丸_'
'翻阅_'
'美国联邦_'
'美国空军_'
'罢免_'
'绩_'
'继承权_'
'绝密_'
'终点站_'
'纬度_'
'精良_'
'管不了_'
'算作_'
'简约_'
'笑笑_'
'竖琴_'
'空位_'
'穆里尼奥_'
'科赫_'
'禁飞区_'
'神魂颠倒_'
'祝'
'碰触_'
'碍_'
'确凿证据_'
'瞎编_'
'着眼_'
'真傻_'
'盆栽_'
'病痛_'
'电灯_'
'生性_'
'生命周期_'
'生产国_'
'甜饼_'
'甘愿_'
'珊'
'玛格丽塔_'
'犯罪团伙_'
'牵着_'
'爱护_'
'爆炸物_'
'灵巧_'
'火锅_'
'满口_'
'滞_'
'温带_'
'涨价_'
'测算_'
'浇水_'
'洙_'
'泼妇_'
'波斯湾_'
'没得选_'
'沉寂_'
'水桶_'
'水利_'
'每份_'
'死里逃生_'
'武功_'
'正朝_'
'欺'
'欧亚_'
'梳'
'核设施_'
'树种_'
'架上_'
'板凳_'
'本季_'
'有益于_'
'有何贵干_'
'月末_'
'更要_'
'晒'
'时时刻刻_'
'早熟_'
'新闻稿_'
'斯科_'
'斯科'
'文学作品_'
'教学法_'
'放肆_'
'改组_'
'收容_'
'撑不住_'
'摇动_'
'搞糟_'
'换件_'
'损'
'挪到_'
'指针_'
'拐'
'披上_'
'扫荡_'
'扎营_'
'扎根_'
'户外活动_'
'战地_'
'我害_'
'我个_'
'惠特曼_'
'惟有_'
'快艇_'
'徵'
'强烈要求_'
'张照_'
'弗朗索瓦_'
'年复一年_'
'帕里_'
'小肠_'
'小白脸_'
'小河_'
'小儿子_'
'對_'
'寺院_'
'家过夜_'
'家畜_'
'家常便饭_'
'宣泄_'
'安睡_'
'安拉_'
'守候_'
'孤零零_'
'姜_'
'好棒_'
'好意思_'
'太赞_'
'天意_'
'大吼大叫_'
'多到_'
'外快_'
'外向_'
'基调_'
'坐稳_'
'圣歌_'
'图尔_'
'团队精神_'
'回想起来_'
'四分五裂_'
'唯_'
'哪间_'
'哪一位_'
'品德_'
'周围环境_'
'叹气_'
'司法公正_'
'口子_'
'叛'
'受灾_'
'发源地_'
'原来如此_'
'卧床_'
'博德_'
'博主_'
'包厢_'
'加元_'
'前臂_'
'前列腺癌_'
'刽子手_'
'制造厂_'
'凸'
'凯尔特人_'
'几件事_'
'凝聚力_'
'冒烟_'
'内核_'
'内分泌_'
'关系网_'
'关卡_'
'公报_'
'八小时_'
'克里克_'
'克莱夫_'
'僵化_'
'停停_'
'假话_'
'假若_'
'信息系统_'
'使唤_'
'佩兰_'
'伸出手_'
'企'
'仿制_'
'以牙还牙_'
'令人厌恶_'
'从今往后_'
'仇'
'仅限_'
'人力资源部_'
'人力资本_'
'五星级_'
'五人_'
'乳腺_'
'两秒钟_'
'两方_'
'专为_'
'专业化_'
'与你同在_'
'不遗余力_'
'不失为_'
'不向_'
'下层_'
'上过_'
'三起_'
'三块_'
'一目了然_'
'一室_'
'一千年_'
'uc'
'ster_'
'san'
'per_'
'mus'
'ment_'
'hr'
'har'
'ham_'
'ct'
'ber'
'Y'
'43'
'24'
'1966_'
'04_'
' ” ； _'
' "   '
'鼹鼠_'
'默斯_'
'鳗鱼_'
'高利贷_'
'高个子_'
'骑行_'
'食物链_'
'飞涨_'
'颧骨_'
'顺畅_'
'韩国'
'雷纳_'
'陶器_'
'阴霾_'
'阳光明媚_'
'镀'
'铬_'
'钢筋_'
'野兔_'
'重蹈_'
'遗孀_'
'逾越节_'
'造反_'
'选个_'
'适配器_'
'退货_'
'迷幻_'
'过敏症_'
'过冬_'
'辱_'
'轻便_'
'跳到_'
'超强_'
'赵_'
'赫斯_'
'赫伯特_'
'赢回_'
'赏识_'
'费希尔_'
'贸易顺差_'
'贴近_'
'财政状况_'
'财政'
'谭市_'
'说到做到_'
'证言_'
'讲台_'
'认购_'
'计算机科学_'
'警监_'
'觊觎_'
'见证人_'
'西门子_'
'装好_'
'表彰_'
'行话_'
'行善_'
'行之有效_'
'薇薇安_'
'蓄电池_'
'萨默_'
'萌发_'
'菩萨_'
'获胜者_'
'莱西_'
'莱曼_'
'艾达_'
'致歉_'
'自私自利_'
'自然环境_'
'自始至终_'
'自助餐厅_'
'自保_'
'耳闻_'
'耐力_'
'翘'
'翁'
'美容院_'
'美元汇率_'
'绿灯_'
'维罗妮_'
'维多_'
'维吉尔_'
'纵然_'
'索恩_'
'穷困_'
'穆德_'
'私立_'
'禁运_'
'祭品_'
'社群_'
'碾碎_'
'硫磺_'
'矮小_'
'知识经济_'
'矣_'
'眼皮_'
'真蠢_'
'看不'
'省略_'
'直销_'
'盛名_'
'疯婆子_'
'留神_'
'畅游_'
'画上_'
'男仆_'
'用户名_'
'生物医学_'
'瑞典人_'
'理想化_'
'环绕着_'
'环境影响_'
'猛地_'
'牛群_'
'爱伦_'
'爆头_'
'烦扰_'
'火箭弹_'
'澳大利亚人_'
'演进_'
'演讲者_'
'漂_'
'满地_'
'湖上_'
'温州_'
'清朝_'
'混战_'
'混合'
'浪漫主义_'
'洗耳恭听_'
'法律责任_'
'没人敢_'
'沈阳_'
'永别_'
'水蛭_'
'水底_'
'民选_'
'毙命_'
'比较'
'死板_'
'歪歪_'
'模拟器_'
'棚屋_'
'梭_'
'框'
'柱'
'机型_'
'期满_'
'有鬼_'
'有机物_'
'曾任_'
'曼城_'
'更是如此_'
'暗影_'
'星级_'
'星体_'
'明尼阿波利斯_'
'时侯_'
'无故_'
'新罕布什尔州_'
'斯洛伐克_'
'断掉_'
'数字'
'敞篷车_'
'教友_'
'救生_'
'放射性物质_'
'攀_'
'摇头丸_'
'摆脱困境_'
'摆好_'
'摄影棚_'
'搭个_'
'搬出来_'
'提神_'
'接线员_'
'按摩师_'
'持续性_'
'拉近_'
'抗氧化_'
'把守_'
'打坏_'
'手机'
'戴帽子_'
'截住_'
'我醒_'
'愁'
'惯常_'
'总署_'
'心理'
'德拉吉_'
'弗雷斯_'
'弗朗西斯科_'
'引荐_'
'建个_'
'庸'
'庞贝_'
'应征_'
'幼_'
'并肩_'
'帕森斯_'
'帕梅拉_'
'布尔什维克_'
'布兰森_'
'巴兰_'
'屠宰场_'
'屏'
'尹'
'导线_'
'寓言_'
'定型_'
'守旧_'
'字面上_'
'字谜_'
'婚约_'
'妮丝_'
'奥玛_'
'天晓得_'
'大纲_'
'大盗_'
'大步_'
'大好人_'
'外币_'
'塔米_'
'坐轮椅_'
'坐等_'
'坐以待毙_'
'啊呀_'
'商业活动_'
'商业中心_'
'哨兵_'
'咨询服务_'
'味觉_'
'听得懂_'
'右拐_'
'台步_'
'可追溯_'
'口吻_'
'发展'
'及格_'
'卸任_'
'卡洛_'
'午休_'
'区域'
'功能'
'划伤_'
'分层_'
'出生率_'
'凄凉_'
'冲过来_'
'内科_'
'全名_'
'兄长_'
'僧_'
'佳人_'
'你学_'
'作法_'
'作恶_'
'会成_'
'会堂_'
'份量_'
'他常_'
'仇人_'
'人不'
'井井有条_'
'乡村音乐_'
'习性_'
'为人所知_'
'中投_'
'中叶_'
'两步_'
'专访_'
'下届_'
'上放_'
'上周日_'
'上吊_'
'上下班_'
'三英里_'
'一言不发_'
'一时冲动_'
'ur'
'tro'
'to'
'sha'
'pu'
'ps_'
'pri'
'pa'
'ns_'
'ney_'
'hor'
'gps_'
'ai'
'af'
'New_'
'750_'
'1957_'
' 。 － _'
' 。 ” '
' 。 - - - _'
'龌龊_'
'默里_'
'麦基_'
'麦克唐纳_'
'高速路_'
'驻军_'
'马特'
'马场_'
'饭后_'
'食言_'
'风速_'
'风范_'
'领事_'
'面包屑_'
'非但_'
'静坐_'
'霍顿_'
'雇佣兵_'
'难点_'
'金融家_'
'酩酊大醉_'
'配送_'
'郑重_'
'邮编_'
'那架_'
'邓纳姆_'
'邀'
'遥感_'
'道德'
'透彻_'
'退路_'
'追加_'
'迫于_'
'连锁反应_'
'连连_'
'违'
'这药_'
'这具_'
'这令_'
'达芙妮_'
'边缘化_'
'辉'
'较差_'
'赫拉_'
'赠_'
'财报_'
'调配_'
'说来听听_'
'诱使_'
'诧异_'
'议会选举_'
'训练场_'
'要付_'
'装腔作势_'
'行政长官_'
'蓝眼睛_'
'落伍_'
'萨莉_'
'获奖者_'
'茉莉_'
'花钱买_'
'良多_'
'般地_'
'般'
'舍得_'
'臣民_'
'腐化_'
'脑门_'
'脊椎动物_'
'能耗_'
'胎记_'
'背黑锅_'
'翻了一番_'
'群山_'
'署名_'
'置信_'
'网络连接_'
'缴税_'
'缓存_'
'绿卡_'
'维德_'
'维京_'
'红衣主教_'
'紫藤_'
'糊'
'精心设计_'
'精于_'
'粥样_'
'粘着_'
'筹措_'
'第一阶段_'
'立体声_'
'突击队员_'
'稻田_'
'离别_'
'离世_'
'福克_'
'禁烟_'
'碳酸_'
'硝'
'砸碎_'
'相似性_'
'相会_'
'留到_'
'留出_'
'电信公司_'
'理学_'
'珍爱_'
'猜到_'
'独唱_'
'犯罪者_'
'牵制_'
'牙签_'
'牙套_'
'牌局_'
'父母亲_'
'焦虑症_'
'焕然一新_'
'焊_'
'烤鸡_'
'滨_'
'滨'
'满载_'
'温莎_'
'温水_'
'添乱_'
'混进_'
'深入研究_'
'浓烟_'
'泊'
'泄_'
'江苏省_'
'氨'
'气势_'
'每星期_'
'楼梯间_'
'检视_'
'格雷'
'格里芬_'
'格特_'
'栓'
'查莉_'
'查下_'
'枪管_'
'极富_'
'极其重要_'
'杰思罗_'
'来福枪_'
'杂碎_'
'杂乱_'
'本色_'
'本州_'
'本合同_'
'未有_'
'服过_'
'有形_'
'有多深_'
'最酷_'
'最后通牒_'
'更多'
'曰_'
'暴涨_'
'晴_'
'显摆_'
'旅途愉快_'
'旁路_'
'斌_'
'文学'
'攻破_'
'收件人_'
'撤掉_'
'摄入量_'
'搞乱_'
'排演_'
'排泄_'
'换下_'
'按规定_'
'拾'
'拜登_'
'投保人_'
'批萨_'
'打官司_'
'我算_'
'我演_'
'成绩单_'
'成婚_'
'慌'
'感染者_'
'悔_'
'心灵感应_'
'心地善良_'
'德伯格_'
'形体_'
'当当_'
'归结_'
'强奸案_'
'弯道_'
'弗莱明_'
'异样_'
'建模_'
'应收_'
'幸运地_'
'平底锅_'
'常驻_'
'带宽_'
'希腊政府_'
'希伯来_'
'布兰特_'
'巴萨_'
'巴托_'
'左手边_'
'工作狂_'
'巡查_'
'居室_'
'小道消息_'
'小汽车_'
'小妹_'
'小兔子_'
'对白_'
'安详_'
'守门员_'
'婚宴_'
'娘'
'姑_'
'妮娜_'
'好长_'
'女装_'
'女性朋友_'
'奥尔森_'
'奉上_'
'夸耀_'
'太阳光_'
'天敌_'
'多米诺_'
'复出_'
'处所_'
'墓'
'基顿_'
'坐立不安_'
'地球表面_'
'圆圈_'
'四面_'
'四月份_'
'四五'
'器件_'
'嘻哈_'
'嗤之以鼻_'
'哈尔滨_'
'哀求_'
'咽_'
'吹箫_'
'听得_'
'同化_'
'同住_'
'吉尔吉斯斯坦_'
'合谋_'
'变速器_'
'发行人_'
'双双_'
'原子能_'
'卡尔文_'
'卖完_'
'协_'
'十次_'
'勿'
'勇往直前_'
'加泰罗尼亚_'
'剪头发_'
'前列_'
'制冰机_'
'别弄_'
'分散'
'出勤_'
'减记_'
'决策'
'军校_'
'再多'
'内蒙古_'
'内会_'
'公民自由_'
'克莱顿_'
'光源_'
'充电器_'
'偏袒_'
'假牙_'
'倔强_'
'保险单_'
'保险丝_'
'保卫'
'俘获_'
'俗气_'
'便衣_'
'你付_'
'传真机_'
'会议厅_'
'会救_'
'优待_'
'他信_'
'今生_'
'人多_'
'产品'
'五英里_'
'于事无补_'
'之分_'
'举杯_'
'中所_'
'中为_'
'两百_'
'两国关系_'
'业力_'
'世界性_'
'不缺_'
'不相干_'
'下旬_'
'一路顺风_'
'一百万美元_'
'ut_'
'tom_'
'tom'
'ti_'
'new_'
'nba_'
'mi_'
'ir_'
'hi'
'fo'
'ed'
'den'
'as'
'andrew_'
'Capital_'
'CBI_'
'52'
'260_'
'2016_'
'1947_'
'187'
'1300_'
' ： "   _'
' 。 ..._'
'黑发_'
'麦肯_'
'鱼肉_'
'高举_'
'飞过去_'
'飞走_'
'风采_'
'风车_'
'颂_'
'顶嘴_'
'韵'
'面值_'
'霍格_'
'霍恩_'
'霍姆斯_'
'雕'
'隙_'
'随时随地_'
'陷'
'长跑_'
'铁链_'
'针锋相对_'
'野村_'
'里弄_'
'那股_'
'遗愿_'
'遍'
'造福_'
'逐一_'
'逃往_'
'远期_'
'这书_'
'近海_'
'运动服_'
'辽'
'辐射'
'辅'
'轻巧_'
'车展_'
'踪影_'
'跑不了_'
'足球'
'赤_'
'赞助人_'
'费恩_'
'贝尔格莱德_'
'调查组_'
'请参阅_'
'该文_'
'证交会_'
'认识一下_'
'被告人_'
'被劫持_'
'虚拟世界_'
'蔗糖_'
'蓝调_'
'莫尔'
'茂_'
'英国广播公司_'
'英军_'
'花边_'
'航程_'
'致癌_'
'自满_'
'膛_'
'胡桃_'
'肥猪_'
'耕_'
'翻译成_'
'美眉_'
'美术'
'绵'
'经典'
'绊脚石_'
'线圈_'
'纠'
'紫罗兰_'
'紧紧抓住_'
'精心策划_'
'粘性_'
'粉笔_'
'篷_'
'管闲事_'
'第四次_'
'第九条_'
'立法会_'
'窗边_'
'窒息而死_'
'空手_'
'离合器_'
'禁闭室_'
'磨坊_'
'破例_'
'眼界_'
'真相大白_'
'相仿_'
'监护室_'
'白雪公主_'
'登记'
'疑心_'
'甫_'
'生育率_'
'生物钟_'
'生不如死_'
'瓦内萨_'
'玩够_'
'王宫_'
'狂风_'
'狂妄_'
'狂奔_'
'特鲁'
'特务_'
'特伍德_'
'牧羊犬_'
'牙线_'
'版图_'
'燔_'
'热血_'
'热能_'
'烂透_'
'溢'
'游历_'
'清静_'
'清醒过来_'
'清教徒_'
'深入调查_'
'淫_'
'流感疫苗_'
'波恩_'
'没人来_'
'沙利文_'
'沉淀_'
'汽'
'污迹_'
'汇丰银行_'
'民进党_'
'氏族_'
'每一_'
'殊荣_'
'欧洲各国_'
'格陵兰_'
'样板_'
'校服_'
'树屋_'
'果树_'
'林恩_'
'枕_'
'构筑_'
'来世_'
'杆子_'
'本金_'
'本想_'
'本地化_'
'木屋_'
'服务商_'
'朋克_'
'暴民_'
'日军_'
'无端_'
'无伤大雅_'
'旅游'
'方可_'
'斋_'
'文盲_'
'文尼_'
'支枪_'
'摩萨德_'
'揽'
'握有_'
'提要_'
'掩藏_'
'推力_'
'拉伤_'
'抽到_'
'投票表决_'
'扯'
'扫除_'
'扫射_'
'执政官_'
'手肘_'
'戴维'
'想当然_'
'想像中_'
'惨重_'
'情谊_'
'恐怖活动_'
'心律_'
'心力衰竭_'
'德福_'
'德洛_'
'得利_'
'很配_'
'彼此间_'
'引见_'
'废料_'
'广岛_'
'年收入_'
'布勒_'
'布劳恩_'
'布伦特_'
'巴纳_'
'崩塌_'
'崎岖_'
'岗'
'山西_'
'尤文图斯_'
'尘世_'
'小不点_'
'射频_'
'家时_'
'实事求是_'
'安大略_'
'学好_'
'婆'
'妓_'
'失意_'
'天平_'
'夜幕降临_'
'多哈_'
'夏娃_'
'备选_'
'处长_'
'声名_'
'塑_'
'堡'
'城市居民_'
'垃圾车_'
'土地'
'图景_'
'国道_'
'国界_'
'四起_'
'四家_'
'器官移植_'
'嘎'
'喷漆_'
'喝了酒_'
'喙_'
'喊道_'
'哄骗_'
'呼吸器_'
'周边地区_'
'后部_'
'名人堂_'
'史都华_'
'史坦_'
'口碑_'
'叛逃_'
'叙_'
'受阻_'
'受困_'
'发送给_'
'反腐败_'
'原产_'
'压碎_'
'卫生纸_'
'卖光_'
'十月份_'
'包装纸_'
'勒尔_'
'勇猛_'
'劳务_'
'加权_'
'办点_'
'刮目相看_'
'分辨率_'
'击溃_'
'出拳_'
'几把_'
'几份_'
'凉鞋_'
'决意_'
'再放_'
'内布拉斯加州_'
'兵营_'
'六方会谈_'
'停尸间_'
'停产_'
'俯卧撑_'
'侍奉_'
'佐治亚州_'
'但愿如此_'
'伯母_'
'伦巴_'
'会得_'
'件'
'仙子_'
'他生_'
'他出_'
'人带_'
'交通堵塞_'
'交易量_'
'云集_'
'争取时间_'
'买回来_'
'书信_'
'乙烯_'
'乙方_'
'乘着_'
'乖'
'乔迪_'
'乐于助人_'
'丽兹_'
'中小型_'
'两款_'
'东风_'
'专职_'
'专政_'
'不良影响_'
'不卖_'
'上班时间_'
'上年_'
'三国_'
'一跃_'
'一提_'
'一丝不苟_'
'一下下_'
'w'
'ul'
'tt_'
'sen_'
'sal'
'pro'
'pi'
'inter'
'ea'
'ba_'
'Go'
'40'
'21'
'1100_'
' ～ _'
' ﹐ _'
' ” 、 _'
'黄金'
'黄蜂_'
'魔兽_'
'高管们_'
'髓_'
'骚_'
'骇人_'
'驼_'
'马达加斯加_'
'飞利浦_'
'顺应_'
'非常容易_'
'青年'
'雇来_'
'隐私权_'
'陵'
'陀_'
'阴阳_'
'防弹背心_'
'锡拉_'
'钻研_'
'钱来_'
'钢材_'
'钟情_'
'酿酒厂_'
'遣_'
'造物主_'
'逛'
'适中_'
'迷航_'
'迪奥_'
'这钱_'
'运走_'
'过快_'
'较强_'
'较弱_'
'跨文化_'
'赖利_'
'费利克斯_'
'贱'
'财产权_'
'谱'
'调教_'
'说不出来_'
'诱惑力_'
'译者_'
'词儿_'
'讨人厌_'
'蠢到_'
'藏身处_'
'薄煎饼_'
'茂密_'
'花束_'
'臭氧层_'
'自体_'
'脱口而出_'
'肉食_'
'老派_'
'美国大学_'
'美国士兵_'
'置身_'
'编舞_'
'维斯塔_'
'纹理_'
'纵观_'
'纵_'
'纤细_'
'红线_'
'紧要关头_'
'精妙_'
'粮'
'算命_'
'简单化_'
'筹钱_'
'第三名_'
'第七条_'
'竖'
'空间'
'空着_'
'税金_'
'秦_'
'神迹_'
'神经兮兮_'
'神学院_'
'碾'
'碱性_'
'睡醒_'
'真地_'
'眉头_'
'盹_'
'相形见绌_'
'相位_'
'盗取_'
'百事_'
'白板_'
'瘫_'
'痴_'
'画展_'
'电阻_'
'电话公司_'
'用意_'
'生疏_'
'生小孩_'
'球拍_'
'独身_'
'狗仔队_'
'特蕾莎_'
'特拉'
'特伦斯_'
'物质'
'爬山_'
'热气球_'
'烟消云散_'
'点缀_'
'灾民_'
'潭_'
'渗漏_'
'清淡_'
'混入_'
'液相_'
'流行音乐_'
'流动资金_'
'流下_'
'没开_'
'水量_'
'每块_'
'每加仑_'
'殿堂_'
'残杀_'
'正门_'
'欧佩克_'
'橘'
'桥牌_'
'格里森_'
'根本性_'
'枷锁_'
'松懈_'
'权重_'
'本分_'
'本体_'
'木工_'
'朝鲜'
'服务部_'
'有误_'
'曲调_'
'普雷斯顿_'
'晦涩_'
'无缘_'
'无毛_'
'新兴国家_'
'斯蒂文_'
'斯潘塞_'
'文法_'
'整套_'
'教学方法_'
'放电_'
'改革开放_'
'收银机_'
'收尾_'
'擦拭_'
'撬'
'搞不好_'
'援救_'
'挺进_'
'择_'
'拖出来_'
'拍拖_'
'拉姆齐_'
'执业_'
'托斯_'
'手机号码_'
'意料之中_'
'想尽_'
'惩'
'悠着点_'
'恼人_'
'恨'
'急救室_'
'怀疑论者_'
'徒'
'很早以前_'
'征得_'
'归根结底_'
'弹劾_'
'弄混_'
'开店_'
'开发区_'
'废品_'
'应变_'
'年迈_'
'帧_'
'帕克斯_'
'布里斯托尔_'
'布赖_'
'布恩_'
'巴西人_'
'巴勒_'
'屹立_'
'屈辱_'
'小猫咪_'
'小床_'
'对战_'
'实务_'
'安昂_'
'安大略省_'
'嫖客_'
'嫁祸_'
'婚事_'
'威斯康星州_'
'妇科_'
'妆'
'好去处_'
'好使_'
'奥马_'
'奥森_'
'太胖_'
'太子_'
'大骗子_'
'大爷_'
'大开杀戒_'
'多汁_'
'多月_'
'多才多艺_'
'外行_'
'墙角_'
'堵墙_'
'基部_'
'垄断'
'坐船_'
'坎特_'
'场子_'
'圣玛丽_'
'圣子_'
'土匪_'
'固_'
'回旋_'
'噱头_'
'噪_'
'嘎_'
'喂饱_'
'啦啦队长_'
'呼呼_'
'呐喊_'
'听信_'
'吉祥_'
'合作'
'吃顿_'
'号角_'
'史黛西_'
'可汗_'
'可控_'
'可循_'
'古典音乐_'
'取得胜利_'
'发射'
'发声_'
'发亮_'
'又称_'
'压根儿_'
'压倒_'
'占卜_'
'单间_'
'劳雷尔_'
'动能_'
'功绩_'
'剧组_'
'剖'
'前部_'
'前先_'
'剃'
'刚出生_'
'划定_'
'分离出来_'
'分清_'
'分泌物_'
'刀剑_'
'击球手_'
'几枪_'
'冲撞_'
'冰河_'
'冬日_'
'再次出现_'
'养父母_'
'关键技术_'
'关系紧张_'
'共振_'
'共同'
'公开赛_'
'公开场合_'
'公平竞争_'
'公升_'
'八月份_'
'八千_'
'充满信心_'
'元老_'
'偷过_'
'保险人_'
'供认_'
'佩德罗_'
'体形_'
'体制改革_'
'似曾相识_'
'估'
'伯克霍_'
'伦敦大学_'
'传呼_'
'会费_'
'会伤_'
'会付_'
'优秀'
'令人费解_'
'交道_'
'交上_'
'亟需_'
'亚太_'
'亚历_'
'事实真相_'
'买房子_'
'习_'
'之门_'
'主耶稣_'
'中会_'
'个人隐私_'
'两人'
'业内人士_'
'世道_'
'专项_'
'不屑一顾_'
'上百_'
'上一年_'
'七次_'
'一败涂地_'
'一瞥_'
'一户_'
'一品_'
'一伙人_'
'tri'
'shi'
'par'
'oc'
'net'
'ing'
'ex_'
'en'
'ebay_'
'cm_'
'ce'
'be_'
'ash'
'We'
'T恤_'
'Li'
'Group_'
'GDP_'
'CD_'
'Be'
'54'
' ， ，_'
' ） （ _'
' 『 _'
' ...   '
' ! '
'鲜明对比_'
'鲍姆_'
'马蹄_'
'食指_'
'颜_'
'预演_'
'预估_'
'韦斯利_'
'霸占_'
'零用钱_'
'雪松_'
'雨衣_'
'雀斑_'
'隔音_'
'随和_'
'隆起_'
'附有_'
'阿斯顿_'
'闲话_'
'长距离_'
'长凳_'
'野性_'
'酬金_'
'酒庄_'
'邻_'
'那杯_'
'那支_'
'选好_'
'逃学_'
'退休年龄_'
'这说_'
'这棵树_'
'软管_'
'路途_'
'路线图_'
'趣事_'
'超爱_'
'趁着_'
'走访_'
'贾罗德_'
'说不出口_'
'讲授_'
'讲得_'
'记事本_'
'规模较_'
'西北大学_'
'褐'
'裙'
'行军_'
'血肿_'
'血检_'
'血块_'
'虱_'
'著作权_'
'莫斯'
'莫尼卡_'
'药膏_'
'荣获_'
'苏州_'
'芳心_'
'自诩_'
'自称为_'
'自由自在_'
'自尽_'
'脚手架_'
'脑残_'
'脐带_'
'脏东西_'
'胸针_'
'胡德_'
'胆囊_'
'股骨_'
'肇'
'联队_'
'罗嗦_'
'维珍_'
'统帅_'
'经济社会_'
'组分_'
'紧密联系_'
'精度_'
'米亚_'
'箱里_'
'管理学_'
'穷光蛋_'
'称谓_'
'秃鹫_'
'禽_'
'砍下来_'
'石榴_'
'短篇小说_'
'盛事_'
'盗窃案_'
'盏_'
'病倒_'
'电量_'
'环路_'
'狂躁_'
'特色菜_'
'特克_'
'牢骚_'
'片中_'
'爱斯基摩_'
'燕麦粥_'
'炼油_'
'為_'
'滋'
'溺爱_'
'溪'
'湖南_'
'港元_'
'清点_'
'涉案_'
'海岛_'
'浓咖啡_'
'泰拉_'
'波动性_'
'河马_'
'氧化'
'母体_'
'歧途_'
'欧文斯_'
'槌_'
'棕榈树_'
'棕'
'梵高_'
'档案室_'
'标致_'
'柠檬汁_'
'来历_'
'昏昏欲睡_'
'旺季_'
'早产_'
'既定_'
'旅行车_'
'新装修_'
'新品种_'
'整治_'
'数学模型_'
'敢动_'
'放大镜_'
'搞糊涂_'
'推土机_'
'掠夺者_'
'捣毁_'
'挣得_'
'挑出_'
'指甲油_'
'拉迪斯_'
'拉扯_'
'投靠_'
'扯下来_'
'扔下去_'
'所有制_'
'战略'
'战斗'
'想像力_'
'情绪低落_'
'恰_'
'恒_'
'总统府_'
'忧愁_'
'徽_'
'得名_'
'很狡猾_'
'当人_'
'弥漫_'
'开普敦_'
'应由_'
'序'
'床头柜_'
'幸'
'并入_'
'干干净净_'
'常数_'
'布瑞'
'巴拉圭_'
'巴拉'
'左拐_'
'工业区_'
'就业率_'
'尚有_'
'少数派_'
'尊崇_'
'封电子邮件_'
'对质_'
'安迪'
'学界_'
'学习'
'孤僻_'
'嫌'
'如释重负_'
'如出一辙_'
'好哇_'
'套利_'
'太妙_'
'大革命_'
'大肠杆菌_'
'大开_'
'大干一场_'
'多过_'
'多来_'
'夕阳_'
'塞进去_'
'埃米尔_'
'坡'
'地方性_'
'地势_'
'图象_'
'图为_'
'因涉嫌_'
'回个_'
'唐突_'
'和保罗_'
'告辞_'
'启蒙_'
'吞咽_'
'同年_'
'台球_'
'只怕_'
'古德_'
'口哨_'
'叙叙旧_'
'卡鲁'
'卡帕_'
'单曲_'
'午'
'十四_'
'十二点_'
'十一_'
'医学'
'加尔_'
'割破_'
'前人_'
'刻板_'
'划痕_'
'分道扬镳_'
'分析方法_'
'出逃_'
'出土_'
'冲进来_'
'农户_'
'写字楼_'
'公尺_'
'公会_'
'免提_'
'克莱格_'
'傻傻的_'
'健在_'
'做买卖_'
'假肢_'
'俯'
'信得过_'
'保暖_'
'侵'
'你些_'
'伦理学_'
'伊迪丝_'
'令尊_'
'仕_'
'从小到大_'
'仅剩_'
'产业'
'交税_'
'五倍_'
'互相残杀_'
'争相_'
'之感_'
'主见_'
'主帅_'
'中级_'
'东方'
'且'
'不需_'
'不详_'
'不离_'
'不孕_'
'上流_'
'七月份_'
'一闪_'
'一连_'
'一言为定_'
'一二_'
'zu'
'va'
'shin'
'res'
'mc'
'ltd_'
'lt'
'lin_'
'eBay_'
'cr'
'chrome_'
'bi'
'ben'
'ap'
'american_'
'No'
'Di'
'60'
'550_'
'1965_'
'184'
' ， 「 _'
' ⋯ ⋯ … …_'
' \u _'
' "   。 _'
'   —   _'
'黑石_'
'鲍尔森_'
'高新技术_'
'驱逐舰_'
'飞盘_'
'风潮_'
'颜面_'
'题为_'
'领子_'
'非法'
'静默_'
'青年人_'
'霸'
'难逃_'
'陪你去_'
'阿莱_'
'门路_'
'长短_'
'长到_'
'镀金_'
'键入_'
'锐减_'
'锅炉_'
'钦_'
'钢板_'
'钓鱼岛_'
'鉴'
'重归于好_'
'里查_'
'郝'
'邦尼_'
'那来_'
'迷雾_'
'迫'
'这层_'
'这么着_'
'轻盈_'
'轻举妄动_'
'转角_'
'车是_'
'路西_'
'越南战争_'
'起色_'
'赞许_'
'赛前_'
'谷底_'
'试剂_'
'证明文件_'
'证明书_'
'设计图_'
'计谋_'
'计算'
'触碰_'
'西拉_'
'表面'
'蜷缩_'
'薄荷糖_'
'蒙面_'
'蒙大拿_'
'芭比娃娃_'
'艾弗里_'
'艾丽西娅_'
'至高无上_'
'自我感觉_'
'腰包_'
'腔调_'
'脑电波_'
'肾上腺_'
'联调_'
'罗利_'
'缰绳_'
'缩影_'
'缔造_'
'维生_'
'维尔'
'统一'
'经济性_'
'纵使_'
'素食者_'
'系统地_'
'精品店_'
'签到_'
'筛查_'
'第十'
'立体'
'窃窃私语_'
'突触_'
'稀薄_'
'祐_'
'磕药_'
'石板_'
'知会_'
'真笨_'
'百分之_'
'畅'
'电椅_'
'田间_'
'生物化学_'
'瓣膜_'
'珠穆朗玛峰_'
'王座_'
'猛虎_'
'犁_'
'特异性_'
'牵强_'
'爸会_'
'炮制_'
'演艺_'
'渍_'
'淑'
'润滑剂_'
'海冰_'
'浑蛋_'
'流言蜚语_'
'泻_'
'泰晤士报_'
'泰依拉_'
'泛美_'
'沿路_'
'沈_'
'水体_'
'氨_'
'民权_'
'毫无根据_'
'死路一条_'
'死而复生_'
'死时_'
'步子_'
'此书_'
'模糊不清_'
'检举_'
'梦中_'
'梅赛德斯_'
'梅兰_'
'根据地_'
'核子_'
'某项_'
'柏林墙_'
'来晚_'
'服装'
'更为严重_'
'暗算_'
'智障_'
'普特_'
'显现出_'
'显出_'
'日本鬼子_'
'无菌_'
'无忧_'
'无影无踪_'
'敲诈勒索_'
'教廷_'
'放射'
'改过_'
'收录_'
'推介_'
'探针_'
'挫_'
'投票决定_'
'抓错_'
'扰'
'我为_'
'成家_'
'悖论_'
'恪守_'
'恩爱_'
'总体而言_'
'快逃_'
'忌_'
'必要条件_'
'心室_'
'徒手_'
'很准_'
'影星_'
'强硬派_'
'强权_'
'弗里茨_'
'弓箭手_'
'异形_'
'开裂_'
'开局_'
'库房_'
'并不多_'
'希特_'
'差额_'
'州际_'
'崽_'
'屈从_'
'尾随_'
'小鹿_'
'小猴子_'
'小点声_'
'射穿_'
'寿险_'
'密不可分_'
'家政_'
'室里_'
'实属_'
'安伯_'
'孰'
'娼妓_'
'娜娜_'
'威信_'
'妇女'
'奈斯_'
'夹住_'
'失踪案_'
'太郎_'
'太笨_'
'大受欢迎_'
'大加_'
'夜莺_'
'外层_'
'增至_'
'塔里_'
'坏脾气_'
'地理学_'
'地是_'
'土地利用_'
'图腾_'
'困难重重_'
'嗜'
'喷嚏_'
'啤_'
'哼哼_'
'哪有什么_'
'响尾蛇_'
'哈蒙_'
'呆板_'
'吸收'
'吸引住_'
'听来_'
'后视镜_'
'后脑_'
'吊起来_'
'吉拉德_'
'合繁_'
'合拍_'
'吃素_'
'另一组_'
'古龙水_'
'反战_'
'原文_'
'厄斯_'
'即使如此_'
'印着_'
'印有_'
'卡迪拉克_'
'单人房_'
'匙_'
'北京大学_'
'化为_'
'加冰_'
'刺激性_'
'别胡说_'
'刚回来_'
'分拆_'
'凹陷_'
'凯莱_'
'几号_'
'减半_'
'准将_'
'冰雹_'
'冥'
'写些_'
'其二_'
'关禁闭_'
'共谋_'
'光电_'
'儒'
'做礼拜_'
'假货_'
'保险杠_'
'依偎_'
'供奉_'
'低语_'
'估量_'
'伦尼_'
'会爱上_'
'任教_'
'任凭_'
'令人遗憾_'
'付诸行动_'
'仓鼠_'
'今晨_'
'今年年初_'
'人际_'
'人队_'
'交通部_'
'互惠_'
'于心_'
'乳制品_'
'买过_'
'乏力_'
'乌兹别克斯坦_'
'之风_'
'之选_'
'为傲_'
'中土_'
'两辆车_'
'两腿_'
'两分_'
'两三'
'丑事_'
'不折不扣_'
'不堪一击_'
'不可分割_'
'上垒_'
'上下文_'
'三轮车_'
'三十分钟_'
'一车_'
'一步之遥_'
'一干二净_'
'一天天_'
'一丝不挂_'
'ya'
'vin'
'shar'
'r'
'nu'
'mat'
'ky_'
'ks'
'io'
'hs'
'hen'
'gmail_'
'dra'
'cker_'
'chi'
'c'
'ble_'
'an'
'To'
'Mar'
'LinkedIn_'
'As'
'Al'
'80'
'64'
'13'
'102_'
' （ '
' 、 '
' ... …_'
' - ._'
' -   -   _'
' "   。_'
' "   "   _'
'， '
'麻醉药_'
'鳄_'
'鲁尼_'
'马可_'
'馆'
'饲'
'飞车_'
'飞舞_'
'风云_'
'领结_'
'顿时_'
'音乐盒_'
'非洲大陆_'
'非常明显_'
'陪你玩_'
'阿桑奇_'
'阴谋论_'
'阴毛_'
'阅'
'闯'
'镶嵌_'
'锥'
'错误'
'醒悟_'
'配给_'
'那门_'
'那该_'
'远非_'
'这一关_'
'运输机_'
'达菲_'
'辛西娅_'
'轻快_'
'转圈_'
'蹲'
'跟踪器_'
'走强_'
'走低_'
'赛斯_'
'赔钱_'
'贷款人_'
'货币贬值_'
'财政收入_'
'贝鲁特_'
'调查者_'
'调换_'
'诺里斯_'
'请单击_'
'误认为_'
'详述_'
'诚心_'
'诗句_'
'试穿_'
'许久_'
'训练'
'解毒剂_'
'觉得很有_'
'覆辙_'
'袍子_'
'表现出色_'
'衣裳_'
'蛋卷_'
'虑_'
'蒙住_'
'蒙上_'
'花店_'
'舍尔_'
'自由人_'
'腔'
'腌_'
'脓'
'耶夫_'
'老奶奶_'
'耀'
'美孚_'
'缴'
'统计数字_'
'绘_'
'细腻_'
'算术_'
'筋'
'第八条_'
'立足_'
'立法机构_'
'窥'
'秘密警察_'
'科尔曼_'
'科勒_'
'禽'
'硕_'
'瞄'
'真诚地_'
'看错_'
'看下_'
'相对'
'百万'
'瘸子_'
'痒痒_'
'疑神疑鬼_'
'申_'
'田径_'
'甩开_'
'用不上_'
'生死'
'甜味_'
'理工学院_'
'珍品_'
'现时_'
'环境污染_'
'玛蒂尔_'
'獾_'
'猎食_'
'狼群_'
'特雷斯_'
'牢笼_'
'牢狱之灾_'
'爹地_'
'爱德华兹_'
'热烈欢迎_'
'烛台_'
'点钱_'
'点球_'
'炒作_'
'灌肠_'
'激光'
'漂移_'
'游船_'
'游乐_'
'深藏_'
'淋浴间_'
'涌出_'
'海湾战争_'
'测谎仪_'
'流星雨_'
'洗刷_'
'法国政府_'
'治国_'
'没起_'
'没查_'
'没有勇气_'
'没回_'
'沒_'
'残害_'
'歌颂_'
'欺凌_'
'欧宝_'
'橙子_'
'榨干_'
'检修_'
'标榜_'
'松动_'
'材'
'杂质_'
'期待已久_'
'最多'
'更佳_'
'暂且_'
'晴'
'普林斯_'
'晒黑_'
'晃荡_'
'昆明_'
'旧车_'
'无拘无束_'
'族裔_'
'斯莱特_'
'斯派克_'
'散射_'
'救援队_'
'敌视_'
'改革者_'
'收盘_'
'操练_'
'撞伤_'
'摊位_'
'接洽_'
'捂住_'
'挂牌_'
'拳王_'
'拌_'
'拉哈_'
'拉上来_'
'抵抗力_'
'投身于_'
'手心_'
'我觉_'
'成堆_'
'惊险_'
'悄悄话_'
'恒河_'
'性虐待_'
'怡'
'忧'
'忍受着_'
'微软公司_'
'微博上_'
'弃尸_'
'建设项目_'
'建筑群_'
'庸俗_'
'库尔特_'
'并会_'
'平方公里_'
'带去_'
'希金斯_'
'布伦_'
'市价_'
'巫'
'山路_'
'山中_'
'展厅_'
'层层_'
'小得多_'
'小女生_'
'射伤_'
'导火索_'
'对华_'
'寄出去_'
'寂_'
'宽泛_'
'害人_'
'宪政_'
'孬种_'
'孩_'
'学着点_'
'妾_'
'如常_'
'奴仆_'
'头一回_'
'太极_'
'大队_'
'大船_'
'大河_'
'大手笔_'
'大意_'
'大庭广众_'
'大作_'
'堕入_'
'基本面_'
'垫底_'
'地检_'
'在手_'
'圆盘_'
'回转_'
'嘱咐_'
'善解人意_'
'哲学'
'哭诉_'
'哪里找_'
'哪件_'
'咱能_'
'咬伤_'
'周密_'
'吹毛求疵_'
'启迪_'
'启航_'
'君临_'
'同种_'
'合乎_'
'吃力_'
'右舷_'
'台面_'
'可贵_'
'叨叨_'
'另当别论_'
'变压器_'
'发货_'
'发呆_'
'反光_'
'双子_'
'历代_'
'卸载_'
'华裔_'
'千美元_'
'千克_'
'匹敌_'
'化成_'
'化妆镜_'
'包庇_'
'动过_'
'动动_'
'动作片_'
'前会_'
'制度化_'
'刮掉_'
'利比里亚_'
'划掉_'
'出气_'
'几内亚_'
'农业部_'
'军事演习_'
'共性_'
'共产主义者_'
'全州_'
'先放_'
'充其量_'
'儿戏_'
'偷取_'
'健谈_'
'偏低_'
'倾注_'
'倾_'
'保龄_'
'使用暴力_'
'作祟_'
'佛教徒_'
'会员卡_'
'会众_'
'仪表板_'
'令人振奋_'
'令人作呕_'
'代金券_'
'他称_'
'仇家_'
'亿万_'
'人站_'
'人流_'
'人员伤亡_'
'人事'
'人之'
'临界点_'
'中心'
'中年人_'
'中学生_'
'个面_'
'两手_'
'两对_'
'丙酮_'
'不言而喻_'
'不算数_'
'不分'
'不值一提_'
'下肢_'
'下楼梯_'
'一档_'
'ys_'
'van'
'the'
'si_'
'sh_'
'securities_'
'scott_'
'mer_'
'ls'
'hol'
'hd'
'con'
'co'
'ac'
'So'
'Partners_'
'Car'
'< _'
'53'
'51'
'48'
'38'
'1952_'
'190_'
'186'
'15000_'
'104_'
' ’ 。_'
'黛安_'
'鲜为人知_'
'鱼饵_'
'高速'
'高等法院_'
'骚货_'
'驻守_'
'首页_'
'馈赠_'
'风骚_'
'顺手_'
'韵律_'
'面世_'
'非议_'
'非官方_'
'除颤_'
'错位_'
'铜矿_'
'钻孔_'
'钢管_'
'那女_'
'逾越_'
'造血_'
'进口国_'
'这匹马_'
'运输'
'过个_'
'达尔富尔_'
'软饮料_'
'软体_'
'轮盘_'
'转世_'
'车费_'
'躺下来_'
'跟个_'
'起航_'
'走遍_'
'走神_'
'赔付_'
'账簿_'
'负债累累_'
'贝尼特_'
'谢尔顿_'
'调职_'
'诬陷_'
'警司_'
'言之'
'观众席_'
'西莉亚_'
'衰减_'
'表达方式_'
'表单_'
'补丁_'
'蝶'
'蛋白酶_'
'蒙大拿州_'
'蒋'
'葬'
'营养'
'菲利_'
'草本_'
'茂盛_'
'英明_'
'若无其事_'
'花草_'
'节拍_'
'色谱法_'
'舱'
'舰'
'自由基_'
'自带_'
'肚脐_'
'联储_'
'耳熟_'
'而不'
'考生_'
'美洲豹_'
'美利坚_'
'置疑_'
'置换_'
'罗夫_'
'网络攻击_'
'缠绵_'
'维纳斯_'
'维加_'
'结构'
'纳西_'
'纳什维尔_'
'粘住_'
'粒'
'算出_'
'第二次世界大战_'
'窑_'
'空空_'
'税务机关_'
'秘书处_'
'科斯塔_'
'福建_'
'神经性_'
'社会性_'
'破坏者_'
'知之甚少_'
'睡袍_'
'真实情况_'
'真假_'
'看场_'
'省点_'
'省会_'
'皮下_'
'皇马_'
'百慕大_'
'白菜_'
'登船_'
'癖好_'
'疯狗_'
'甩卖_'
'生路_'
'珂_'
'现状及_'
'猝死_'
'狼吞虎咽_'
'犯罪集团_'
'特瑞_'
'特利_'
'热度_'
'烘干机_'
'炽热_'
'溃'
'湖畔_'
'渣滓_'
'海登_'
'浑水_'
'洛克菲勒_'
'洁白_'
'泰克_'
'注目_'
'法利赛_'
'河南省_'
'河北省_'
'河内_'
'没指望_'
'没人见_'
'沙地_'
'沉溺于_'
'沃思_'
'水边_'
'水箱_'
'水泵_'
'氰化物_'
'毕肖_'
'比索_'
'段子_'
'殖民者_'
'欣欣向荣_'
'检验'
'检查和_'
'栏'
'极易_'
'板子_'
'杰弗逊_'
'来头_'
'条文_'
'本币_'
'木桩_'
'朝鲜人_'
'有神_'
'有否_'
'月度_'
'最富_'
'普罗旺斯_'
'晃'
'昨天下午_'
'昔_'
'明朝_'
'时事_'
'无可挑剔_'
'斧_'
'斐'
'文森_'
'整容手术_'
'数以万计_'
'放牧_'
'收银台_'
'收发_'
'撑腰_'
'摘除_'
'摇摇晃晃_'
'揪出来_'
'推导_'
'控制力_'
'接应_'
'接壤_'
'挺好玩_'
'招摇_'
'拍个_'
'拉瓦_'
'拆毁_'
'担保人_'
'抽血_'
'抢夺_'
'抛下_'
'抖'
'投票站_'
'投入使用_'
'抓不住_'
'把持_'
'承销_'
'打转_'
'打磨_'
'截然_'
'战区_'
'我取_'
'成就感_'
'戈尔巴乔夫_'
'感伤_'
'惨遭_'
'惨不忍睹_'
'惜_'
'性子_'
'微积分_'
'微处理器_'
'很生_'
'往年_'
'往东_'
'彻查_'
'当好_'
'张卡_'
'弗朗西_'
'弊_'
'建国_'
'应许_'
'幽闭_'
'并行_'
'并列_'
'平局_'
'帕特森_'
'已死_'
'已到_'
'左右为难_'
'工时_'
'尽责_'
'尽如人意_'
'尼亚加拉_'
'就诊_'
'就学_'
'尤里卡_'
'尤物_'
'小矮人_'
'小布什_'
'寨_'
'客车_'
'实战_'
'实地考察_'
'定做_'
'宗教仪式_'
'字母表_'
'威慑_'
'如是_'
'奶头_'
'奥林匹克运动会_'
'大黄蜂_'
'大相径庭_'
'大白天_'
'大学教授_'
'大增_'
'大半_'
'够快_'
'夜猫子_'
'多尼_'
'外交'
'塔特_'
'塑'
'堵'
'堪萨斯城_'
'垢_'
'坦纳_'
'坏小子_'
'在我心中_'
'圣迭戈_'
'国际刑警_'
'国境_'
'囊'
'嘉奖_'
'嗪_'
'喝掉_'
'喊出来_'
'商定_'
'哔_'
'咕哝_'
'和平共处_'
'否决权_'
'名册_'
'同义词_'
'同业_'
'吉他手_'
'合照_'
'叶柄_'
'可持续性_'
'叛乱分子_'
'发霉_'
'发展前景_'
'发型师_'
'发回_'
'反射'
'友爱_'
'参加者_'
'却会_'
'危在旦夕_'
'卡普_'
'卡拉'
'半裸_'
'十字'
'十七'
'医疗保障_'
'劳动节_'
'加尔'
'办妥_'
'副官_'
'刺入_'
'别开_'
'别国_'
'初次见面_'
'切尼_'
'分形_'
'凯旋_'
'几片_'
'凝血_'
'凄惨_'
'冲过去_'
'冲绳_'
'军备_'
'内行_'
'关键人物_'
'六处_'
'八号_'
'全身而退_'
'克里斯多_'
'克丽丝_'
'光碟_'
'光明正大_'
'偷溜_'
'修道士_'
'俩'
'侍'
'佛陀_'
'体格_'
'体味_'
'伸向_'
'会过_'
'会话_'
'会放_'
'仿效_'
'份儿_'
'以使_'
'令人鼓舞_'
'人道_'
'人行_'
'人格'
'亨廷顿_'
'产假_'
'交通运输_'
'交由_'
'亚里士多德_'
'亚尔_'
'五百万_'
'五万_'
'二手车_'
'二十四_'
'事时_'
'主播_'
'中国外交部_'
'两国间_'
'与其说_'
'不对头_'
'不力_'
'不具_'
'不买_'
'下岗_'
'三十岁_'
'一栏_'
'一条街_'
'一条线_'
'一尊_'
'一元_'
'一些则_'
'、 _'
'yu'
'tu'
'stephen_'
'ss'
'sh'
'sen'
'ry'
'rim_'
'qui'
'pt'
'ph_'
'p'
'ou'
'ol'
'mil'
'mel'
'md'
'ks_'
'jan'
'ip_'
'if'
'id'
'house_'
'ft'
'ers'
'ds'
'dre'
'ci_'
'ci'
'chris_'
'cd'
'ali'
'ai_'
'age_'
'NCIS_'
'LCD_'
'Fa'
'55'
'47'
'22'
'210_'
'183'
'12'
'112_'
'108_'
'麻袋_'
'鸵鸟_'
'鲍尔默_'
'高墙_'
'骗取_'
'马赛克_'
'马甲_'
'饿'
'餐巾纸_'
'食宿_'
'风气_'
'颇'
'领略_'
'颁奖典礼_'
'鞭_'
'鞭'
'霸权_'
'霉_'
'集资_'
'隶属_'
'障_'
'阿诺_'
'阿斯'
'阻滞_'
'阵阵_'
'队形_'
'闭路电视_'
'长者_'
'锻'
'锈'
'钞_'
'重播_'
'重工业_'
'释_'
'醛_'
'酒里_'
'郁_'
'那类_'
'遣返_'
'道义_'
'逃不掉_'
'迷惘_'
'连通_'
'连带_'
'达特茅斯_'
'输卵管_'
'轮换_'
'起个_'
'费率_'
'贸易逆差_'
'贵州_'
'贫民_'
'贩毒集团_'
'质感_'
'贝基_'
'谢丽尔_'
'谋害_'
'谈点_'
'读心术_'
'话语权_'
'诗篇_'
'译文_'
'记事_'
'警犬_'
'誓词_'
'解放军_'
'表露_'
'街坊_'
'血汗_'
'蟾蜍_'
'蝗虫_'
'蚕'
'藏有_'
'荒漠_'
'自立_'
'自残_'
'膨'
'脑电图_'
'肝癌_'
'肉汤_'
'肆无忌惮_'
'考古学_'
'翻出来_'
'翻个_'
'统一战线_'
'绝招_'
'经常性_'
'线报_'
'纯种_'
'约翰内斯堡_'
'纤维化_'
'繁文缛节_'
'紧急状况_'
'管线_'
'符合条件_'
'竿_'
'窗前_'
'空气'
'稻草人_'
'稻'
'稍候_'
'科斯特_'
'秉'
'祥和_'
'神经学_'
'研_'
'石碑_'
'石棉_'
'知足_'
'睡袋_'
'着凉_'
'看够_'
'疹_'
'电锯_'
'电影票_'
'电力供应_'
'甲醛_'
'由衷_'
'瓶装_'
'瑜珈_'
'现代性_'
'环顾四周_'
'猥亵_'
'狄克逊_'
'状物_'
'特遣队_'
'特斯拉_'
'特尼_'
'燥_'
'燃_'
'照张_'
'照应_'
'火葬_'
'濒临灭绝_'
'漂白剂_'
'滑铁卢_'
'溜出来_'
'温床_'
'渣打银行_'
'涉_'
'海量_'
'浪漫'
'浅薄_'
'活干_'
'洛林_'
'泵'
'河口_'
'河南_'
'沦陷_'
'污_'
'汝_'
'汇聚_'
'求得_'
'永世_'
'水痘_'
'水电站_'
'正相反_'
'正因如此_'
'欺骗性_'
'欣然_'
'检查'
'桑德_'
'桌椅_'
'桂冠_'
'格拉姆_'
'根烟_'
'核心'
'查封_'
'某物_'
'来烦_'
'李子_'
'有条不紊_'
'有块_'
'月刊_'
'最高点_'
'曼斯_'
'更棒_'
'普罗'
'昏厥_'
'明智地_'
'明摆着_'
'时机成熟_'
'时有发生_'
'日用品_'
'无路可走_'
'无糖_'
'无所不在_'
'新进展_'
'数据分析_'
'敬业_'
'教诲_'
'政界人士_'
'收费公路_'
'摁_'
'搬运工_'
'提价_'
'控球_'
'接踵而至_'
'探险者_'
'探查_'
'损失惨重_'
'挺快_'
'指指点点_'
'拘谨_'
'拍照片_'
'抹杀_'
'折中_'
'扶轮社_'
'执事_'
'打起_'
'所受_'
'我得'
'慈善家_'
'愿主_'
'感觉不好_'
'感到恐惧_'
'惩罚性_'
'情调_'
'悠'
'恶果_'
'快进去_'
'快进_'
'忧心_'
'忍着_'
'心胸_'
'彼此之间_'
'弹射_'
'张牌_'
'引爆器_'
'弓箭_'
'帮别人_'
'帐目_'
'布兰克_'
'巴伐利亚_'
'巨浪_'
'工程项目_'
'小红帽_'
'小丫头_'
'密苏里_'
'宫里_'
'室温_'
'宗教'
'安琪拉_'
'安格斯_'
'安在_'
'宅'
'学识_'
'字迹_'
'媲美_'
'婚姻生活_'
'妍_'
'好闻_'
'奶妈_'
'套路_'
'太天真_'
'天狼星_'
'大麦_'
'堆满_'
'国际奥委会_'
'国歌_'
'围观_'
'啾_'
'商榷_'
'啄_'
'唾弃_'
'哈兰_'
'和亨利_'
'同龄_'
'合理化_'
'合成'
'司法'
'台湾'
'口岸_'
'叙'
'变色龙_'
'受折磨_'
'取道_'
'发生率_'
'发动战争_'
'反叛者_'
'原油价格_'
'压扁_'
'历史记录_'
'卷饼_'
'印花_'
'印地安人_'
'卡萝尔_'
'卡纳'
'卑躬屈膝_'
'协议书_'
'升降机_'
'千个_'
'十八岁_'
'十五岁_'
'十二指肠_'
'十个月_'
'医术_'
'医改_'
'医学中心_'
'劝阻_'
'力场_'
'制衡_'
'别难过_'
'利害关系_'
'创新者_'
'凿'
'出生地_'
'出柜_'
'出处_'
'出品_'
'凯瑞_'
'几页_'
'凝望_'
'凋亡_'
'决战_'
'农庄_'
'冒牌_'
'内需_'
'内应_'
'关塔那摩_'
'共进_'
'先决条件_'
'偏远地区_'
'信号'
'信函_'
'保护费_'
'侬_'
'依附_'
'作怪_'
'低脂_'
'低层_'
'会展中心_'
'伐木_'
'从今天起_'
'亮出_'
'亨德_'
'产品质量_'
'互相'
'云端_'
'亏欠_'
'二线_'
'事例_'
'乐章_'
'之高_'
'之于_'
'中微子_'
'两晚_'
'两届_'
'不选_'
'不懈_'
'不可告人_'
'下颚_'
'下肚_'
'下周一_'
'上读_'
'上下'
'三四'
'万台_'
'一致同意_'
'一线希望_'
'一米_'
'一等_'
'一小撮_'
'一动_'
'一书中_'
'wo'
'ud'
'tz_'
'thomas_'
'stanley_'
'sd'
'sachs_'
'qa'
'pra'
'pm'
'me'
'javascript_'
'im'
'html_'
'hi_'
'ele'
'eh'
'cb'
'bs'
'bro'
'aw'
'ak_'
'ag'
'ac_'
'Groupon_'
'Ga'
'FI_'
'Da'
'65'
'62'
'30'
'1959_'
'19'
'% ； _'
'%   ， _'
' ？ ！ — _'
' ” …_'
'鹏_'
'鬼故事_'
'高高_'
'高能_'
'高性能_'
'骤降_'
'骇人听闻_'
'驯'
'食肉_'
'颜'
'颂扬_'
'雪人_'
'隐约_'
'随身_'
'阿灵顿_'
'阿德勒_'
'阴沉_'
'防腐剂_'
'阅历_'
'间谍活动_'
'门窗_'
'门房_'
'铸_'
'钱币_'
'金发女郎_'
'重开_'
'采石场_'
'那日_'
'避险_'
'遥不可及_'
'造价_'
'通情达理_'
'适量_'
'送人_'
'退却_'
'迪亚兹_'
'连续剧_'
'远东_'
'这全_'
'迁往_'
'达伦_'
'较之_'
'轻浮_'
'转交_'
'转个_'
'身体语言_'
'跑鞋_'
'超值_'
'起始_'
'赞叹_'
'赎'
'贸'
'豪华车_'
'谈判代表_'
'诺特_'
'说句_'
'误诊_'
'警棍_'
'詹妮_'
'西尔维亚_'
'裹尸_'
'装个_'
'补助金_'
'衔接_'
'藉口_'
'薪'
'薇'
'获知_'
'莫林_'
'腰椎_'
'脑干_'
'脑力_'
'胡话_'
'肿'
'老话_'
'老总_'
'美人儿_'
'罗夏_'
'绒_'
'经纪商_'
'线人_'
'纽约城_'
'纷'
'红葡萄酒_'
'紧急状态_'
'精光_'
'粉刺_'
'笼罩着_'
'第十_'
'第一种_'
'符合人体_'
'窦_'
'空隙_'
'穴居人_'
'穆斯_'
'稍息_'
'私家_'
'私处_'
'禄_'
'碎玻璃_'
'研究室_'
'真不'
'相距_'
'监狱长_'
'瘸_'
'瘦身_'
'疲惫不堪_'
'疝气_'
'田园_'
'生长发育_'
'班尼_'
'珊德_'
'玻璃窗_'
'猎鹰_'
'猎头_'
'犯罪'
'特产_'
'牵头_'
'烯_'
'烟斗_'
'点见_'
'灭火器_'
'火种_'
'演讲时_'
'湖南省_'
'游戏'
'深思_'
'淤泥_'
'消防车_'
'消化'
'汤姆森_'
'求情_'
'水灾_'
'水晶球_'
'民营_'
'比克_'
'母子_'
'死气沉沉_'
'死不'
'正午_'
'正前方_'
'欧陆_'
'榨_'
'椒_'
'梢_'
'档'
'格罗夫_'
'核电厂_'
'柑橘_'
'杉'
'服务费_'
'有所'
'最重_'
'昨天早上_'
'旷'
'无法无天_'
'无异_'
'无家可归者_'
'施暴_'
'新鞋_'
'新大陆_'
'斯洛文尼亚_'
'斯密_'
'数天_'
'政治经济_'
'放疗_'
'改革派_'
'撰文_'
'撞坏_'
'摔断了_'
'摊子_'
'携_'
'揭_'
'提款机_'
'提供者_'
'推选_'
'探险队_'
'掠'
'掖_'
'排行_'
'据悉_'
'挨家挨户_'
'指路_'
'拉诺_'
'拉皮_'
'拉斯'
'拆分_'
'押金_'
'抱紧_'
'披肩_'
'披头士_'
'护栏_'
'抗癌_'
'批发商_'
'扭断_'
'扫地_'
'打鼓_'
'打气_'
'打垮_'
'手气_'
'手下留情_'
'我和'
'我住_'
'我人_'
'想成_'
'惨痛_'
'悦耳_'
'总站_'
'快追_'
'快开_'
'快回去_'
'忍无可忍_'
'德威尔_'
'往南_'
'当妈_'
'强加于_'
'异乎寻常_'
'开溜_'
'开发利用_'
'废水_'
'广播'
'广为人知_'
'平淡无奇_'
'带刺_'
'帕尔'
'希律_'
'市镇_'
'巫_'
'巨变_'
'左轮手枪_'
'就医_'
'尚无_'
'小玩意儿_'
'小手_'
'富勒_'
'家长会_'
'家庭聚会_'
'完美无瑕_'
'学习者_'
'嫁人_'
'好书_'
'头等大事_'
'失禁_'
'太精彩_'
'天衣无缝_'
'大部份_'
'大学'
'大大小小_'
'大发_'
'多普勒_'
'堆里_'
'坎坷_'
'圣乔治_'
'团购_'
'回老家_'
'回房_'
'善款_'
'喂喂_'
'商品'
'哈瑞_'
'哈丁_'
'咬痕_'
'咖啡豆_'
'叹'
'史密森_'
'另一人_'
'古迹_'
'口舌_'
'受制于_'
'发行量_'
'发改委_'
'发愁_'
'发信号_'
'反革命_'
'厨'
'原著_'
'卸下来_'
'印象派_'
'华而不实_'
'华氏度_'
'半场_'
'午饭时间_'
'北冰洋_'
'募款_'
'努力学习_'
'加盖_'
'功能障碍_'
'力克斯_'
'刺进_'
'刨'
'刑事'
'出马_'
'准尉_'
'冰山一角_'
'写写_'
'养老保险_'
'兴奋不已_'
'关键所在_'
'公债_'
'全日制_'
'全无_'
'全垒打_'
'入学考试_'
'光彩照人_'
'先行_'
'先回_'
'债主_'
'倒卖_'
'倍受_'
'保不住_'
'依赖性_'
'侍应_'
'佼佼者_'
'佩斯_'
'佑_'
'伴儿_'
'伤心欲绝_'
'伙'
'份'
'任一_'
'价格'
'仪表盘_'
'他放_'
'从技术上_'
'从头再来_'
'今天天气_'
'人造'
'人脉_'
'产品开发_'
'亚特_'
'亚洲地区_'
'互助会_'
'事端_'
'争论不休_'
'丽丝_'
'主唱_'
'两旁_'
'东非_'
'世界纪录_'
'不累_'
'不疼_'
'不尽然_'
'不寒而栗_'
'下贱_'
'下潜_'
'上位_'
'三日_'
'万年前_'
'一视同仁_'
'一纸_'
'一盏_'
'一百个_'
'一想_'
'一壶_'
'一团乱_'
'一分为二_'
'tim_'
'ted_'
'sy'
'sky_'
'she'
'sel'
'ros'
'rm'
'ric'
'ran'
'mm'
'martin_'
'mac'
'ling_'
'line_'
'ity_'
'ina_'
'iii_'
'ha'
'ec'
'dr_'
'di'
'cd_'
'box_'
'Morgan_'
'Ma'
'Ho'
'An'
'1961_'
'1944_'
'1940_'
'1939_'
'% - _'
' 。 "_'
' 。   ─ ─   _'
' ” ..._'
' — —   _'
' - -_'
' ) 、 _'
'默默无闻_'
'鸡翅_'
'鲸'
'高级'
'骂'
'驾驶座_'
'首当其冲_'
'风电_'
'风尚_'
'频谱_'
'预备役_'
'颁_'
'顺利进行_'
'靠拢_'
'靠岸_'
'非线性_'
'霍尔特_'
'险些_'
'除臭剂_'
'阴郁_'
'闻名于世_'
'间距_'
'闯祸_'
'长队_'
'长毛_'
'销声匿迹_'
'铁矿_'
'野花_'
'重审_'
'重中之重_'
'里基_'
'醉汉_'
'酱油_'
'酒类_'
'避风港_'
'遥遥领先_'
'遣送_'
'逞英雄_'
'逆行_'
'远景_'
'这顿_'
'这棵_'
'这就是说_'
'这不'
'运货_'
'过奖_'
'达利_'
'辨_'
'辛勤_'
'身份证明_'
'身世_'
'越近_'
'起诉书_'
'费尔南多_'
'贬'
'贫富差距_'
'贞洁_'
'谜语_'
'调来_'
'谁家_'
'诺丁汉_'
'说得通_'
'该片_'
'试论_'
'诊疗_'
'讲道_'
'认领_'
'订货_'
'警醒_'
'觉悟_'
'规范化_'
'装货_'
'袖_'
'表达式_'
'行医_'
'蠢话_'
'螺丝刀_'
'蝴蝶结_'
'蜂窝_'
'虐_'
'葱'
'落脚_'
'萨特_'
'菇_'
'莴苣_'
'莱维_'
'莉迪亚_'
'苑_'
'苏格拉底_'
'苏利文_'
'艺术节_'
'船体_'
'致谢_'
'腺'
'肾衰竭_'
'耶利米_'
'老大哥_'
'羽毛球_'
'罗克_'
'维达_'
'续集_'
'绝无_'
'给定_'
'给付_'
'经常出现_'
'纳斯卡_'
'纳尔_'
'索非亚_'
'精油_'
'粘液_'
'米基_'
'管理制度_'
'第四季_'
'第一句_'
'符'
'竭_'
'穿梭机_'
'空房_'
'稳定'
'税务局_'
'移送_'
'科罗_'
'离线_'
'离了婚_'
'福音书_'
'神经'
'神志_'
'研讨_'
'砌_'
'睡前_'
'眺望_'
'盯梢_'
'目瞪口呆_'
'百利_'
'白金_'
'癌'
'痔疮_'
'症'
'病毒性_'
'电磁脉冲_'
'甩'
'甚或_'
'甘美_'
'狐猴_'
'狂热者_'
'犯了罪_'
'特里斯_'
'特拉维夫_'
'爱德_'
'燕子_'
'焦头烂额_'
'热议_'
'热情洋溢_'
'热情好客_'
'烫'
'烦透了_'
'烘干_'
'滥用职权_'
'满分_'
'淑_'
'消化不良_'
'涂上_'
'流鼻血_'
'流着_'
'活要_'
'洗心革面_'
'泡澡_'
'油腻_'
'没问_'
'没生气_'
'汤匙_'
'求饶_'
'水生_'
'水压_'
'民俗_'
'比尔盖茨_'
'比利时人_'
'武装部队_'
'正道_'
'正巧_'
'止步_'
'横行_'
'概要_'
'棕榈泉_'
'梗'
'柜'
'枪子_'
'杰罗姆_'
'权宜之计_'
'机械师_'
'期货交易_'
'有所增加_'
'最弱_'
'最佳时机_'
'曾多次_'
'曼森_'
'曲速_'
'易燃_'
'明晰_'
'时至今日_'
'旁遮普_'
'施用_'
'新纪元_'
'新政_'
'新意_'
'新一届_'
'斯特恩_'
'斯派_'
'斯帕'
'斩首_'
'整体'
'数码相机_'
'数百个_'
'收银员_'
'支烟_'
'攫取_'
'撼动_'
'撰稿人_'
'撤走_'
'提心吊胆_'
'提出申请_'
'提个_'
'掳_'
'推入_'
'挡不住_'
'指称_'
'拉住_'
'抢手_'
'抢占_'
'折现_'
'找来_'
'所长_'
'戴姆勒_'
'截取_'
'我拉'
'我太想_'
'我原_'
'我列_'
'恶意软件_'
'恢复健康_'
'德拉'
'归罪于_'
'弹夹_'
'弗农_'
'异教_'
'异想天开_'
'开拓者_'
'延时_'
'库斯_'
'并于_'
'平米_'
'帮下_'
'帕克'
'师生_'
'巴利_'
'工作台_'
'屏住_'
'尺'
'尖牙_'
'尔格_'
'少得_'
'小花_'
'小动作_'
'富饶_'
'宾利_'
'家常_'
'客服_'
'实际行动_'
'安装程序_'
'安乐椅_'
'宇航_'
'字符串_'
'子儿_'
'婚姻关系_'
'娇小_'
'威斯敏斯特_'
'妹夫_'
'如期_'
'奥兰_'
'头盖骨_'
'太后_'
'天翻地覆_'
'大洞_'
'大学校园_'
'多种多样_'
'多条_'
'多万_'
'外流_'
'声张_'
'声乐_'
'墙纸_'
'基辛格_'
'地方法院_'
'圣约翰_'
'圣坛_'
'圆滑_'
'团圆_'
'四川省_'
'囚_'
'嘟嘟_'
'嘀咕_'
'喀_'
'哺乳_'
'咬掉_'
'咕噜_'
'吹口哨_'
'吡'
'吝啬鬼_'
'同意书_'
'叫法_'
'只花_'
'叠加_'
'叔公_'
'发起人_'
'发牌_'
'历史课_'
'卡布奇诺_'
'占便宜_'
'升迁_'
'千载难逢_'
'十一点_'
'医疗队_'
'匈奴_'
'包机_'
'动粗_'
'制胜_'
'利索_'
'刚要_'
'列祖_'
'刑事责任_'
'刑事法庭_'
'刑事案件_'
'分神_'
'分析'
'分期付款_'
'几十万_'
'凌_'
'冲刷_'
'六条_'
'公共'
'全给_'
'全校_'
'免去_'
'克林特_'
'充满热情_'
'停机_'
'倚靠_'
'保持一致_'
'保命_'
'作王_'
'作伪证_'
'低得_'
'伪善_'
'伏地_'
'代表处_'
'从业_'
'什锦_'
'人儿_'
'交汇_'
'交易者_'
'五十年_'
'互利_'
'争战_'
'为证_'
'为伍_'
'中原_'
'严格控制_'
'业余爱好_'
'与其说是_'
'不认_'
'不知'
'不关我事_'
'下部_'
'下议院_'
'下厨_'
'上点_'
'一株_'
'一意孤行_'
'za_'
'ys'
'yo'
'we'
'ver_'
'partners_'
'open'
'le'
'im_'
'ho_'
'ho'
'goldman_'
'gd'
'financial_'
'fda_'
'fa_'
'exchange_'
'cu'
'cc'
'cat'
'auto'
'alan_'
'Zynga_'
'WESTERN_'
'Su'
'SUV_'
'Or'
'Bu'
'BEST_'
'70'
'1400_'
'103_'
'07_'
'00'
' ？ ？ _'
' 。 ─ ─   _'
' — '
'默默地_'
'黑格尔_'
'麻省_'
'麦当娜_'
'鳞'
'鲶鱼_'
'鲁迅_'
'魔幻_'
'魁北克_'
'高耸_'
'高等'
'高烧_'
'骨质_'
'马夫_'
'首付_'
'馅_'
'食用'
'顽'
'须要_'
'韦尔'
'面试官_'
'面包师_'
'霍金_'
'难说_'
'降雪_'
'降临到_'
'阵子_'
'防盗_'
'长廊_'
'镶_'
'铁路线_'
'铁路'
'重压_'
'酿成_'
'酸痛_'
'那钱_'
'遣'
'道森_'
'送礼物_'
'送出去_'
'迷倒_'
'迫击炮_'
'连续性_'
'连接'
'违章_'
'还敢_'
'近在咫尺_'
'迂回_'
'达娜_'
'软肋_'
'软组织_'
'轮值_'
'轧_'
'踏实_'
'超级计算机_'
'走远_'
'赛克斯_'
'资本'
'贫困'
'贩卖机_'
'责'
'财务报表_'
'谈不上_'
'调戏_'
'调头_'
'课外活动_'
'读出_'
'试射_'
'词是_'
'警务_'
'解锁_'
'见面会_'
'要进_'
'西洋_'
'褶皱_'
'装模作样_'
'表征_'
'血缘_'
'血滴_'
'螺'
'蜻蜓_'
'蓝宝石_'
'蒜'
'落成_'
'萝_'
'荒地_'
'节假日_'
'艾德'
'艺术馆_'
'艺术展_'
'自生自灭_'
'腹股沟_'
'腹地_'
'腐朽_'
'脱节_'
'胸脯_'
'胚_'
'联席_'
'联合国教科文组织_'
'美美_'
'美国股市_'
'缺血_'
'继任_'
'纳斯'
'纳克_'
'纠葛_'
'紧急'
'素质教育_'
'管们_'
'简言之_'
'筹办_'
'第三天_'
'站岗_'
'空降_'
'空想_'
'穷国_'
'稍等片刻_'
'稀_'
'称其_'
'积压_'
'科普_'
'离异_'
'福林_'
'福利'
'祥_'
'神气_'
'神来_'
'祖宗_'
'社会民主党_'
'礁石_'
'碗'
'碎屑_'
'确切的说_'
'砸'
'瞭望_'
'瞥_'
'督'
'眼睑_'
'盖上_'
'皮肤病_'
'百分之一_'
'百事可乐_'
'痤疮_'
'痛不欲生_'
'疹子_'
'畏缩_'
'电话簿_'
'电动机_'
'用人单位_'
'甘油_'
'球状_'
'球体_'
'环状_'
'玛利_'
'玛丽莲_'
'独到_'
'狐'
'特赦_'
'特徵_'
'爬起来_'
'熬过来_'
'熊市_'
'烧成_'
'烈'
'灾后_'
'火海_'
'演过_'
'溜溜_'
'清凉_'
'深邃_'
'淫秽_'
'浮云_'
'派发_'
'泰利_'
'没出_'
'沃尔顿_'
'毛虫_'
'比德_'
'比例尺_'
'每间房_'
'每吨_'
'每名_'
'母女_'
'死期_'
'正对_'
'欧洲议会_'
'橡皮'
'植物园_'
'棒球场_'
'梅丽莎_'
'格调_'
'格拉'
'核辐射_'
'染成_'
'析_'
'来查_'
'杜鲁门_'
'杜绝_'
'杜克大学_'
'杀人'
'朝前_'
'服装店_'
'最小化_'
'昙花一现_'
'明代_'
'时限_'
'时间机器_'
'早间_'
'旧约_'
'旧情_'
'日食_'
'无所作为_'
'无常_'
'斯泰尔_'
'斯克'
'斥资_'
'文件名_'
'整场_'
'数十_'
'敬爱_'
'救回_'
'摔坏_'
'摔下去_'
'摄影'
'推着_'
'排长_'
'掏空_'
'捣蛋鬼_'
'捐出_'
'挺大_'
'指导方针_'
'拮据_'
'括号_'
'拥堵_'
'拖进_'
'拉蒙_'
'抗药性_'
'把握住_'
'找上门来_'
'执法官_'
'打掩护_'
'打拼_'
'所赐_'
'所剩无几_'
'战争'
'我太累_'
'懂'
'慌乱_'
'愤恨_'
'息差_'
'总让_'
'怨气_'
'性高潮_'
'怀中_'
'快步_'
'忘带_'
'德雷'
'德比_'
'徒刑_'
'往昔_'
'彩蛋_'
'归属感_'
'弥_'
'弘_'
'弗雷泽_'
'弗里'
'弄到手_'
'开饭_'
'开锁_'
'开发新_'
'建筑材料_'
'建筑工人_'
'庞然大物_'
'年华_'
'布洛迪_'
'布伦'
'工序_'
'嵌_'
'尔曼_'
'小包_'
'密切关系_'
'容光焕发_'
'家电_'
'家有_'
'客观'
'完全符合_'
'完全一致_'
'安琪_'
'孤岛_'
'字幕_'
'媚_'
'媒_'
'威茨_'
'威利斯_'
'姜汁_'
'好开心_'
'好好看_'
'女服务员_'
'奥斯陆_'
'失业者_'
'太巧_'
'天际_'
'大包_'
'夜校_'
'外汇市场_'
'壳'
'塌'
'基因工程_'
'基利_'
'城里人_'
'坪_'
'坚不可摧_'
'地层_'
'回流_'
'回味_'
'嗡嗡声_'
'喝些_'
'善行_'
'啃'
'哨_'
'哈兹_'
'咨询'
'吵得_'
'名堂_'
'吉普赛_'
'合在一起_'
'合力_'
'古斯'
'变胖_'
'变弱_'
'发胶_'
'双唇_'
'原点_'
'原处_'
'原发性_'
'厚道_'
'却成_'
'印度'
'博士生_'
'单程_'
'半途而废_'
'医疗器械_'
'医患_'
'努力争取_'
'加德_'
'利器_'
'切入点_'
'分一杯羹_'
'出纳_'
'出版业_'
'凳_'
'凡妮_'
'冷嘲热讽_'
'冲锋枪_'
'冲击力_'
'六千_'
'六分钟_'
'公民权利_'
'公共财政_'
'全队_'
'全球定位系统_'
'入股_'
'免责_'
'克罗'
'克勒_'
'元凶_'
'僧人_'
'偿还债务_'
'停火协议_'
'停放_'
'伤病_'
'伤及_'
'传遍_'
'会选_'
'优越性_'
'份文件_'
'从业者_'
'仇视_'
'人过_'
'亲嘴_'
'亚热带_'
'五金店_'
'二等_'
'事不'
'买好_'
'乡镇_'
'九号_'
'乐手_'
'之身_'
'之眼_'
'之爱_'
'之极_'
'主谋_'
'临阵_'
'临死_'
'中华'
'丝绸之路_'
'东山再起_'
'不能允许_'
'不以为然_'
'下落不明_'
'三重_'
'三万_'
'一磅_'
'一眨眼_'
'一整_'
'一律_'
'一堂课_'
's'
'rt_'
'pen'
'pd'
'ow_'
'mt'
'les_'
'kat'
'gre'
'el'
'die'
'db'
'char'
'bob_'
'amazon_'
'For'
'Che'
'6'
'44'
'1955_'
'01'
' ： 《 _'
' 』 _'
' ”   '
' ’ ， _'
' ... '
' ' '
'黑脸_'
'黑山_'
'鸡皮疙瘩_'
'鲍尔'
'鱼儿_'
'高塔_'
'驶'
'驱_'
'首屈一指_'
'饱满_'
'饮食'
'食材_'
'飞奔_'
'非常低_'
'青草_'
'霍布斯_'
'雷尔_'
'雅典娜_'
'除草_'
'除此以外_'
'除名_'
'降下_'
'际'
'阿道夫_'
'防护服_'
'阅_'
'闲事_'
'问些_'
'闭上眼_'
'门面_'
'长期'
'锦_'
'铺天盖地_'
'铝业_'
'铁定_'
'逾期_'
'逢'
'逐年_'
'迫_'
'连个_'
'违禁_'
'远征_'
'进货_'
'还长_'
'还来_'
'近些年_'
'运回_'
'过长_'
'辖_'
'轻描淡写_'
'转录_'
'车行_'
'车头_'
'躲到_'
'躯干_'
'路段_'
'路子_'
'跑不掉_'
'跃_'
'赴约_'
'走后_'
'赛马场_'
'财政预算_'
'贞操_'
'貂_'
'请等一下_'
'诗集_'
'触底_'
'规制_'
'见识一下_'
'装蒜_'
'衰人_'
'蜜雪儿_'
'蚁'
'落山_'
'莎伦_'
'苹果酒_'
'英格兰银行_'
'英文'
'英吉利海峡_'
'苏琪_'
'色情片_'
'舒展_'
'自此_'
'自作自受_'
'臆想_'
'脸孔_'
'脱手_'
'肿大_'
'肝硬化_'
'聘'
'老巢_'
'老头儿_'
'老土_'
'翰'
'美国在线_'
'美国国防部_'
'罗德'
'罗伯'
'缪'
'缝制_'
'结扎_'
'结巴_'
'经营权_'
'纽伦堡_'
'红发_'
'紧盯_'
'索卡_'
'糕饼_'
'精炼_'
'米卡_'
'篇幅_'
'箴言_'
'第六条_'
'第五条_'
'第一周_'
'站稳_'
'空头_'
'穆特_'
'积液_'
'秘_'
'科尔'
'祸害_'
'祈福_'
'磕'
'硅胶_'
'破晓_'
'破坏力_'
'砖块_'
'研究会_'
'着魔_'
'眼部_'
'眼见_'
'眼珠_'
'相互之间_'
'直言_'
'监牢_'
'百年'
'留守_'
'男装_'
'男厕所_'
'电吹风_'
'生根_'
'甜菜_'
'瓦砾_'
'琦_'
'独奏_'
'热恋_'
'烤面包机_'
'点整_'
'点上_'
'炙热_'
'火箭筒_'
'火上浇油_'
'潘多拉_'
'潘基文_'
'溜冰场_'
'湖人队_'
'游泳队_'
'渥_'
'淘金_'
'消费量_'
'海外投资_'
'浙江省_'
'流露_'
'流离失所_'
'泰米尔_'
'泰森_'
'注解_'
'没辙_'
'没犯_'
'没对_'
'沃茨_'
'求救信号_'
'水道_'
'水力_'
'民谣_'
'民航_'
'每周日_'
'殷'
'武器装备_'
'正装_'
'正是如此_'
'森严_'
'梦乡_'
'梅隆_'
'格拉斯哥_'
'格尔'
'来场_'
'杀伤_'
'本科生_'
'有轨电车_'
'有赖于_'
'有股_'
'最新进展_'
'更惨_'
'更会_'
'普莱'
'普拉'
'昏睡_'
'明说_'
'日本央行_'
'无药_'
'无理取闹_'
'无价之宝_'
'旁听_'
'新面孔_'
'新约_'
'新手机_'
'新婚夫妇_'
'斯文_'
'斯卡'
'斯博士_'
'斗牛犬_'
'文艺_'
'文艺'
'政治化_'
'放好_'
'改用_'
'支笔_'
'支流_'
'撅_'
'搞坏_'
'援军_'
'掺'
'捶_'
'换回_'
'按摩'
'拐弯_'
'拉米_'
'押送_'
'抹黑_'
'折射_'
'批量_'
'扫地出门_'
'打拳_'
'打不'
'手电_'
'戴维森_'
'截断_'
'战乱_'
'我病_'
'我主_'
'愣_'
'感触_'
'惩戒_'
'惨烈_'
'惊悚_'
'情报人员_'
'悼词_'
'患儿_'
'恶习_'
'恐惧感_'
'德尔'
'德国政府_'
'彼此彼此_'
'形而上学_'
'弥赛亚_'
'开房_'
'幽会_'
'并非易事_'
'平复_'
'平地_'
'干枯_'
'布特_'
'市议员_'
'巡回演出_'
'嵌'
'小艇_'
'小米_'
'小泉_'
'对立面_'
'宠儿_'
'完全恢复_'
'安全网_'
'安倍_'
'学系_'
'孤军奋战_'
'孝_'
'媚'
'娜塔莎_'
'娘家_'
'姨_'
'始终如一_'
'好玩儿_'
'好汉_'
'好时_'
'奶瓶_'
'奋起_'
'夸夸其谈_'
'头戴_'
'太过火_'
'大吵_'
'大动脉_'
'大冒险_'
'夜视_'
'多活_'
'多方_'
'多年生_'
'多姆_'
'复位_'
'声调_'
'声纳_'
'基质_'
'培训班_'
'垫层_'
'坚定不移_'
'坐地铁_'
'坊间_'
'地热_'
'图上_'
'国际标准_'
'国会山_'
'啮齿动物_'
'咬住_'
'吹捧_'
'同胞们_'
'吃糖_'
'司法部门_'
'可逆_'
'可视化_'
'可救_'
'可为_'
'叮'
'口臭_'
'受难_'
'发明者_'
'反胃_'
'反物质_'
'反倾销_'
'厨_'
'南区_'
'千方百计_'
'医务_'
'北卡罗莱纳州_'
'化装_'
'匀称_'
'努斯_'
'动物'
'加糖_'
'加压_'
'剃须刀_'
'刷卡_'
'别有_'
'别拍_'
'利落_'
'刚巧_'
'划出_'
'出力_'
'出入口_'
'出人头地_'
'凯瑟_'
'冰盖_'
'冥王_'
'军中_'
'养家_'
'兹曼_'
'兴盛_'
'公证_'
'公职_'
'公司总部_'
'入主_'
'兑'
'克洛艾_'
'先看_'
'充分'
'偏执狂_'
'倒影_'
'個_'
'信里_'
'供暖_'
'侍卫_'
'伴着_'
'伯恩斯坦_'
'会计准则_'
'会查_'
'会否_'
'优先级_'
'休闲'
'以人为本_'
'令人窒息_'
'代名词_'
'人造卫星_'
'人死于_'
'人因_'
'亲情_'
'交汇处_'
'五金_'
'乍得_'
'乌瑟_'
'举步维艰_'
'中国日报_'
'丛林中_'
'专有_'
'不计_'
'不稳_'
'不尽相同_'
'上周三_'
'三文治_'
'三声_'
'三千'
'七十'
'丁字裤_'
'一劳永逸_'
'war'
'wal'
'ut'
'ur_'
'up'
'um'
'ui'
'st'
'sb'
'rh'
'po'
'pet'
'pa_'
'org_'
'mail_'
'len'
'lan'
'ice_'
'hu'
'gl'
'ger'
'fre'
'frank_'
'for'
'cro'
'bridge_'
'bb'
'bar'
'ass'
'ala'
'Sha'
'Research_'
'Ke'
'Gu'
'63'
'61'
'3500_'
'1920_'
'..   _'
'. _'
'( _'
' “ 。_'
' : “ _'
' . 。_'
' )   _'
'   （ _'
'黎_'
'鹌鹑_'
'鳄梨_'
'魔方_'
'鬼怪_'
'高浓度_'
'高分辨率_'
'驼背_'
'驰'
'马利_'
'马利'
'顾忌_'
'音效_'
'霍普_'
'霍伊特_'
'雨天_'
'随机应变_'
'随处_'
'阳市_'
'防晒_'
'闹翻_'
'闸门_'
'闭眼_'
'长篇_'
'键'
'销售商_'
'铁皮_'
'金黄色_'
'醇'
'鄙'
'都灵_'
'那帮人_'
'递过来_'
'选战_'
'选上_'
'违反规定_'
'这组_'
'轧'
'蹬_'
'跳槽_'
'超常_'
'起搏器_'
'赞颂_'
'赞成票_'
'赌马_'
'资金来源_'
'购房_'
'谭'
'诺福克_'
'诱_'
'该地_'
'议院_'
'警报系统_'
'解毒_'
'览_'
'西段_'
'装船_'
'装做_'
'裂片_'
'裁掉_'
'衰败_'
'表上_'
'衣架_'
'薄片_'
'蒙娜丽莎_'
'落水_'
'萨拉'
'莫桑比克_'
'荷莉_'
'草拟_'
'茶杯_'
'范妮_'
'花香_'
'艳遇_'
'良药_'
'自鸣得意_'
'自制力_'
'脑炎_'
'胸怀_'
'背书_'
'肾病_'
'肥肉_'
'联席会议_'
'耳语_'
'考上_'
'老死_'
'翻版_'
'翻天覆地_'
'翠_'
'美洲狮_'
'美国农业部_'
'罗琳_'
'罗宾斯_'
'维权_'
'维埃拉_'
'继子_'
'络'
'结石_'
'结核_'
'纽约'
'纯化_'
'红衫_'
'红茶_'
'红海_'
'索斯_'
'精心安排_'
'粘贴_'
'签合同_'
'第二层_'
'第一手_'
'端的_'
'窗体_'
'穷苦_'
'穆拉_'
'税法_'
'私利_'
'福建省_'
'神探_'
'确是_'
'石头砸_'
'眼花缭乱_'
'看笑话_'
'看样_'
'相悖_'
'相向_'
'直通_'
'百分之十_'
'白金汉宫_'
'疼爱_'
'疏_'
'电话'
'电影业_'
'电位_'
'用场_'
'生灵_'
'生活费_'
'生产能力_'
'甘蓝_'
'瓜分_'
'球菌_'
'珀斯_'
'玩忽职守_'
'猥琐_'
'狡诈_'
'狠心_'
'狂喜_'
'特雷'
'特勒_'
'牛角_'
'牛市_'
'牙龈_'
'爆出_'
'熔炉_'
'热浪_'
'炮轰_'
'激战_'
'激光器_'
'滑雪场_'
'温度计_'
'淡淡的_'
'海洋'
'浓缩铀_'
'流落_'
'洗劫一空_'
'注册表_'
'法戈_'
'河床_'
'没病_'
'没杀_'
'没少_'
'没付_'
'汗毛_'
'水解_'
'水滴_'
'民心_'
'毫不留情_'
'毒手_'
'残缺_'
'正经事_'
'歇歇_'
'次贷_'
'模仿者_'
'棚子_'
'梅林达_'
'样样_'
'栖身_'
'查普曼_'
'果皮_'
'林顿_'
'极为重要_'
'松软_'
'村长_'
'杂音_'
'有远见_'
'有近_'
'有色_'
'有期徒刑_'
'有别于_'
'有余_'
'显微_'
'时尚界_'
'无辜者_'
'无机_'
'教育学_'
'放风_'
'放火烧_'
'放上去_'
'放上_'
'收押_'
'攥_'
'擦擦_'
'擦干_'
'撒拉_'
'搪塞_'
'推波助澜_'
'接受者_'
'排水管_'
'排水沟_'
'捉摸_'
'挺直_'
'拖拉_'
'拖下水_'
'拉倒_'
'抽奖_'
'护航_'
'抗氧化剂_'
'投产_'
'找错_'
'扣下_'
'托运_'
'打扫卫生_'
'手部_'
'手软_'
'战斗力_'
'我脑_'
'感染力_'
'感化_'
'意料之外_'
'情欲_'
'恶性肿瘤_'
'恳请_'
'总以为_'
'急救箱_'
'忧郁症_'
'心动过速_'
'德性_'
'微调_'
'得付_'
'律师费_'
'待定_'
'弹球_'
'张票_'
'弘'
'弗莱德_'
'引致_'
'开盘_'
'开水_'
'康沃尔_'
'应聘者_'
'年限_'
'平手_'
'干活儿_'
'帮点_'
'席尔瓦_'
'希伯'
'巴尼'
'已达_'
'差异性_'
'左右'
'巡回赛_'
'岂'
'尼奇_'
'尖塔_'
'小淘气_'
'封住_'
'寻思_'
'对外贸易_'
'寒风_'
'富贵_'
'害处_'
'宠物狗_'
'定时器_'
'守夜_'
'宇宙学_'
'宁波_'
'子系统_'
'嬉皮_'
'威望_'
'妄'
'如若_'
'好用_'
'女警_'
'女强人_'
'天行者_'
'天涯_'
'大陆'
'大英帝国_'
'大洲_'
'大妈_'
'多付_'
'复审_'
'填好_'
'塞车_'
'垦'
'坦承_'
'地会_'
'圣诞夜_'
'圣女_'
'图形'
'国家统计局_'
'回荡_'
'四面八方_'
'器皿_'
'商铺_'
'哪一天_'
'哥特式_'
'哈默_'
'哈曼_'
'哈德森_'
'咖_'
'周转_'
'周旋_'
'呛_'
'告示_'
'吻别_'
'否'
'吓'
'后尘_'
'名贵_'
'同仁_'
'吉诺_'
'吃亏_'
'台下_'
'可想而知_'
'古斯_'
'变黑_'
'变卖_'
'变体_'
'受托人_'
'取自_'
'取下_'
'参考'
'原生_'
'原教旨主义_'
'原想_'
'印迹_'
'印证_'
'卫士_'
'博弈论_'
'半价_'
'升到_'
'勘察_'
'勒罗伊_'
'动力车_'
'办学_'
'前要_'
'前款_'
'刺探_'
'别太'
'利厄_'
'创新性_'
'列国_'
'出不来_'
'凭直觉_'
'军衔_'
'军火商_'
'军力_'
'写明_'
'内政部长_'
'兼任_'
'关系'
'公安局_'
'公共安全_'
'全责_'
'克罗夫特_'
'克拉伦斯_'
'克劳福德_'
'先用_'
'催泪瓦斯_'
'俄罗斯政府_'
'侦察机_'
'侍从_'
'你明_'
'你哥_'
'作伴_'
'住客_'
'伤脑筋_'
'传开_'
'企_'
'令其_'
'他求_'
'他們_'
'今年初_'
'人见_'
'人偶_'
'亭'
'享年_'
'交锋_'
'交界_'
'交响乐团_'
'亚历山德拉_'
'五家_'
'二代_'
'乳液_'
'买辆_'
'买件_'
'乘火车_'
'乌贼_'
'丽娜_'
'丽夏_'
'为重_'
'为时尚早_'
'为乐_'
'临时性_'
'中美关系_'
'中文'
'严格说来_'
'两国之间_'
'世贸中心_'
'世界遗产_'
'世世代代_'
'不致_'
'不能不要_'
'不能'
'不相上下_'
'不痛_'
'不正_'
'不悦_'
'不怕死_'
'不均_'
'不免_'
'上行_'
'上取_'
'三菱_'
'三枪_'
'三万'
'万军_'
'一查_'
'一家之主_'
'一夫一妻制_'
'一垒_'
'zo'
'xo'
'vi'
'ue_'
'thi'
'sun_'
'stein_'
'smith_'
'shi_'
'rg'
'nr'
'morgan_'
'mis'
'mad'
'kha'
'joe_'
'jim_'
'investment_'
'hin'
'gp'
'gen'
'du_'
'col'
'cl'
'chin'
'al'
'Vi'
'San'
'Ko'
'CIA_'
'8'
'31'
'2030_'
'1964_'
'185'
'175_'
', _'
' ） - _'
' ’ '
'？ ？ _'
'默德_'
'鸡汤_'
'鳞_'
'鲤鱼_'
'鲁索_'
'高速铁路_'
'高标准_'
'高喊_'
'高下_'
'验血_'
'驴'
'马虎_'
'马林_'
'马来'
'马提尼酒_'
'馊主意_'
'饶舌_'
'飞马_'
'飘飘欲仙_'
'额叶_'
'革命者_'
'雷电_'
'零碎_'
'难倒_'
'隔膜_'
'降雨量_'
'陆上_'
'长长_'
'长点_'
'错话_'
'销售收入_'
'银行帐户_'
'金丝雀_'
'重达_'
'采样_'
'酵素_'
'酰胺_'
'酒醉_'
'部手机_'
'那盘_'
'遮_'
'遗传性_'
'道谢_'
'道光_'
'送餐_'
'迹'
'迸发_'
'进入状态_'
'这股_'
'这两项_'
'过意不去_'
'达夫_'
'辣酱_'
'辛辛苦苦_'
'载有_'
'蹦出来_'
'踢开_'
'路由器_'
'路易丝_'
'超高_'
'超标_'
'起头_'
'走秀_'
'赢回来_'
'赛隆_'
'资金'
'负鼠_'
'负重_'
'谬误_'
'课件_'
'请帖_'
'语言学家_'
'详细情况_'
'诟病_'
'设计方案_'
'记述_'
'警佐_'
'视觉效果_'
'要犯_'
'要放_'
'西侧_'
'袜队_'
'衡'
'蠢猪_'
'蜡笔_'
'蜕变_'
'蚕食_'
'蚊_'
'虚拟'
'虐'
'蓝光_'
'葵_'
'落败_'
'萝丝_'
'菲利克斯_'
'荫_'
'荒原_'
'茴香_'
'苹果汁_'
'苏尔_'
'节律_'
'自个儿_'
'脚跟_'
'脚趾头_'
'背负着_'
'肥胖症_'
'肉酱_'
'肃'
'而终_'
'考试'
'老年痴呆_'
'翔_'
'美味可口_'
'罗林斯_'
'维勒_'
'绕圈子_'
'细细_'
'约见_'
'红杉_'
'纠缠不清_'
'系主任_'
'篮'
'管理体系_'
'箍_'
'简朴_'
'策划者_'
'第二步_'
'窃_'
'空无一人_'
'穆萨维_'
'科研'
'私情_'
'神经网络_'
'神童_'
'神性_'
'祈'
'碳纤维_'
'硫酸'
'破门_'
'砰砰_'
'短发_'
'瞬'
'瞥见_'
'着力_'
'看着办_'
'相间_'
'相好_'
'登科_'
'痛打_'
'男同性恋_'
'男伴_'
'电汇_'
'电场_'
'甲醇_'
'用点_'
'瓦伦丁_'
'瑞士法郎_'
'环游_'
'环境因素_'
'玩火_'
'物色_'
'牢狱_'
'爽快_'
'爱滋病_'
'熟食店_'
'煤气'
'焚'
'点餐_'
'炖肉_'
'漠视_'
'漂亮女孩_'
'溢_'
'游骑兵_'
'渡假_'
'深表_'
'深圳市_'
'涵'
'海耶斯_'
'浮雕_'
'派个_'
'洽谈_'
'洛塔_'
'泽尔_'
'泰姬陵_'
'河上_'
'没为_'
'沙尘暴_'
'汀'
'水文_'
'水性_'
'气力_'
'民主联盟_'
'比安卡_'
'比亚迪_'
'每组_'
'每一'
'母校_'
'殖民主义_'
'残存_'
'欠债_'
'模子_'
'楠_'
'棒子_'
'梵'
'桔子_'
'桔'
'格罗斯_'
'核燃料_'
'栖_'
'柯林_'
'林木_'
'林区_'
'札克_'
'朝下_'
'有生以来_'
'有机'
'有两下子_'
'智能化_'
'普鲁'
'晓_'
'昆廷_'
'旱_'
'无法形容_'
'新几内亚_'
'断路器_'
'斋月_'
'教学模式_'
'放得_'
'放哨_'
'收支平衡_'
'擦肩而过_'
'擅于_'
'撞毁_'
'撕下来_'
'摔死_'
'摄政_'
'搏_'
'提尔_'
'排卵_'
'捷豹_'
'按部就班_'
'拟议_'
'拍子_'
'担惊受怕_'
'抬起头来_'
'折叠床_'
'抗战_'
'承运人_'
'批判性_'
'执行'
'托雷斯_'
'托斯卡纳_'
'打滚_'
'扎进_'
'所生_'
'我载_'
'戏剧'
'慰'
'感觉良好_'
'惯性_'
'情报员_'
'悄无声息_'
'悄悄的_'
'恶霸_'
'恐怖电影_'
'快上来_'
'忍心_'
'心地_'
'心不'
'心上人_'
'德班_'
'得寸进尺_'
'後'
'很受_'
'往西_'
'弗莱迪_'
'异地_'
'座右铭_'
'废气_'
'底盘_'
'库拉_'
'库尔'
'幕僚_'
'常绿_'
'帕斯卡_'
'希姆_'
'希克_'
'布雷顿_'
'巴沙尔_'
'巴哈_'
'巨龙_'
'巨响_'
'巨人队_'
'巡航_'
'岸'
'山水_'
'屡次_'
'屋主_'
'居住地_'
'尽其所能_'
'尼莫_'
'尼玛_'
'尔博士_'
'少妇_'
'小型企业_'
'射精_'
'家喻户晓_'
'害得_'
'宪章_'
'宪'
'客运_'
'宝拉_'
'定格_'
'官方语言_'
'完全'
'孕期_'
'威吓_'
'奥斯特_'
'奥斯_'
'奥尔德_'
'奥吉_'
'失掉_'
'太监_'
'太弱_'
'太妃糖_'
'太像_'
'大谈_'
'大浪_'
'大有'
'大扫除_'
'大大降低_'
'大功告成_'
'多莉_'
'多想_'
'外商_'
'处有_'
'墨索里尼_'
'塞夫_'
'塞塔_'
'塞克斯_'
'基辅_'
'基拉_'
'基德_'
'坦普尔_'
'坦帕_'
'地底下_'
'在实践中_'
'圣马'
'圣经上_'
'土豆泥_'
'土著人_'
'土生土长_'
'国际原子能机构_'
'国有资产_'
'国库_'
'困苦_'
'四只_'
'四千_'
'四万_'
'噩耗_'
'嘉莉_'
'喝醉酒_'
'喝牛奶_'
'哈维'
'哈根_'
'呼救_'
'周遭_'
'后事_'
'吊灯_'
'吃过饭_'
'变通_'
'发烧友_'
'发展壮大_'
'发出声音_'
'反抗军_'
'及早_'
'去不去_'
'厮守_'
'历险_'
'卷轴_'
'危难_'
'卡马_'
'卡尔加里_'
'卡上_'
'博纳_'
'南太平洋_'
'午睡_'
'十秒钟_'
'十多'
'十分'
'十六_'
'勾勒_'
'动感_'
'动弹_'
'力争_'
'剧痛_'
'制造'
'别信_'
'凹痕_'
'几样_'
'冻住_'
'冷冰冰_'
'冰凉_'
'写手_'
'写封信_'
'内部消息_'
'内维尔_'
'内皮_'
'兼具_'
'关联性_'
'公社_'
'公民权_'
'公开市场_'
'公司股票_'
'储蓄银行_'
'偏要_'
'保险业_'
'保安人员_'
'保利_'
'保值_'
'依恋_'
'供出_'
'你动_'
'作出反应_'
'何为_'
'体位_'
'伯克'
'伯伯_'
'会开_'
'会帮_'
'以待_'
'付诸_'
'仑_'
'人才培养_'
'产业化_'
'交易会_'
'亡'
'事故现场_'
'争议性_'
'乾_'
'乱子_'
'也罢_'
'九头_'
'之差_'
'主刀_'
'为您服务_'
'中枢神经_'
'中暑_'
'中国证监会_'
'两极_'
'业务'
'业余时间_'
'不酷_'
'不慎_'
'不如意_'
'不保_'
'不付_'
'上上下下_'
'三颗_'
'三座_'
'三八_'
'七日_'
'一觉_'
'一英寸_'
'一般性_'
'一缕_'
'一等兵_'
'一百块_'
'一小片_'
'一寸_'
'一切办法_'
'一九九'
'一个点_'
'wi'
'well_'
'wat'
'sr'
'skype_'
'ser'
'ron'
'reg'
'que_'
'pan'
'nic'
'news_'
'mor'
'microsoft_'
'media_'
'mal'
'la'
'l'
'kan'
'ios_'
'il'
'h1n1_'
'gen_'
'firefox_'
'cm'
'charles_'
'car'
'cal'
'bre'
'bor'
'boo'
'bo_'
'ara'
'Lu'
'Du'
'92'
'75'
'57'
'45'
'3D_'
'230_'
'20000_'
'1963_'
'1948_'
'1941_'
'1914_'
'181'
' ？   -   _'
' 、   _'
' : " _'
'   — _'
'！ _'
'麦金_'
'麦道_'
'魁_'
'高强度_'
'高度机密_'
'高加索_'
'骤'
'驱动力_'
'马屁精_'
'马吉_'
'首轮_'
'首场_'
'食管_'
'飞扬_'
'颠_'
'领空_'
'韦翰_'
'面目全非_'
'露脸_'
'雪糕_'
'难处_'
'难以启齿_'
'陆克文_'
'阿罗_'
'阿拉斯加州_'
'阿拉伯'
'阿尔伯_'
'阮'
'长高_'
'长生不老_'
'长存_'
'长于_'
'银行'
'铐起来_'
'钻戒_'
'钢丝_'
'针织_'
'量身_'
'醚_'
'酬_'
'酒来_'
'郁'
'那班_'
'那回事_'
[...]
